#include "magic_wand_model_data.h"


// We need to keep the data array aligned on some architectures.

#ifdef __has_attribute

#define HAVE_ATTRIBUTE(x) __has_attribute(x)

#else

#define HAVE_ATTRIBUTE(x) 0

#endif

#if HAVE_ATTRIBUTE(aligned) || (defined(__GNUC__) && !defined(__clang__))

#define DATA_ALIGN_ATTRIBUTE __attribute__((aligned(4)))

#else

#define DATA_ALIGN_ATTRIBUTE

#endif


const unsigned char g_magic_wand_model_data[] DATA_ALIGN_ATTRIBUTE = {

  // Paste the data of the char array in `src/model.cc` here
  0x08, 0x00, 0x00, 0x00, 0x54, 0x46, 0x4c, 0x33, 0x62, 0xff, 0xff, 0xff,
  0x03, 0x00, 0x00, 0x00, 0x10, 0x00, 0x00, 0x00, 0x24, 0x00, 0x00, 0x00,
  0x78, 0x00, 0x00, 0x00, 0x24, 0x00, 0x00, 0x00, 0x05, 0x00, 0x00, 0x00,
  0x78, 0x05, 0x00, 0x00, 0xb0, 0x04, 0x00, 0x00, 0xe0, 0x02, 0x00, 0x00,
  0x60, 0x02, 0x00, 0x00, 0x54, 0x01, 0x00, 0x00, 0x01, 0x00, 0x00, 0x00,
  0x78, 0x00, 0x00, 0x00, 0x13, 0x00, 0x00, 0x00, 0x18, 0x30, 0x00, 0x00,
  0x14, 0x30, 0x00, 0x00, 0x20, 0x2f, 0x00, 0x00, 0xa8, 0x2e, 0x00, 0x00,
  0x3c, 0x2e, 0x00, 0x00, 0xec, 0x11, 0x00, 0x00, 0x98, 0x10, 0x00, 0x00,
  0xbc, 0x0e, 0x00, 0x00, 0x60, 0x06, 0x00, 0x00, 0xfc, 0x05, 0x00, 0x00,
  0x78, 0x05, 0x00, 0x00, 0xec, 0x2f, 0x00, 0x00, 0xe8, 0x2f, 0x00, 0x00,
  0xe4, 0x2f, 0x00, 0x00, 0xe0, 0x2f, 0x00, 0x00, 0xdc, 0x2f, 0x00, 0x00,
  0xd8, 0x2f, 0x00, 0x00, 0xd4, 0x2f, 0x00, 0x00, 0xd0, 0x2f, 0x00, 0x00,
  0x0f, 0x00, 0x00, 0x00, 0x4d, 0x4c, 0x49, 0x52, 0x20, 0x43, 0x6f, 0x6e,
  0x76, 0x65, 0x72, 0x74, 0x65, 0x64, 0x2e, 0x00, 0x00, 0x00, 0x0e, 0x00,
  0x18, 0x00, 0x04, 0x00, 0x08, 0x00, 0x0c, 0x00, 0x10, 0x00, 0x14, 0x00,
  0x0e, 0x00, 0x00, 0x00, 0x14, 0x00, 0x00, 0x00, 0x5c, 0x00, 0x00, 0x00,
  0x60, 0x00, 0x00, 0x00, 0x64, 0x00, 0x00, 0x00, 0x84, 0x00, 0x00, 0x00,
  0x12, 0x00, 0x00, 0x00, 0x48, 0x2f, 0x00, 0x00, 0xe4, 0x2e, 0x00, 0x00,
  0x3c, 0x2e, 0x00, 0x00, 0xd8, 0x2d, 0x00, 0x00, 0x70, 0x2d, 0x00, 0x00,
  0x1c, 0x11, 0x00, 0x00, 0xc0, 0x0f, 0x00, 0x00, 0xe4, 0x0d, 0x00, 0x00,
  0xa0, 0x05, 0x00, 0x00, 0x3c, 0x05, 0x00, 0x00, 0xb0, 0x04, 0x00, 0x00,
  0xe8, 0x03, 0x00, 0x00, 0x38, 0x03, 0x00, 0x00, 0xa4, 0x02, 0x00, 0x00,
  0x10, 0x02, 0x00, 0x00, 0x90, 0x01, 0x00, 0x00, 0xfc, 0x00, 0x00, 0x00,
  0x80, 0x00, 0x00, 0x00, 0x01, 0x00, 0x00, 0x00, 0x00, 0x00, 0x00, 0x00,
  0x01, 0x00, 0x00, 0x00, 0x11, 0x00, 0x00, 0x00, 0x08, 0x00, 0x00, 0x00,
  0x1c, 0x04, 0x00, 0x00, 0x58, 0x03, 0x00, 0x00, 0xc8, 0x02, 0x00, 0x00,
  0x24, 0x02, 0x00, 0x00, 0xac, 0x01, 0x00, 0x00, 0x10, 0x01, 0x00, 0x00,
  0x94, 0x00, 0x00, 0x00, 0x10, 0x00, 0x00, 0x00, 0x04, 0x00, 0x00, 0x00,
  0x6d, 0x61, 0x69, 0x6e, 0x00, 0x00, 0x00, 0x00, 0x8e, 0xff, 0xff, 0xff,
  0x00, 0x00, 0x00, 0x09, 0x04, 0x00, 0x00, 0x00, 0x1c, 0x00, 0x00, 0x00,
  0x10, 0x00, 0x00, 0x00, 0x04, 0x00, 0x00, 0x00, 0x0a, 0xd2, 0xff, 0xff,
  0x00, 0x00, 0x80, 0x3f, 0x01, 0x00, 0x00, 0x00, 0x11, 0x00, 0x00, 0x00,
  0x01, 0x00, 0x00, 0x00, 0x10, 0x00, 0x00, 0x00, 0xf6, 0xfb, 0xff, 0xff,
  0x00, 0x00, 0x00, 0x19, 0x01, 0x00, 0x00, 0x00, 0x8a, 0xd1, 0xff, 0xff,
  0x10, 0x00, 0x00, 0x00, 0x12, 0x00, 0x00, 0x00, 0x14, 0x00, 0x00, 0x00,
  0x20, 0x00, 0x00, 0x00, 0x02, 0x00, 0x00, 0x00, 0x01, 0x00, 0x00, 0x00,
  0x04, 0x00, 0x00, 0x00, 0x08, 0x00, 0x00, 0x00, 0x49, 0x64, 0x65, 0x6e,
  0x74, 0x69, 0x74, 0x79, 0x00, 0x00, 0x00, 0x00, 0xc4, 0xd1, 0xff, 0xff,
  0x00, 0x00, 0x0e, 0x00, 0x18, 0x00, 0x08, 0x00, 0x0c, 0x00, 0x10, 0x00,
  0x07, 0x00, 0x14, 0x00, 0x0e, 0x00, 0x00, 0x00, 0x00, 0x00, 0x00, 0x08,
  0x03, 0x00, 0x00, 0x00, 0x18, 0x00, 0x00, 0x00, 0x0c, 0x00, 0x00, 0x00,
  0x04, 0x00, 0x00, 0x00, 0x98, 0xd1, 0xff, 0xff, 0x01, 0x00, 0x00, 0x00,
  0x10, 0x00, 0x00, 0x00, 0x03, 0x00, 0x00, 0x00, 0x0f, 0x00, 0x00, 0x00,
  0x05, 0x00, 0x00, 0x00, 0x02, 0x00, 0x00, 0x00, 0x02, 0xd2, 0xff, 0xff,
  0x10, 0x00, 0x00, 0x00, 0x11, 0x00, 0x00, 0x00, 0x14, 0x00, 0x00, 0x00,
  0x30, 0x00, 0x00, 0x00, 0x02, 0x00, 0x00, 0x00, 0x01, 0x00, 0x00, 0x00,
  0x04, 0x00, 0x00, 0x00, 0x1a, 0x00, 0x00, 0x00, 0x73, 0x65, 0x71, 0x75,
  0x65, 0x6e, 0x74, 0x69, 0x61, 0x6c, 0x2f, 0x64, 0x65, 0x6e, 0x73, 0x65,
  0x5f, 0x31, 0x2f, 0x42, 0x69, 0x61, 0x73, 0x41, 0x64, 0x64, 0x00, 0x00,
  0xf4, 0xd1, 0xff, 0xff, 0xd6, 0xfd, 0xff, 0xff, 0x00, 0x00, 0x00, 0x08,
  0x03, 0x00, 0x00, 0x00, 0x24, 0x00, 0x00, 0x00, 0x18, 0x00, 0x00, 0x00,
  0x0c, 0x00, 0x00, 0x00, 0x00, 0x00, 0x06, 0x00, 0x08, 0x00, 0x07, 0x00,
  0x06, 0x00, 0x00, 0x00, 0x00, 0x00, 0x00, 0x01, 0x01, 0x00, 0x00, 0x00,
  0x0f, 0x00, 0x00, 0x00, 0x03, 0x00, 0x00, 0x00, 0x0e, 0x00, 0x00, 0x00,
  0x04, 0x00, 0x00, 0x00, 0x01, 0x00, 0x00, 0x00, 0xfe, 0xfc, 0xff, 0xff,
  0x00, 0x00, 0x00, 0x09, 0x01, 0x00, 0x00, 0x00, 0x92, 0xd2, 0xff, 0xff,
  0x10, 0x00, 0x00, 0x00, 0x10, 0x00, 0x00, 0x00, 0x14, 0x00, 0x00, 0x00,
  0x2c, 0x00, 0x00, 0x00, 0x02, 0x00, 0x00, 0x00, 0x01, 0x00, 0x00, 0x00,
  0x10, 0x00, 0x00, 0x00, 0x15, 0x00, 0x00, 0x00, 0x73, 0x65, 0x71, 0x75,
  0x65, 0x6e, 0x74, 0x69, 0x61, 0x6c, 0x2f, 0x64, 0x65, 0x6e, 0x73, 0x65,
  0x2f, 0x52, 0x65, 0x6c, 0x75, 0x00, 0x00, 0x00, 0xd8, 0xd2, 0xff, 0xff,
  0x00, 0x00, 0x0a, 0x00, 0x10, 0x00, 0x04, 0x00, 0x08, 0x00, 0x0c, 0x00,
  0x0a, 0x00, 0x00, 0x00, 0x02, 0x00, 0x00, 0x00, 0x10, 0x00, 0x00, 0x00,
  0x04, 0x00, 0x00, 0x00, 0x01, 0x00, 0x00, 0x00, 0x0e, 0x00, 0x00, 0x00,
  0x02, 0x00, 0x00, 0x00, 0x0d, 0x00, 0x00, 0x00, 0x03, 0x00, 0x00, 0x00,
  0x7a, 0xfd, 0xff, 0xff, 0x00, 0x00, 0x00, 0x16, 0x01, 0x00, 0x00, 0x00,
  0x0e, 0xd3, 0xff, 0xff, 0x10, 0x00, 0x00, 0x00, 0x0f, 0x00, 0x00, 0x00,
  0x14, 0x00, 0x00, 0x00, 0x30, 0x00, 0x00, 0x00, 0x02, 0x00, 0x00, 0x00,
  0x01, 0x00, 0x00, 0x00, 0x70, 0x00, 0x00, 0x00, 0x1a, 0x00, 0x00, 0x00,
  0x73, 0x65, 0x71, 0x75, 0x65, 0x6e, 0x74, 0x69, 0x61, 0x6c, 0x2f, 0x66,
  0x6c, 0x61, 0x74, 0x74, 0x65, 0x6e, 0x2f, 0x52, 0x65, 0x73, 0x68, 0x61,
  0x70, 0x65, 0x00, 0x00, 0x00, 0xd3, 0xff, 0xff, 0xe2, 0xfe, 0xff, 0xff,
  0x00, 0x00, 0x00, 0x05, 0x01, 0x00, 0x00, 0x00, 0x38, 0x00, 0x00, 0x00,
  0x2c, 0x00, 0x00, 0x00, 0x14, 0x00, 0x00, 0x00, 0x00, 0x00, 0x0e, 0x00,
  0x14, 0x00, 0x00, 0x00, 0x10, 0x00, 0x0c, 0x00, 0x08, 0x00, 0x04, 0x00,
  0x0e, 0x00, 0x00, 0x00, 0x03, 0x00, 0x00, 0x00, 0x01, 0x00, 0x00, 0x00,
  0x03, 0x00, 0x00, 0x00, 0x01, 0x00, 0x00, 0x00, 0x01, 0x00, 0x00, 0x00,
  0x0d, 0x00, 0x00, 0x00, 0x01, 0x00, 0x00, 0x00, 0x0c, 0x00, 0x00, 0x00,
  0x9e, 0xd3, 0xff, 0xff, 0x10, 0x00, 0x00, 0x00, 0x0e, 0x00, 0x00, 0x00,
  0x1c, 0x00, 0x00, 0x00, 0x40, 0x00, 0x00, 0x00, 0x04, 0x00, 0x00, 0x00,
  0x01, 0x00, 0x00, 0x00, 0x07, 0x00, 0x00, 0x00, 0x01, 0x00, 0x00, 0x00,
  0x10, 0x00, 0x00, 0x00, 0x22, 0x00, 0x00, 0x00, 0x73, 0x65, 0x71, 0x75,
  0x65, 0x6e, 0x74, 0x69, 0x61, 0x6c, 0x2f, 0x6d, 0x61, 0x78, 0x5f, 0x70,
  0x6f, 0x6f, 0x6c, 0x69, 0x6e, 0x67, 0x32, 0x64, 0x5f, 0x31, 0x2f, 0x4d,
  0x61, 0x78, 0x50, 0x6f, 0x6f, 0x6c, 0x00, 0x00, 0xa0, 0xd3, 0xff, 0xff,
  0xc2, 0xfe, 0xff, 0xff, 0x00, 0x00, 0x00, 0x01, 0x24, 0x00, 0x00, 0x00,
  0x18, 0x00, 0x00, 0x00, 0x04, 0x00, 0x00, 0x00, 0xb4, 0xfe, 0xff, 0xff,
  0x01, 0x00, 0x00, 0x00, 0x01, 0x00, 0x00, 0x00, 0x00, 0x00, 0x00, 0x01,
  0x01, 0x00, 0x00, 0x00, 0x0c, 0x00, 0x00, 0x00, 0x03, 0x00, 0x00, 0x00,
  0x0b, 0x00, 0x00, 0x00, 0x07, 0x00, 0x00, 0x00, 0x09, 0x00, 0x00, 0x00,
  0x2e, 0xd4, 0xff, 0xff, 0x10, 0x00, 0x00, 0x00, 0x0d, 0x00, 0x00, 0x00,
  0x1c, 0x00, 0x00, 0x00, 0x2c, 0x00, 0x00, 0x00, 0x04, 0x00, 0x00, 0x00,
  0x01, 0x00, 0x00, 0x00, 0x15, 0x00, 0x00, 0x00, 0x01, 0x00, 0x00, 0x00,
  0x10, 0x00, 0x00, 0x00, 0x0c, 0x00, 0x00, 0x00, 0x74, 0x66, 0x6c, 0x2e,
  0x63, 0x6f, 0x6e, 0x76, 0x5f, 0x32, 0x64, 0x31, 0x00, 0x00, 0x00, 0x00,
  0x74, 0xd4, 0xff, 0xff, 0x00, 0x00, 0x0e, 0x00, 0x1a, 0x00, 0x08, 0x00,
  0x0c, 0x00, 0x10, 0x00, 0x07, 0x00, 0x14, 0x00, 0x0e, 0x00, 0x00, 0x00,
  0x00, 0x00, 0x00, 0x05, 0x01, 0x00, 0x00, 0x00, 0x3c, 0x00, 0x00, 0x00,
  0x30, 0x00, 0x00, 0x00, 0x14, 0x00, 0x00, 0x00, 0x00, 0x00, 0x0e, 0x00,
  0x18, 0x00, 0x17, 0x00, 0x10, 0x00, 0x0c, 0x00, 0x08, 0x00, 0x04, 0x00,
  0x0e, 0x00, 0x00, 0x00, 0x03, 0x00, 0x00, 0x00, 0x03, 0x00, 0x00, 0x00,
  0x03, 0x00, 0x00, 0x00, 0x03, 0x00, 0x00, 0x00, 0x00, 0x00, 0x00, 0x01,
  0x01, 0x00, 0x00, 0x00, 0x0b, 0x00, 0x00, 0x00, 0x01, 0x00, 0x00, 0x00,
  0x0a, 0x00, 0x00, 0x00, 0x46, 0xff, 0xff, 0xff, 0x00, 0x00, 0x00, 0x11,
  0x01, 0x00, 0x00, 0x00, 0xda, 0xd4, 0xff, 0xff, 0x10, 0x00, 0x00, 0x00,
  0x0c, 0x00, 0x00, 0x00, 0x1c, 0x00, 0x00, 0x00, 0x40, 0x00, 0x00, 0x00,
  0x04, 0x00, 0x00, 0x00, 0x01, 0x00, 0x00, 0x00, 0x15, 0x00, 0x00, 0x00,
  0x01, 0x00, 0x00, 0x00, 0x08, 0x00, 0x00, 0x00, 0x20, 0x00, 0x00, 0x00,
  0x73, 0x65, 0x71, 0x75, 0x65, 0x6e, 0x74, 0x69, 0x61, 0x6c, 0x2f, 0x6d,
  0x61, 0x78, 0x5f, 0x70, 0x6f, 0x6f, 0x6c, 0x69, 0x6e, 0x67, 0x32, 0x64,
  0x2f, 0x4d, 0x61, 0x78, 0x50, 0x6f, 0x6f, 0x6c, 0x00, 0x00, 0x00, 0x00,
  0x34, 0xd5, 0xff, 0xff, 0x00, 0x00, 0x0e, 0x00, 0x14, 0x00, 0x00, 0x00,
  0x08, 0x00, 0x0c, 0x00, 0x07, 0x00, 0x10, 0x00, 0x0e, 0x00, 0x00, 0x00,
  0x00, 0x00, 0x00, 0x01, 0x30, 0x00, 0x00, 0x00, 0x24, 0x00, 0x00, 0x00,
  0x10, 0x00, 0x00, 0x00, 0x0c, 0x00, 0x10, 0x00, 0x00, 0x00, 0x04, 0x00,
  0x08, 0x00, 0x0f, 0x00, 0x0c, 0x00, 0x00, 0x00, 0x01, 0x00, 0x00, 0x00,
  0x01, 0x00, 0x00, 0x00, 0x00, 0x00, 0x00, 0x01, 0x01, 0x00, 0x00, 0x00,
  0x0a, 0x00, 0x00, 0x00, 0x03, 0x00, 0x00, 0x00, 0x00, 0x00, 0x00, 0x00,
  0x06, 0x00, 0x00, 0x00, 0x08, 0x00, 0x00, 0x00, 0x00, 0x00, 0x0a, 0x00,
  0x0c, 0x00, 0x07, 0x00, 0x00, 0x00, 0x08, 0x00, 0x0a, 0x00, 0x00, 0x00,
  0x00, 0x00, 0x00, 0x03, 0x01, 0x00, 0x00, 0x00, 0x9e, 0xd5, 0xff, 0xff,
  0x10, 0x00, 0x00, 0x00, 0x0b, 0x00, 0x00, 0x00, 0x1c, 0x00, 0x00, 0x00,
  0x28, 0x00, 0x00, 0x00, 0x04, 0x00, 0x00, 0x00, 0x01, 0x00, 0x00, 0x00,
  0x40, 0x00, 0x00, 0x00, 0x03, 0x00, 0x00, 0x00, 0x08, 0x00, 0x00, 0x00,
  0x0b, 0x00, 0x00, 0x00, 0x74, 0x66, 0x6c, 0x2e, 0x63, 0x6f, 0x6e, 0x76,
  0x5f, 0x32, 0x64, 0x00, 0x88, 0xd5, 0xff, 0xff, 0x7e, 0xd6, 0xff, 0xff,
  0x04, 0x00, 0x00, 0x00, 0x40, 0x00, 0x00, 0x00, 0x7a, 0x83, 0xbc, 0xbf,
  0xbe, 0xad, 0x1c, 0xbf, 0xba, 0xb1, 0xfa, 0xbf, 0x76, 0x03, 0xa2, 0x40,
  0x5c, 0x7b, 0x77, 0xbf, 0xb2, 0x3b, 0xe5, 0xbe, 0x9d, 0xe2, 0x79, 0x3d,
  0x90, 0x5f, 0xfb, 0x3d, 0x17, 0x26, 0x1f, 0xbf, 0x84, 0xd8, 0x47, 0xbf,
  0x3f, 0xbc, 0xd5, 0xbc, 0xb9, 0x0a, 0xcc, 0xbe, 0xa2, 0xfb, 0xad, 0xbd,
  0xf9, 0x3b, 0x50, 0xbd, 0x88, 0xca, 0x29, 0xbf, 0x07, 0x6a, 0xb2, 0x3f,
  0x26, 0xd6, 0xff, 0xff, 0x10, 0x00, 0x00, 0x00, 0x0a, 0x00, 0x00, 0x00,
  0x10, 0x00, 0x00, 0x00, 0x20, 0x00, 0x00, 0x00, 0x01, 0x00, 0x00, 0x00,
  0x10, 0x00, 0x00, 0x00, 0x0d, 0x00, 0x00, 0x00, 0x73, 0x74, 0x64, 0x2e,
  0x63, 0x6f, 0x6e, 0x73, 0x74, 0x61, 0x6e, 0x74, 0x31, 0x00, 0x00, 0x00,
  0x08, 0xd6, 0xff, 0xff, 0xfe, 0xd6, 0xff, 0xff, 0x04, 0x00, 0x00, 0x00,
  0x20, 0x00, 0x00, 0x00, 0x59, 0x32, 0xab, 0xbf, 0x23, 0x0f, 0xea, 0xbf,
  0x2f, 0xcd, 0x81, 0xbf, 0x8c, 0x99, 0xee, 0xbe, 0x95, 0xe5, 0xb0, 0xbf,
  0xd5, 0x34, 0x88, 0xbf, 0x50, 0x2b, 0x7d, 0xbf, 0x61, 0xbb, 0x85, 0xbf,
  0x86, 0xd6, 0xff, 0xff, 0x10, 0x00, 0x00, 0x00, 0x09, 0x00, 0x00, 0x00,
  0x10, 0x00, 0x00, 0x00, 0x20, 0x00, 0x00, 0x00, 0x01, 0x00, 0x00, 0x00,
  0x08, 0x00, 0x00, 0x00, 0x0c, 0x00, 0x00, 0x00, 0x73, 0x74, 0x64, 0x2e,
  0x63, 0x6f, 0x6e, 0x73, 0x74, 0x61, 0x6e, 0x74, 0x00, 0x00, 0x00, 0x00,
  0x68, 0xd6, 0xff, 0xff, 0x5e, 0xd7, 0xff, 0xff, 0x04, 0x00, 0x00, 0x00,
  0x00, 0x08, 0x00, 0x00, 0x52, 0x2f, 0x99, 0xbe, 0x06, 0xa4, 0x56, 0xbf,
  0x55, 0xb0, 0x8a, 0x3d, 0xa5, 0x01, 0x4b, 0xbe, 0x2a, 0x25, 0x00, 0xbe,
  0x59, 0xaa, 0x3e, 0xbe, 0xbd, 0x13, 0x2f, 0x3e, 0xcb, 0x49, 0xa0, 0x3e,
  0x66, 0x84, 0xa4, 0xbe, 0xcc, 0xc6, 0x92, 0x3e, 0xfa, 0xfc, 0x06, 0xbf,
  0x82, 0x48, 0xd4, 0xbd, 0x7c, 0x83, 0xd4, 0xbe, 0xc3, 0xe5, 0x57, 0xbf,
  0x30, 0xe6, 0xf9, 0x3d, 0x57, 0xea, 0x20, 0x3d, 0x6b, 0x9b, 0x75, 0xbe,
  0x61, 0x73, 0xe3, 0x3d, 0x95, 0x67, 0x39, 0xbe, 0x65, 0xd2, 0x39, 0x3e,
  0x79, 0xb8, 0xb8, 0x3b, 0x65, 0x7b, 0x4f, 0xbe, 0x85, 0xe1, 0x67, 0xbe,
  0xe5, 0xe4, 0x0a, 0xbe, 0x40, 0xb7, 0xe6, 0xbd, 0x86, 0x26, 0x35, 0x3e,
  0x4e, 0xbd, 0xe1, 0x3d, 0x98, 0x2b, 0x55, 0xbd, 0x86, 0x4e, 0x63, 0x3e,
  0x65, 0xb8, 0x8e, 0x3e, 0x60, 0xff, 0x51, 0xbd, 0x28, 0xcb, 0x18, 0xbe,
  0x49, 0x3d, 0xbf, 0x3d, 0x82, 0x3a, 0x94, 0xbe, 0x2d, 0xf9, 0x8d, 0x3d,
  0x91, 0xaa, 0xe1, 0xbd, 0x97, 0x42, 0x6d, 0xbe, 0x3f, 0xa4, 0xad, 0xbd,
  0xc0, 0xe4, 0x1a, 0xbe, 0xd9, 0x72, 0x8a, 0x3e, 0x2b, 0x24, 0x06, 0x3a,
  0x63, 0x96, 0x94, 0x3e, 0xff, 0x03, 0xca, 0xbe, 0x62, 0x36, 0xb2, 0x3d,
  0x25, 0x20, 0x9a, 0xbe, 0x7d, 0x6b, 0x83, 0xbe, 0x57, 0x37, 0x66, 0x3e,
  0x40, 0x63, 0x74, 0xbe, 0x6c, 0x11, 0xb0, 0x39, 0x85, 0xca, 0xf5, 0x3d,
  0xdc, 0x14, 0x53, 0xbe, 0x0d, 0x74, 0x9a, 0x3e, 0xc7, 0x79, 0xb3, 0xbd,
  0x79, 0x86, 0x86, 0x3d, 0xfb, 0x01, 0x36, 0xbe, 0xf3, 0x8f, 0x4b, 0xbe,
  0x89, 0xa0, 0x5b, 0xbc, 0xe9, 0x7a, 0x95, 0xbe, 0x0e, 0xf5, 0x35, 0x3e,
  0xff, 0x98, 0x69, 0xbd, 0x46, 0xd8, 0xfb, 0xbd, 0xb7, 0x86, 0x8a, 0x3e,
  0x03, 0xf5, 0x3b, 0x3d, 0x7a, 0x65, 0xc8, 0xbd, 0xcb, 0x7b, 0x89, 0xbc,
  0x78, 0xee, 0x33, 0x3f, 0x87, 0xb5, 0xcc, 0xbb, 0x1d, 0x27, 0xcc, 0x3e,
  0x53, 0xe7, 0x5f, 0xbd, 0x9a, 0x9d, 0xb2, 0xbd, 0x65, 0x75, 0x9f, 0x3e,
  0xdc, 0xff, 0x58, 0xbe, 0xbe, 0x11, 0xbc, 0x3c, 0x5c, 0x09, 0xd7, 0x3d,
  0xe7, 0x1a, 0x67, 0x3c, 0x34, 0xeb, 0xcb, 0xbd, 0xab, 0xa4, 0x70, 0xbd,
  0xf5, 0xfe, 0xd2, 0xbc, 0xd2, 0x9c, 0x1c, 0x3e, 0x22, 0xba, 0x2c, 0xbe,
  0x67, 0xfb, 0x3e, 0xbd, 0x0d, 0x8a, 0xa7, 0xbe, 0x75, 0x13, 0x52, 0xbd,
  0xff, 0x4a, 0x88, 0xbe, 0x67, 0xd5, 0x65, 0xbc, 0x5a, 0xcb, 0x8e, 0x3d,
  0xa1, 0x88, 0x4c, 0x3d, 0xd8, 0x19, 0xec, 0x3c, 0x9f, 0x28, 0x95, 0xbd,
  0x67, 0xf5, 0xcc, 0xbe, 0x5d, 0x6c, 0x11, 0xbe, 0x18, 0x3a, 0x87, 0xbe,
  0xf0, 0x4f, 0xae, 0xbb, 0xd3, 0x61, 0x8d, 0x3d, 0xa1, 0x0f, 0xa2, 0x3d,
  0x45, 0xb4, 0xda, 0x3b, 0x44, 0x9d, 0x2e, 0xbe, 0x47, 0x60, 0xe3, 0xbe,
  0x5b, 0x24, 0xdd, 0xbd, 0x68, 0x7c, 0x05, 0xbe, 0x38, 0x8b, 0x0e, 0x3c,
  0x66, 0xc5, 0x9b, 0xbd, 0xe4, 0xca, 0xc4, 0xbd, 0x4e, 0x50, 0x3e, 0xbe,
  0x83, 0xab, 0x21, 0xbe, 0x13, 0x23, 0x12, 0xbe, 0x62, 0xe7, 0x02, 0xbe,
  0xd1, 0x2b, 0xc8, 0xbd, 0x26, 0x85, 0x78, 0xbe, 0x24, 0x02, 0xc9, 0xbe,
  0x96, 0x8a, 0x88, 0x3d, 0xf3, 0x6e, 0x19, 0x3f, 0x48, 0x25, 0x87, 0xbe,
  0xa2, 0xd5, 0xc4, 0x3d, 0xcd, 0x8e, 0x59, 0xbe, 0x3f, 0x93, 0x48, 0xbd,
  0x14, 0xea, 0xf2, 0xbd, 0xd1, 0x38, 0x97, 0xbe, 0x47, 0xdf, 0x15, 0x3e,
  0x75, 0x2d, 0xc0, 0xbe, 0x11, 0x9a, 0x86, 0xbd, 0xd8, 0x35, 0x4c, 0x3e,
  0xcf, 0xa3, 0x44, 0x3e, 0x9e, 0xa1, 0x80, 0xbd, 0xc3, 0xd0, 0x8b, 0x3d,
  0xf4, 0x3c, 0x0c, 0x3e, 0x4f, 0x38, 0x7d, 0xbd, 0x5b, 0x35, 0x40, 0xbe,
  0xdf, 0x15, 0xc8, 0xbc, 0x89, 0x46, 0x05, 0xbd, 0xa6, 0x83, 0x14, 0x3f,
  0x14, 0x2e, 0xe9, 0xbe, 0xf9, 0x40, 0x8c, 0x38, 0x7e, 0x86, 0x26, 0x3e,
  0x42, 0xc2, 0xed, 0x3e, 0x8b, 0x7f, 0x50, 0xbd, 0x89, 0xc5, 0xb4, 0xbc,
  0x41, 0xf5, 0x15, 0xbf, 0xfc, 0x1f, 0x3a, 0xbe, 0x49, 0xe5, 0x1e, 0xbf,
  0x18, 0x61, 0xda, 0xbd, 0x32, 0x41, 0x9e, 0xbd, 0x1b, 0x99, 0x59, 0x3d,
  0x19, 0x56, 0x28, 0xbe, 0xb8, 0xd4, 0x9d, 0xbc, 0xbe, 0xa3, 0xbe, 0xbe,
  0x39, 0x78, 0x84, 0xbe, 0xa7, 0x72, 0xb0, 0xbe, 0x1c, 0x06, 0x26, 0xbe,
  0x69, 0x06, 0xb0, 0xbd, 0xb6, 0x59, 0xaa, 0x3e, 0x73, 0x68, 0x82, 0x3d,
  0x7d, 0x5d, 0xde, 0x3c, 0x83, 0xae, 0x2b, 0xbd, 0xe1, 0x87, 0xb9, 0xbe,
  0xf7, 0xa7, 0x68, 0x3d, 0x4a, 0xfe, 0xe5, 0xbd, 0xc8, 0x31, 0x82, 0xbd,
  0x08, 0x81, 0xa3, 0x3e, 0xb9, 0x91, 0xfb, 0x3e, 0x3f, 0x53, 0xaf, 0xbe,
  0x6a, 0xa4, 0x7b, 0x3e, 0x9e, 0x31, 0x91, 0xbe, 0x89, 0xb0, 0x07, 0x3f,
  0x4a, 0xd4, 0xa1, 0xbe, 0x94, 0x21, 0x95, 0xbe, 0x07, 0x3c, 0xac, 0xbd,
  0xde, 0xfd, 0xe1, 0x3e, 0x09, 0xe4, 0x7c, 0xbe, 0x7d, 0xf7, 0xfa, 0xbd,
  0x9f, 0x62, 0x02, 0xbb, 0x73, 0xd1, 0x85, 0xbc, 0x61, 0x84, 0xbe, 0xbd,
  0x1a, 0x1f, 0xa4, 0xbd, 0x7a, 0x50, 0x05, 0x3e, 0xa3, 0xfd, 0xf5, 0xbd,
  0x8b, 0x1d, 0x6c, 0xbe, 0x71, 0x63, 0xa1, 0xbb, 0xc9, 0xc1, 0xa9, 0x3c,
  0x02, 0x0f, 0xf6, 0xbd, 0x17, 0xe6, 0x23, 0xbe, 0x23, 0xca, 0xe9, 0x3c,
  0x09, 0x43, 0xb6, 0x3d, 0x1d, 0xb7, 0xcd, 0xbd, 0xa8, 0xe7, 0x73, 0xbe,
  0xbb, 0xd1, 0x3e, 0x3e, 0x67, 0xdf, 0x44, 0x3e, 0x14, 0xae, 0x3d, 0xbe,
  0x6c, 0x33, 0x88, 0xbd, 0xa1, 0x9f, 0x38, 0x3e, 0x3b, 0xda, 0x3c, 0x3e,
  0x02, 0x3f, 0x35, 0xbc, 0x3c, 0x13, 0x35, 0xbd, 0x48, 0x69, 0x81, 0xbd,
  0xab, 0x76, 0x0a, 0xbe, 0x9d, 0x76, 0x6a, 0x3c, 0x75, 0xda, 0x14, 0xbd,
  0xbf, 0x21, 0x07, 0xbe, 0x71, 0x30, 0xa2, 0xbe, 0xf7, 0xe8, 0x1d, 0xbe,
  0x53, 0x6d, 0x05, 0xbd, 0x62, 0xe1, 0xd0, 0xbd, 0x2f, 0xa7, 0x3f, 0xbd,
  0xdd, 0xd8, 0xf9, 0xbd, 0x51, 0x0f, 0x44, 0xbc, 0xb4, 0x88, 0x62, 0xbd,
  0xc3, 0xfa, 0x4e, 0x3e, 0xcf, 0xd3, 0x6c, 0xbd, 0x1b, 0xc7, 0x6c, 0xbc,
  0x26, 0xb3, 0x9e, 0x3d, 0xb3, 0x07, 0x94, 0xbb, 0x21, 0x1b, 0xd9, 0x3c,
  0xcf, 0xcd, 0x68, 0x3a, 0x82, 0xfe, 0xa8, 0x3d, 0x3f, 0x13, 0x80, 0x3e,
  0x8b, 0xae, 0x8c, 0x3e, 0x4d, 0x8b, 0xa6, 0x3c, 0x5b, 0x99, 0xbf, 0xba,
  0xc5, 0xdf, 0x14, 0x3e, 0x18, 0x08, 0x43, 0x3b, 0xcf, 0xed, 0x95, 0x3c,
  0x68, 0x79, 0x10, 0x3e, 0xc7, 0x9b, 0xbd, 0xbd, 0x04, 0x77, 0x8f, 0x3e,
  0xfc, 0x67, 0x39, 0x3c, 0x61, 0x67, 0xc6, 0x3b, 0xc3, 0xc3, 0xaa, 0xbe,
  0x9c, 0x7a, 0xc1, 0x3d, 0xc5, 0x49, 0xdd, 0xbd, 0xf0, 0xc4, 0x90, 0x3d,
  0xc9, 0xbb, 0x16, 0xbf, 0xa0, 0x81, 0x86, 0x3c, 0xbe, 0x42, 0x9c, 0xbc,
  0x05, 0xa2, 0x6f, 0xbe, 0x07, 0x0c, 0x8c, 0xbe, 0x37, 0x01, 0x6c, 0x3e,
  0x5c, 0x6c, 0x98, 0xbd, 0x78, 0x16, 0x09, 0x3e, 0x87, 0x15, 0x05, 0xbf,
  0x7a, 0x45, 0xde, 0x3d, 0xb5, 0x34, 0x0e, 0x3e, 0x56, 0xf9, 0x34, 0x3e,
  0x83, 0x4e, 0x86, 0xbe, 0xf2, 0x8e, 0x80, 0xbd, 0x3b, 0x41, 0x05, 0xbe,
  0x99, 0x3e, 0xb8, 0x3e, 0x8a, 0xe6, 0xc0, 0xbe, 0xcc, 0x97, 0x2c, 0xbe,
  0x1e, 0x77, 0x0a, 0xbd, 0xc3, 0x58, 0x79, 0x3d, 0x85, 0x40, 0x8c, 0xbe,
  0xef, 0xfd, 0x32, 0xbd, 0xe0, 0xf7, 0xf5, 0xbd, 0x38, 0xd7, 0x8c, 0x3d,
  0xc7, 0xff, 0x56, 0xbd, 0x13, 0xa5, 0x1c, 0xbe, 0x7f, 0x54, 0x71, 0xbd,
  0x52, 0xa3, 0xcd, 0xbe, 0x22, 0x9b, 0xb1, 0xbd, 0x99, 0x32, 0xef, 0xbe,
  0x32, 0x4f, 0xce, 0xbd, 0x8b, 0xaa, 0x42, 0xbe, 0x8e, 0x37, 0xce, 0x3d,
  0x1f, 0x04, 0x38, 0xbe, 0x49, 0x62, 0xb8, 0xbc, 0x7f, 0xc0, 0x30, 0xbe,
  0x39, 0x95, 0xb8, 0x3e, 0x0d, 0x9e, 0x4f, 0xbe, 0x05, 0xe6, 0x77, 0xbe,
  0xc2, 0xe6, 0xea, 0xbd, 0x4c, 0xc5, 0x05, 0x3e, 0xcc, 0x65, 0x87, 0x3b,
  0xb0, 0x2a, 0x34, 0x3e, 0xc1, 0x19, 0x26, 0xbd, 0x37, 0xec, 0xb5, 0xbe,
  0x4b, 0xe7, 0xaf, 0x3d, 0x6d, 0x94, 0xa0, 0xbe, 0xb0, 0x3b, 0xb1, 0xbd,
  0xac, 0x99, 0xb5, 0x3e, 0xef, 0xd3, 0x4c, 0x3e, 0x32, 0x71, 0x2e, 0xbd,
  0xf4, 0x4a, 0x0d, 0xbf, 0xf4, 0xb6, 0x25, 0xbf, 0x09, 0x00, 0xe5, 0xb9,
  0x19, 0x71, 0x93, 0xbe, 0x07, 0x8f, 0x89, 0x3e, 0xd9, 0xc8, 0x82, 0xbe,
  0xc5, 0x6e, 0x01, 0x3d, 0x64, 0x81, 0x51, 0x3c, 0xbe, 0x8b, 0x8e, 0x3e,
  0x60, 0x9d, 0x81, 0x3e, 0x80, 0x35, 0x2b, 0xbd, 0x53, 0x78, 0xdf, 0x3d,
  0x52, 0x44, 0xae, 0x3c, 0x15, 0x02, 0x0e, 0x3f, 0xb1, 0x41, 0xe1, 0xbc,
  0x62, 0xdc, 0x42, 0x3c, 0xeb, 0x04, 0xb6, 0xbd, 0xb3, 0xa3, 0xe8, 0x3e,
  0x5a, 0x8e, 0x30, 0xbe, 0x02, 0xca, 0x32, 0xbd, 0x00, 0xff, 0x51, 0xbd,
  0x04, 0x36, 0xcb, 0x3e, 0x60, 0xa9, 0x77, 0xbc, 0x9c, 0x7d, 0x84, 0xbb,
  0x81, 0xc6, 0xb5, 0xbe, 0xde, 0x86, 0x0a, 0xbe, 0x70, 0xc9, 0xe1, 0xbe,
  0xe1, 0xf6, 0x8b, 0xbd, 0x76, 0x2e, 0xbb, 0xbd, 0x53, 0x53, 0x51, 0x3e,
  0xc0, 0x2e, 0x9a, 0xbd, 0x66, 0x8b, 0xf5, 0x3b, 0x64, 0xbf, 0xea, 0xbe,
  0x76, 0x41, 0x40, 0xbe, 0x2d, 0x98, 0xad, 0xbe, 0xc6, 0x03, 0xce, 0xbd,
  0x17, 0x3b, 0xc2, 0xbd, 0x90, 0xe1, 0x5d, 0x3c, 0xd0, 0x26, 0x81, 0xbe,
  0x03, 0x84, 0xdf, 0xbe, 0x54, 0x3f, 0x04, 0x3e, 0xc5, 0x4f, 0xa4, 0x3d,
  0x52, 0x1b, 0x64, 0x3c, 0xd6, 0x4a, 0x2b, 0xbe, 0x6e, 0x68, 0xc0, 0x3c,
  0xef, 0xf9, 0x6e, 0x3e, 0x44, 0x2b, 0x9b, 0xbc, 0xb7, 0xe2, 0xd6, 0xbe,
  0x8d, 0xf3, 0x46, 0xbc, 0x7e, 0x71, 0x78, 0xbd, 0x59, 0x53, 0x04, 0x3e,
  0xd3, 0x72, 0x25, 0xbe, 0x4c, 0xba, 0x45, 0x3e, 0x4b, 0xe5, 0xc2, 0x3b,
  0x45, 0xd5, 0xca, 0x3d, 0x51, 0xd8, 0x18, 0xbf, 0xbe, 0x71, 0x62, 0x3d,
  0x2d, 0x20, 0x2d, 0x3e, 0x69, 0x4b, 0x6e, 0x3d, 0xfc, 0xc8, 0x12, 0xbe,
  0x00, 0xb6, 0xc4, 0x3d, 0x61, 0x44, 0x91, 0xbd, 0x0a, 0x5b, 0xe2, 0x3d,
  0x86, 0x7c, 0xe3, 0xbe, 0x7b, 0x52, 0x06, 0x3e, 0x30, 0x75, 0x84, 0x3e,
  0x11, 0x2a, 0x88, 0x3c, 0x91, 0x8a, 0x5d, 0xbe, 0x2f, 0x74, 0x85, 0xbd,
  0xcf, 0xa2, 0xcf, 0x3e, 0x31, 0xeb, 0xa1, 0x3c, 0xfe, 0xe8, 0x6b, 0xbe,
  0x34, 0x73, 0x7f, 0xbe, 0x48, 0x99, 0x59, 0xbe, 0xa8, 0xf9, 0x5c, 0xbd,
  0x82, 0x75, 0xbd, 0xbc, 0x5e, 0x56, 0x53, 0xbe, 0x6a, 0xea, 0xe2, 0xbe,
  0xc4, 0x98, 0xab, 0xbc, 0xe5, 0x09, 0x0f, 0xbe, 0x25, 0x0d, 0x73, 0xbe,
  0x01, 0x9d, 0x12, 0xbe, 0x9f, 0x69, 0xdd, 0xbc, 0xb3, 0x3c, 0xec, 0xbc,
  0xba, 0x5a, 0x04, 0xbe, 0x9e, 0x82, 0xf1, 0xbe, 0x5b, 0x13, 0x18, 0x3d,
  0xf9, 0x0a, 0x25, 0xbe, 0x79, 0x1b, 0x8f, 0xbe, 0x1f, 0x14, 0xf0, 0xbd,
  0x58, 0xe7, 0x34, 0xbd, 0x74, 0x37, 0xc0, 0x3c, 0x44, 0x2b, 0x1a, 0xbe,
  0xf0, 0xf9, 0x5a, 0x3e, 0x53, 0xb9, 0x5d, 0x3c, 0xa5, 0x5b, 0x16, 0xbe,
  0x72, 0x14, 0xf0, 0x3d, 0x92, 0x3f, 0x93, 0xbd, 0xcc, 0x78, 0xef, 0x3c,
  0xfe, 0x18, 0xea, 0x39, 0xef, 0xd4, 0xa1, 0xbe, 0x10, 0xee, 0x00, 0x3f,
  0xeb, 0x0e, 0xb5, 0x3e, 0xd1, 0xe2, 0x36, 0xbd, 0x47, 0x49, 0x8f, 0x3d,
  0x37, 0x1c, 0x03, 0xbe, 0xe4, 0x35, 0xa8, 0xbe, 0xbc, 0x23, 0x9d, 0xbc,
  0xcb, 0x47, 0x08, 0xbe, 0x18, 0x6d, 0x7f, 0xbd, 0x3f, 0x10, 0x5a, 0xbe,
  0xfb, 0xe8, 0x9a, 0x3d, 0x7d, 0x56, 0xad, 0x3d, 0x6e, 0x2f, 0xcd, 0xbd,
  0x5e, 0x57, 0x3e, 0xb8, 0x3c, 0xed, 0x0c, 0xbd, 0x73, 0x13, 0x24, 0xbe,
  0xc2, 0xc1, 0x30, 0xbe, 0x5f, 0xc9, 0x4c, 0xbe, 0xf3, 0xaa, 0xe3, 0x3d,
  0xb1, 0x21, 0xd4, 0xbc, 0xea, 0xe7, 0xb8, 0x3d, 0x81, 0x5f, 0xbc, 0xbe,
  0xfb, 0x20, 0x75, 0xbc, 0x85, 0x57, 0x08, 0xbe, 0x71, 0x2b, 0xb7, 0x3d,
  0x9f, 0xc1, 0x8b, 0xbe, 0xc1, 0x9a, 0xbc, 0x3e, 0x6b, 0xa7, 0x04, 0xbf,
  0xf7, 0x97, 0x08, 0xbd, 0x99, 0x6a, 0x46, 0xbe, 0x77, 0x29, 0xcf, 0xbd,
  0xd6, 0x83, 0x73, 0xbe, 0xf4, 0xf1, 0x8f, 0x3e, 0xfe, 0xa2, 0x5e, 0xbe,
  0x27, 0x5f, 0x60, 0xbd, 0x79, 0xe3, 0x18, 0xbe, 0x71, 0x0c, 0x2b, 0xbf,
  0x0e, 0x25, 0xae, 0xbe, 0x5f, 0xec, 0x98, 0xbd, 0xac, 0xb8, 0x38, 0xbf,
  0x8f, 0x06, 0x0c, 0x3d, 0x23, 0x6a, 0xa7, 0x3b, 0xa3, 0x92, 0x06, 0xbe,
  0x16, 0x14, 0x9c, 0x3c, 0x6d, 0x64, 0x89, 0xbf, 0x7b, 0xa1, 0xc6, 0x3d,
  0xef, 0x52, 0x69, 0xbe, 0x57, 0xb9, 0x8e, 0xbf, 0xd9, 0x15, 0x46, 0x3d,
  0x1a, 0x0a, 0x71, 0xbd, 0x6d, 0x41, 0xcc, 0xbd, 0x40, 0x0c, 0xf4, 0x3e,
  0x10, 0x58, 0x04, 0xbd, 0x8e, 0xee, 0xe7, 0x3c, 0x89, 0x26, 0xa6, 0x3d,
  0xb3, 0xb0, 0xa5, 0x3d, 0x93, 0xf5, 0xd1, 0xbe, 0x2b, 0x2a, 0x8c, 0xbe,
  0x38, 0x8f, 0xb1, 0xbd, 0x4b, 0x9d, 0x7f, 0xbd, 0x1f, 0x87, 0x10, 0x3d,
  0x8a, 0xa1, 0x88, 0xbd, 0x5d, 0xd6, 0x20, 0x3e, 0x11, 0x16, 0x4f, 0x3d,
  0x7a, 0xed, 0xad, 0x3c, 0xf4, 0x34, 0x53, 0x3d, 0x9f, 0x74, 0x0a, 0xbe,
  0x53, 0x5f, 0x17, 0x3e, 0x55, 0xd7, 0x56, 0xbd, 0xca, 0x95, 0x4b, 0x3e,
  0xe8, 0x91, 0x89, 0xbe, 0x0f, 0x26, 0x64, 0xbd, 0xb9, 0x14, 0x65, 0x3e,
  0x27, 0xbf, 0x84, 0xbe, 0x9b, 0x46, 0x08, 0xbe, 0x16, 0x0b, 0x71, 0x3e,
  0xf0, 0x06, 0xb7, 0x3c, 0x25, 0xce, 0x4d, 0xbe, 0x18, 0x42, 0x09, 0xbf,
  0x10, 0x54, 0x59, 0xbe, 0x8f, 0x76, 0x58, 0x3e, 0xb4, 0x74, 0x0b, 0x3e,
  0xd9, 0x97, 0x82, 0xbe, 0xb6, 0xa4, 0x82, 0x3e, 0x09, 0xbd, 0x16, 0xbe,
  0xfe, 0xb9, 0x7d, 0x3e, 0xf9, 0xb7, 0x7e, 0xbe, 0x2e, 0x0e, 0x08, 0xbc,
  0xe6, 0xa2, 0x67, 0x3e, 0x73, 0xc3, 0x14, 0xbe, 0x0b, 0x5b, 0x88, 0xbe,
  0x2a, 0xcb, 0x8e, 0x3d, 0x7a, 0x59, 0xfb, 0x3d, 0xb6, 0x2c, 0xe4, 0xbd,
  0x36, 0xb5, 0x17, 0xbe, 0xed, 0xfe, 0xaa, 0xbb, 0x4e, 0xce, 0xd3, 0x3d,
  0x4e, 0xc4, 0x75, 0xbb, 0xa8, 0x6e, 0x92, 0x3b, 0xe8, 0x9d, 0x97, 0xbe,
  0xc1, 0x2c, 0x8a, 0xbe, 0xe6, 0x8d, 0x31, 0xbf, 0x15, 0x63, 0x28, 0x3b,
  0x54, 0x92, 0x00, 0xbc, 0x07, 0xfd, 0xf1, 0xbe, 0xbe, 0x1b, 0x19, 0xbf,
  0x91, 0x58, 0x1a, 0x3e, 0x7d, 0x10, 0x3d, 0xbe, 0xaa, 0x2d, 0x9f, 0xbe,
  0x19, 0x7d, 0x73, 0xbf, 0x05, 0x74, 0xdd, 0x3c, 0xee, 0x26, 0x31, 0xbe,
  0xd8, 0xd5, 0xef, 0xbe, 0x3b, 0xa5, 0x14, 0xbf, 0x1f, 0x98, 0x9b, 0x3a,
  0x04, 0x54, 0x11, 0x3e, 0x5b, 0x76, 0xd0, 0xbd, 0xfa, 0x1c, 0x4d, 0x3d,
  0xe6, 0x55, 0xcd, 0x3d, 0x71, 0x1c, 0x83, 0xbe, 0x55, 0x92, 0x34, 0xbf,
  0x32, 0xff, 0x36, 0xbf, 0x54, 0xb5, 0xa1, 0xbe, 0x7f, 0x90, 0xc9, 0xbd,
  0x10, 0x5e, 0x1f, 0xbf, 0xc5, 0x44, 0x39, 0xbe, 0x13, 0xf0, 0x38, 0xbe,
  0xd1, 0x04, 0xc8, 0xbc, 0x8d, 0x63, 0x87, 0xbd, 0xd8, 0x00, 0x8a, 0xbe,
  0xc6, 0xde, 0xff, 0xff, 0x10, 0x00, 0x00, 0x00, 0x08, 0x00, 0x00, 0x00,
  0x1c, 0x00, 0x00, 0x00, 0x38, 0x00, 0x00, 0x00, 0x04, 0x00, 0x00, 0x00,
  0x10, 0x00, 0x00, 0x00, 0x04, 0x00, 0x00, 0x00, 0x01, 0x00, 0x00, 0x00,
  0x08, 0x00, 0x00, 0x00, 0x1a, 0x00, 0x00, 0x00, 0x73, 0x65, 0x71, 0x75,
  0x65, 0x6e, 0x74, 0x69, 0x61, 0x6c, 0x2f, 0x63, 0x6f, 0x6e, 0x76, 0x32,
  0x64, 0x5f, 0x31, 0x2f, 0x43, 0x6f, 0x6e, 0x76, 0x32, 0x44, 0x00, 0x00,
  0xc0, 0xde, 0xff, 0xff, 0xb6, 0xdf, 0xff, 0xff, 0x04, 0x00, 0x00, 0x00,
  0x80, 0x01, 0x00, 0x00, 0x6d, 0x73, 0xf7, 0xbc, 0xf5, 0xef, 0xd3, 0xbd,
  0xa5, 0x6f, 0x11, 0x3e, 0x0c, 0xde, 0xb6, 0xbd, 0x83, 0x2f, 0x3a, 0xbd,
  0x60, 0x1f, 0x95, 0x3c, 0x27, 0x4b, 0x86, 0xbd, 0xc6, 0x99, 0x89, 0x3d,
  0x82, 0x68, 0xf5, 0xbc, 0xc6, 0x82, 0x80, 0xbd, 0x32, 0x2e, 0xb4, 0x3d,
  0xb8, 0x78, 0xb1, 0x3d, 0x1b, 0x91, 0x25, 0x3e, 0x2b, 0x19, 0x31, 0xbd,
  0x64, 0x35, 0xd4, 0x3d, 0xed, 0xce, 0xac, 0x3e, 0xd4, 0x17, 0xe6, 0x3e,
  0x4f, 0x25, 0x58, 0x3d, 0xa4, 0x09, 0x9b, 0xbe, 0x12, 0xa8, 0x3d, 0xbe,
  0xb1, 0xf6, 0xa5, 0x3d, 0x42, 0xbd, 0x4f, 0xbe, 0xfb, 0xc5, 0x89, 0xbe,
  0xa6, 0xfc, 0x6d, 0xbe, 0x3c, 0xb6, 0xd1, 0xbd, 0x34, 0x4e, 0x40, 0x3e,
  0x92, 0x01, 0x8f, 0xbe, 0xe1, 0x9c, 0x87, 0xbd, 0x5a, 0x6e, 0x6b, 0xbc,
  0xda, 0x90, 0x2f, 0xbe, 0x1d, 0x71, 0x87, 0xbd, 0xa8, 0xb7, 0xf2, 0xbd,
  0xaa, 0x9d, 0x15, 0x3d, 0x75, 0x54, 0xc9, 0x3d, 0x6a, 0xa6, 0xb9, 0xbd,
  0x36, 0x25, 0xfc, 0x3d, 0x54, 0x7e, 0x18, 0x3f, 0x88, 0xde, 0x73, 0xbd,
  0x8a, 0x94, 0x82, 0x3d, 0x8b, 0x64, 0x41, 0x3e, 0xc5, 0x30, 0x66, 0x3e,
  0xdc, 0x33, 0x6a, 0x3e, 0xdb, 0x22, 0x9f, 0xbd, 0x91, 0xaa, 0x72, 0x3c,
  0x48, 0xe1, 0x95, 0xbe, 0x94, 0x77, 0x9c, 0xbe, 0x9c, 0x15, 0x44, 0xbe,
  0x1a, 0xd5, 0x06, 0xbe, 0x2d, 0x9d, 0x24, 0xbe, 0xeb, 0xb3, 0x05, 0xbc,
  0x9c, 0x68, 0x37, 0xbc, 0xac, 0x00, 0xd2, 0xbd, 0x6c, 0xed, 0x91, 0xbc,
  0x9c, 0x3b, 0x82, 0xbd, 0x8d, 0xb9, 0x1d, 0xbe, 0x5a, 0x1a, 0x45, 0xbd,
  0x01, 0x0a, 0xdb, 0xbd, 0xf0, 0xcc, 0x61, 0xbe, 0x7b, 0x6a, 0x20, 0x3d,
  0x26, 0x3a, 0xe4, 0xbd, 0x93, 0x81, 0xe6, 0xbc, 0xe2, 0xf9, 0xa0, 0xbe,
  0xa9, 0xb7, 0xd1, 0x3d, 0xdf, 0xc9, 0xf3, 0xbd, 0x05, 0x3a, 0xef, 0xbd,
  0xde, 0x39, 0x13, 0xbd, 0xf3, 0x43, 0x16, 0xbd, 0x1a, 0xe3, 0x16, 0x3e,
  0x05, 0xd2, 0xee, 0xbd, 0xd1, 0x89, 0x1a, 0xbd, 0xe3, 0x4b, 0x18, 0xbe,
  0x78, 0xf2, 0x1e, 0xbd, 0x54, 0x1f, 0x2e, 0xbf, 0xfe, 0x0e, 0x6e, 0x3d,
  0xf8, 0x22, 0x17, 0xbd, 0x27, 0xc7, 0xc6, 0xbe, 0xb7, 0x97, 0x45, 0x3e,
  0x15, 0x2b, 0x1a, 0xbe, 0xf1, 0x64, 0x0d, 0x3f, 0x94, 0xa5, 0x85, 0xbe,
  0x9e, 0xb8, 0xf7, 0xbd, 0x9c, 0x06, 0x04, 0x3f, 0x37, 0x13, 0x36, 0x3a,
  0xb0, 0xe9, 0xa3, 0x3e, 0xd7, 0x7d, 0x80, 0xbd, 0x4b, 0x03, 0x94, 0xbe,
  0x5c, 0x4c, 0x93, 0xbd, 0x7e, 0x01, 0xc3, 0xbd, 0xf2, 0x07, 0x99, 0xbe,
  0x80, 0x87, 0x9f, 0xbe, 0x88, 0xbc, 0x9b, 0x3e, 0xc0, 0x81, 0xd8, 0x3e,
  0x57, 0xef, 0xd0, 0x3d, 0xa3, 0xcb, 0x83, 0x3e, 0x81, 0x84, 0xf5, 0xbc,
  0xfd, 0x61, 0x86, 0x3e, 0x9e, 0xe0, 0xff, 0xff, 0x10, 0x00, 0x00, 0x00,
  0x07, 0x00, 0x00, 0x00, 0x1c, 0x00, 0x00, 0x00, 0x38, 0x00, 0x00, 0x00,
  0x04, 0x00, 0x00, 0x00, 0x08, 0x00, 0x00, 0x00, 0x04, 0x00, 0x00, 0x00,
  0x03, 0x00, 0x00, 0x00, 0x01, 0x00, 0x00, 0x00, 0x18, 0x00, 0x00, 0x00,
  0x73, 0x65, 0x71, 0x75, 0x65, 0x6e, 0x74, 0x69, 0x61, 0x6c, 0x2f, 0x63,
  0x6f, 0x6e, 0x76, 0x32, 0x64, 0x2f, 0x43, 0x6f, 0x6e, 0x76, 0x32, 0x44,
  0x00, 0x00, 0x00, 0x00, 0x98, 0xe0, 0xff, 0xff, 0x8e, 0xe1, 0xff, 0xff,
  0x04, 0x00, 0x00, 0x00, 0x00, 0x01, 0x00, 0x00, 0xe9, 0x5f, 0x94, 0x3e,
  0xf1, 0xcf, 0x8f, 0x3d, 0x9d, 0xc0, 0x4a, 0x3e, 0xc0, 0xea, 0x90, 0x3e,
  0x34, 0xa1, 0x4b, 0x3f, 0x93, 0x75, 0x35, 0xbe, 0x30, 0xc9, 0xa4, 0x3d,
  0x36, 0xc1, 0x8f, 0x3e, 0xe1, 0xa0, 0xd6, 0x3e, 0x22, 0x85, 0x12, 0xbf,
  0x85, 0xd4, 0xce, 0xbe, 0x5d, 0xd2, 0x33, 0xbd, 0x35, 0x82, 0x78, 0x3e,
  0x4e, 0x13, 0x80, 0x3d, 0xb3, 0x7a, 0x03, 0xbc, 0x05, 0xa1, 0x07, 0x3e,
  0x7f, 0xd8, 0x94, 0x3e, 0xda, 0xd8, 0xb1, 0x3d, 0xfa, 0xd7, 0x40, 0x3e,
  0x10, 0xb5, 0xa5, 0x3e, 0xcb, 0x9b, 0x39, 0xbe, 0x52, 0x52, 0x5c, 0xbe,
  0x4b, 0x57, 0xef, 0x3d, 0x55, 0xdc, 0xef, 0xbe, 0xe6, 0xae, 0xb9, 0x3e,
  0x57, 0x7b, 0x45, 0x3e, 0x6f, 0xe5, 0xa8, 0x3e, 0x9f, 0x68, 0x6b, 0xbd,
  0x32, 0x83, 0x8d, 0x3e, 0xd7, 0x0e, 0xd1, 0x3d, 0x53, 0xf1, 0xa0, 0xbd,
  0x41, 0xb9, 0x19, 0x3e, 0x19, 0x31, 0xbd, 0xbd, 0x29, 0x55, 0x81, 0xbe,
  0xa0, 0x10, 0xda, 0xbe, 0xd5, 0x33, 0x55, 0x3e, 0x2d, 0x69, 0x42, 0xbe,
  0x8c, 0xe0, 0x9a, 0xbe, 0x3a, 0x19, 0x05, 0x3b, 0x1b, 0x05, 0x18, 0xbe,
  0x8b, 0x0e, 0x22, 0xbd, 0xdb, 0xb2, 0x9f, 0xbe, 0x05, 0x43, 0xaa, 0x3e,
  0xe4, 0x91, 0x02, 0xbf, 0x64, 0xe6, 0x34, 0x3e, 0xc7, 0x15, 0xc7, 0xbe,
  0x44, 0xc5, 0xa8, 0xbe, 0x5f, 0x72, 0x23, 0x3e, 0xf7, 0x1d, 0x22, 0x3e,
  0xd5, 0x3d, 0x6f, 0x3d, 0xd6, 0xad, 0x5a, 0x3e, 0x7d, 0xbc, 0x95, 0x3e,
  0x2c, 0x7a, 0x22, 0xbf, 0x9a, 0x75, 0x73, 0xbe, 0x48, 0x03, 0x0b, 0x3e,
  0xf4, 0xe3, 0x81, 0xbe, 0x1d, 0x01, 0x4a, 0x3e, 0x11, 0x9d, 0x87, 0x3e,
  0xda, 0x79, 0x6e, 0x3d, 0x15, 0x5a, 0x82, 0xbd, 0xb5, 0xb6, 0x5b, 0x3e,
  0xd8, 0x52, 0x18, 0xbd, 0x0b, 0x67, 0x7d, 0xbe, 0xaf, 0xbd, 0x73, 0x3d,
  0xf6, 0xe1, 0xff, 0xff, 0x10, 0x00, 0x00, 0x00, 0x06, 0x00, 0x00, 0x00,
  0x14, 0x00, 0x00, 0x00, 0x30, 0x00, 0x00, 0x00, 0x02, 0x00, 0x00, 0x00,
  0x04, 0x00, 0x00, 0x00, 0x10, 0x00, 0x00, 0x00, 0x19, 0x00, 0x00, 0x00,
  0x73, 0x65, 0x71, 0x75, 0x65, 0x6e, 0x74, 0x69, 0x61, 0x6c, 0x2f, 0x64,
  0x65, 0x6e, 0x73, 0x65, 0x5f, 0x31, 0x2f, 0x4d, 0x61, 0x74, 0x4d, 0x75,
  0x6c, 0x00, 0x00, 0x00, 0xe8, 0xe1, 0xff, 0xff, 0xde, 0xe2, 0xff, 0xff,
  0x04, 0x00, 0x00, 0x00, 0x00, 0x1c, 0x00, 0x00, 0x8a, 0x7b, 0xd5, 0xbd,
  0xef, 0x0c, 0xa8, 0x3c, 0xa4, 0xe7, 0x8e, 0xbe, 0x2c, 0xcb, 0x44, 0x3e,
  0xa4, 0xc0, 0x54, 0xbd, 0x1c, 0x2d, 0x30, 0xbd, 0xff, 0xaf, 0x47, 0xbd,
  0x2f, 0xc6, 0xb0, 0xbd, 0xf0, 0xf6, 0xc0, 0x3c, 0x07, 0xb1, 0x24, 0xbe,
  0x73, 0x03, 0xca, 0xbd, 0xf7, 0x3f, 0x0d, 0xbe, 0x33, 0x83, 0x26, 0xbf,
  0x49, 0x89, 0x30, 0x3c, 0x1a, 0x27, 0xe2, 0x3d, 0x79, 0x2d, 0xb5, 0x3f,
  0x3c, 0x1b, 0x5c, 0xbd, 0x82, 0xb9, 0xdf, 0x3b, 0xde, 0x37, 0x9c, 0xbe,
  0x8e, 0xb4, 0x72, 0x3f, 0x31, 0x57, 0x52, 0xbd, 0xce, 0x8e, 0x82, 0x3d,
  0xfc, 0x34, 0x3a, 0xbd, 0xee, 0xbe, 0xf0, 0x3c, 0x40, 0x7c, 0xe1, 0xbd,
  0xe1, 0x6a, 0x7d, 0xbe, 0x7c, 0x5c, 0xd8, 0xbd, 0x33, 0xc8, 0x26, 0xbe,
  0x8d, 0xf3, 0xd7, 0xbe, 0xc9, 0x34, 0x57, 0xbe, 0x21, 0xaa, 0xc1, 0xbc,
  0x4b, 0xb8, 0x9e, 0x3f, 0xfd, 0xe7, 0x0f, 0xbe, 0xe6, 0xa1, 0x3d, 0xbd,
  0x83, 0xcd, 0x2b, 0x3e, 0x3b, 0xab, 0x3d, 0x3f, 0x0a, 0x71, 0xbb, 0xbd,
  0x1c, 0x22, 0x31, 0xbd, 0x98, 0x9d, 0x37, 0xbd, 0x43, 0x84, 0x40, 0xbd,
  0x46, 0x96, 0x50, 0x3c, 0x99, 0x9c, 0x6b, 0xbd, 0xae, 0x57, 0x5a, 0xbe,
  0x47, 0x1a, 0xd0, 0xbe, 0xc5, 0x67, 0xe5, 0xbe, 0x44, 0xdc, 0x56, 0xbe,
  0xee, 0xca, 0x23, 0x3d, 0x26, 0x52, 0x58, 0x3f, 0x90, 0x69, 0xd1, 0xbd,
  0x5b, 0x69, 0xd0, 0xbb, 0x69, 0x28, 0xca, 0x3d, 0x3b, 0x7b, 0xc5, 0x3e,
  0xd2, 0xf4, 0xb1, 0xbd, 0xce, 0x9a, 0xb7, 0xbd, 0xed, 0x79, 0x27, 0xbd,
  0xf2, 0x6b, 0x15, 0xbd, 0x79, 0x42, 0xb3, 0x3d, 0xa3, 0xdf, 0xfa, 0xbb,
  0x50, 0x1d, 0x72, 0xbe, 0x59, 0x65, 0x79, 0xbd, 0x3f, 0x50, 0xb1, 0xbe,
  0xa6, 0x36, 0x65, 0xbe, 0x68, 0x2a, 0x5a, 0xbe, 0x98, 0x7a, 0xb0, 0x3f,
  0x11, 0x13, 0x0f, 0x3e, 0xe7, 0x3f, 0x37, 0xbd, 0x2b, 0xf7, 0x2b, 0x3d,
  0xe6, 0x9a, 0xdf, 0x3e, 0xd8, 0x98, 0xa9, 0x3c, 0x20, 0xbb, 0x07, 0xbe,
  0xa8, 0x46, 0xab, 0xbc, 0xfa, 0xe7, 0xa2, 0xbd, 0xbd, 0x72, 0x96, 0xbd,
  0x22, 0x4d, 0xa5, 0x3c, 0x35, 0x0a, 0x82, 0xbd, 0x02, 0x32, 0xc1, 0x3d,
  0x97, 0xbb, 0xa6, 0xbe, 0xa6, 0x69, 0x76, 0x3e, 0xb6, 0x3b, 0x5c, 0xbe,
  0x13, 0x9c, 0x97, 0x3f, 0xb3, 0x90, 0x83, 0xbc, 0x7c, 0xdb, 0xeb, 0x3c,
  0xf4, 0x34, 0x80, 0x3d, 0x75, 0xa8, 0x37, 0x3d, 0xe0, 0xd3, 0x44, 0x3c,
  0x38, 0x35, 0xfc, 0xba, 0xed, 0x7f, 0x45, 0x3d, 0xd5, 0x73, 0x04, 0xbe,
  0xe7, 0xcd, 0xd1, 0x3b, 0xab, 0x77, 0x5c, 0x3d, 0x54, 0xfc, 0x90, 0xbd,
  0x22, 0xae, 0xa2, 0x3e, 0x3c, 0x85, 0xdb, 0xbe, 0x38, 0x89, 0x48, 0x3d,
  0x13, 0xe7, 0xbb, 0xbd, 0x39, 0x54, 0xa1, 0x3f, 0xaa, 0x63, 0x73, 0xbc,
  0xfd, 0x8b, 0x13, 0xbd, 0x86, 0xbc, 0xbb, 0x3d, 0xab, 0xd5, 0xb7, 0x3e,
  0x39, 0xd1, 0x58, 0x3d, 0xc5, 0x6b, 0x25, 0xbc, 0x02, 0x2c, 0x53, 0x3d,
  0xe2, 0x9e, 0x91, 0xbe, 0x54, 0xc1, 0xac, 0xbd, 0x81, 0xa2, 0x41, 0xbc,
  0xed, 0xa0, 0x8d, 0x3c, 0xe2, 0xd6, 0x56, 0x3e, 0x8d, 0x05, 0x84, 0xbe,
  0x0d, 0x05, 0xd6, 0xbc, 0xb2, 0x76, 0xcc, 0xbc, 0x71, 0xc2, 0xc5, 0x3e,
  0x65, 0x56, 0xa9, 0x3e, 0xa1, 0x8e, 0x24, 0x3e, 0xc3, 0xc3, 0x05, 0x3e,
  0xa7, 0xa6, 0x24, 0x3e, 0xa1, 0xd3, 0xff, 0xbc, 0xa8, 0x8c, 0x01, 0x3d,
  0x65, 0x8b, 0x1c, 0x3d, 0x69, 0x0a, 0x29, 0x3e, 0xdc, 0x16, 0x15, 0x3e,
  0x3e, 0x33, 0x17, 0x3e, 0x87, 0x47, 0x06, 0xbd, 0xf9, 0xd2, 0xe1, 0xbc,
  0x14, 0xdc, 0x24, 0xbe, 0x7e, 0x47, 0x8b, 0x3e, 0x30, 0x24, 0x3a, 0xbd,
  0xec, 0x92, 0xdd, 0x3e, 0x21, 0xc4, 0x68, 0x3d, 0x3d, 0x1b, 0x8e, 0xbd,
  0xf5, 0x3a, 0xc0, 0x3d, 0x48, 0x4d, 0xe3, 0x3d, 0xd1, 0xeb, 0x42, 0xbd,
  0xf8, 0xaf, 0x51, 0xbd, 0x11, 0xca, 0xfa, 0xba, 0xfb, 0xe9, 0xa5, 0x3d,
  0xf0, 0x38, 0xfd, 0xbe, 0x51, 0x4f, 0x31, 0xbd, 0x75, 0x34, 0x0f, 0xbd,
  0x27, 0x14, 0xbc, 0xbe, 0x3e, 0x01, 0xef, 0xbd, 0xdc, 0xa2, 0x22, 0x3e,
  0xcc, 0xc7, 0xc7, 0xbd, 0xb7, 0x30, 0x9f, 0xbc, 0xa5, 0xee, 0x86, 0x3d,
  0x5f, 0x51, 0x5d, 0xbd, 0x57, 0x07, 0xc1, 0xbd, 0x6c, 0x31, 0x0d, 0x3e,
  0xb0, 0x25, 0xc6, 0x3d, 0x7d, 0x9f, 0xf9, 0xbc, 0x67, 0xdc, 0x1f, 0x3d,
  0x05, 0x2d, 0x21, 0xbd, 0x6f, 0xad, 0x89, 0xbe, 0x99, 0x7b, 0xf0, 0xbc,
  0xf8, 0xf2, 0x29, 0xbc, 0x8c, 0xef, 0x6b, 0xbc, 0x6a, 0x65, 0x6e, 0xbd,
  0xfe, 0xb4, 0x73, 0xbd, 0xbc, 0x02, 0xe2, 0xbc, 0x68, 0x6a, 0x06, 0x3d,
  0x20, 0xa6, 0x09, 0xbc, 0x2a, 0xd9, 0x3c, 0xbd, 0x51, 0x1c, 0x1b, 0x3c,
  0x53, 0xbc, 0xdd, 0xbd, 0xd5, 0xb7, 0xa7, 0x3d, 0x71, 0x22, 0x68, 0x3d,
  0xc4, 0x36, 0x1c, 0x3d, 0x6f, 0xd7, 0x62, 0xbd, 0x77, 0xb5, 0x86, 0xbd,
  0xf8, 0xb3, 0xa0, 0xb8, 0xdf, 0x1b, 0x51, 0x3d, 0x92, 0xa0, 0x40, 0x3c,
  0xd7, 0xb4, 0xca, 0xbc, 0xf1, 0xef, 0x31, 0xbe, 0xae, 0xd6, 0x09, 0xbc,
  0x36, 0x04, 0x6a, 0x3e, 0xd7, 0x37, 0x42, 0x3e, 0x5a, 0xa6, 0x35, 0xbc,
  0xc3, 0xd8, 0x56, 0xbd, 0x3c, 0x14, 0xbb, 0x3e, 0xf7, 0x50, 0x91, 0x3d,
  0x35, 0xf0, 0x0b, 0x3d, 0xa4, 0xa7, 0x2c, 0xbc, 0xae, 0x70, 0xfe, 0xbc,
  0x00, 0x4b, 0x35, 0x3e, 0xa6, 0xc2, 0x89, 0xbd, 0x3f, 0x90, 0xb3, 0x3c,
  0x74, 0x5c, 0x9e, 0x3e, 0x8f, 0x05, 0x2d, 0xbd, 0x11, 0xbf, 0xcf, 0x3e,
  0x31, 0xb3, 0xf5, 0xbc, 0xbf, 0xfc, 0x97, 0x3d, 0x87, 0x9d, 0x00, 0x3e,
  0x38, 0x83, 0x54, 0x3d, 0xeb, 0x80, 0xb6, 0x3d, 0x25, 0xd2, 0xa2, 0x3e,
  0x4f, 0x3e, 0xd6, 0x3c, 0xe1, 0x2c, 0x84, 0x3c, 0x66, 0xdc, 0x37, 0x3d,
  0xb4, 0xa8, 0x05, 0x3c, 0x60, 0x16, 0x38, 0x3e, 0x50, 0x7d, 0xdf, 0xbc,
  0xa5, 0xee, 0x0a, 0x3d, 0x22, 0x61, 0xad, 0x3e, 0xbe, 0x43, 0xc1, 0xbd,
  0x75, 0xf2, 0xe4, 0x3e, 0x3c, 0xa9, 0x47, 0xbd, 0xbd, 0xf1, 0x20, 0xbd,
  0xd5, 0xe6, 0xe9, 0x3a, 0xc3, 0x26, 0x95, 0xbc, 0x19, 0x95, 0xb5, 0xba,
  0xd3, 0xdf, 0x78, 0x3e, 0xf4, 0x71, 0xc3, 0xbd, 0xa2, 0x52, 0x70, 0x3c,
  0x6f, 0xbf, 0x24, 0xba, 0xf5, 0x91, 0x55, 0x3d, 0x3c, 0xd0, 0xa2, 0xbd,
  0xc6, 0xce, 0x02, 0x3d, 0x6a, 0xb6, 0x1a, 0x3c, 0x06, 0x05, 0x0c, 0x3e,
  0xc7, 0xd8, 0xac, 0xbc, 0x29, 0x8e, 0xa9, 0x3d, 0x21, 0xd2, 0x42, 0xbc,
  0x1b, 0x1a, 0xe6, 0x3c, 0xe7, 0x97, 0xa6, 0xbe, 0xdb, 0x7b, 0x00, 0xbd,
  0xb2, 0x6b, 0x88, 0xbd, 0x03, 0xe9, 0x9b, 0xbe, 0xe2, 0x95, 0xb4, 0xbe,
  0x05, 0x45, 0x95, 0x3b, 0x8f, 0x35, 0xc0, 0xbc, 0x81, 0xc1, 0x05, 0xbe,
  0x40, 0x1c, 0x9d, 0xbc, 0x76, 0x98, 0x46, 0xbe, 0xef, 0x00, 0x75, 0x3e,
  0x08, 0x51, 0x4c, 0x3e, 0x2c, 0x88, 0x89, 0xbe, 0xc5, 0x20, 0xa9, 0x3d,
  0xe4, 0xa8, 0x40, 0x3d, 0x14, 0x14, 0x12, 0x3f, 0x8d, 0x31, 0x12, 0xbe,
  0x03, 0xfd, 0x16, 0xbe, 0xc7, 0xac, 0xbd, 0x3c, 0x65, 0x6d, 0x44, 0x3e,
  0x80, 0x1e, 0xe2, 0xbd, 0x32, 0x43, 0x25, 0xbd, 0x6d, 0xe7, 0x80, 0xbc,
  0x85, 0xdb, 0x0a, 0x3e, 0xd9, 0xe4, 0x96, 0x3d, 0x31, 0x17, 0x4d, 0xbe,
  0x95, 0x73, 0x93, 0x3e, 0xec, 0xf7, 0x88, 0x3e, 0x27, 0xf1, 0xa9, 0xbd,
  0x6c, 0x93, 0x19, 0x3e, 0xd1, 0xae, 0x8d, 0x3e, 0xd8, 0x16, 0x2b, 0x3f,
  0x9f, 0xbb, 0xdd, 0x3c, 0x62, 0x1c, 0x2b, 0xbe, 0x0b, 0x32, 0x3b, 0x3e,
  0xeb, 0xe5, 0x01, 0x3f, 0x13, 0xe1, 0x95, 0xbe, 0x6a, 0x86, 0xd5, 0x3d,
  0x13, 0x49, 0x1d, 0x3d, 0x87, 0x50, 0xc0, 0xbd, 0xdf, 0x44, 0x6f, 0x3e,
  0x5a, 0xb7, 0x0d, 0xbe, 0xd8, 0x7b, 0xeb, 0x3e, 0x41, 0x22, 0x85, 0x3e,
  0xd7, 0x2c, 0xd6, 0x3c, 0x15, 0x06, 0x1a, 0xbe, 0x73, 0x7a, 0x37, 0x3e,
  0x70, 0x68, 0x12, 0x3f, 0xaa, 0x08, 0xca, 0xbd, 0xc4, 0x74, 0x21, 0x3e,
  0xa1, 0xdc, 0x5c, 0x3e, 0x94, 0x5e, 0x65, 0x3f, 0xc4, 0xdf, 0x64, 0xbd,
  0x1e, 0xbc, 0x46, 0x3d, 0xfa, 0xa8, 0x39, 0x3d, 0x16, 0xab, 0x20, 0x3d,
  0x50, 0x0a, 0x0a, 0x3d, 0x29, 0x06, 0xd4, 0x3d, 0x2b, 0xfc, 0xb6, 0x3e,
  0x3c, 0x5e, 0xd4, 0xbd, 0x7c, 0xda, 0xf5, 0xbd, 0xda, 0x18, 0x88, 0x3e,
  0x5b, 0xc7, 0x54, 0x3e, 0x68, 0x5b, 0x86, 0x3e, 0x7b, 0x88, 0x6a, 0xbd,
  0xa9, 0x07, 0x33, 0xbd, 0xc7, 0x05, 0x8e, 0x3e, 0xb6, 0xec, 0x60, 0x3d,
  0xb7, 0xce, 0xcc, 0xbd, 0x7c, 0x51, 0x4a, 0x3e, 0xe1, 0x09, 0x78, 0xbd,
  0x68, 0x76, 0x6d, 0x3b, 0xee, 0x84, 0x50, 0xbd, 0x5e, 0xf1, 0xc9, 0xbc,
  0xcd, 0x4e, 0x98, 0x3d, 0x35, 0x7f, 0xd7, 0xbd, 0xbf, 0x97, 0x91, 0xbd,
  0x7b, 0x82, 0x74, 0xbd, 0x28, 0x3c, 0xbb, 0x3e, 0x3e, 0x97, 0x09, 0x3f,
  0x9f, 0xcc, 0x30, 0xbe, 0x58, 0x78, 0xe6, 0xbd, 0x9e, 0xfc, 0x8a, 0x3d,
  0xec, 0xf4, 0x17, 0xbd, 0x3c, 0x17, 0x76, 0xbe, 0x1a, 0xb0, 0x9e, 0x3d,
  0x46, 0x57, 0xca, 0xbd, 0x06, 0x08, 0x09, 0xbe, 0x82, 0xa0, 0x70, 0x3e,
  0x66, 0x9e, 0x60, 0xbe, 0xab, 0x22, 0xed, 0x3e, 0xfc, 0x48, 0xb9, 0xbd,
  0x78, 0xc9, 0x61, 0xbe, 0xa2, 0x74, 0x02, 0xbe, 0xb8, 0x97, 0xa7, 0xba,
  0x8d, 0x29, 0xf9, 0x3e, 0x86, 0x93, 0x62, 0xbe, 0x83, 0x72, 0x6e, 0xbe,
  0x18, 0x8b, 0x01, 0x3d, 0xc4, 0x81, 0xea, 0xbd, 0x46, 0x2d, 0x12, 0xbe,
  0x82, 0x8b, 0xa4, 0x3d, 0x22, 0xfe, 0x3b, 0xbe, 0x44, 0xa3, 0xbd, 0xbd,
  0x33, 0xcf, 0xc5, 0xbd, 0x14, 0xfb, 0x62, 0xbe, 0xe0, 0xe5, 0x67, 0x3e,
  0x39, 0x16, 0x8a, 0xbd, 0xc2, 0x40, 0x0b, 0x3e, 0x57, 0xb4, 0x11, 0xbe,
  0x73, 0x00, 0xcd, 0xbd, 0x33, 0xb0, 0x57, 0x3e, 0xf1, 0xdd, 0x00, 0x3f,
  0xd3, 0x97, 0xaf, 0x3e, 0xcb, 0x90, 0xd4, 0xbb, 0x2d, 0x66, 0xa8, 0x3e,
  0x2c, 0x44, 0x38, 0x3e, 0x18, 0x8d, 0x06, 0x3f, 0x7d, 0xa0, 0x2d, 0xbd,
  0x6a, 0x7f, 0x8d, 0x3e, 0x5a, 0xb2, 0xca, 0x3e, 0x2e, 0xa3, 0x8f, 0xbe,
  0x1d, 0x35, 0x05, 0x3e, 0xaf, 0x64, 0x8d, 0x3e, 0xc8, 0xee, 0x09, 0x3d,
  0x4d, 0x71, 0x1e, 0x3f, 0xb4, 0x2d, 0xad, 0x3e, 0xda, 0xd4, 0x96, 0x3e,
  0xc1, 0x46, 0x61, 0x3d, 0xcb, 0x63, 0xab, 0x3d, 0x43, 0x11, 0xb7, 0x3e,
  0x49, 0x46, 0x0e, 0x3e, 0xf1, 0x16, 0x76, 0xbe, 0x85, 0xcc, 0xf7, 0x3d,
  0x02, 0xa7, 0x0c, 0x3e, 0xa2, 0x56, 0xed, 0x3b, 0x43, 0x43, 0xef, 0xbd,
  0x19, 0x7b, 0x27, 0xbe, 0xfc, 0x88, 0x79, 0xbd, 0x62, 0x07, 0xe8, 0xbd,
  0x50, 0x7b, 0x38, 0x3b, 0xba, 0xdf, 0x5f, 0x3e, 0x22, 0x86, 0x61, 0xbe,
  0x43, 0xba, 0x95, 0x3e, 0x9d, 0x1f, 0xfb, 0xbe, 0x0b, 0x69, 0x99, 0xbd,
  0xd0, 0xd0, 0x26, 0x3c, 0x64, 0x99, 0x72, 0xbe, 0x8a, 0x85, 0x13, 0xbe,
  0x2b, 0x44, 0xfa, 0xbd, 0x27, 0x0a, 0x19, 0xbd, 0xbb, 0xf9, 0x49, 0xbd,
  0x08, 0xd3, 0x93, 0xbd, 0x16, 0x2f, 0xab, 0x3c, 0x95, 0x8b, 0x8e, 0xbd,
  0x92, 0xe7, 0x80, 0xbd, 0xff, 0x8e, 0xda, 0xbb, 0x0a, 0x8b, 0x28, 0xbe,
  0x77, 0xa4, 0x9e, 0xbd, 0x4d, 0x9b, 0xac, 0x3d, 0xcd, 0xd4, 0x89, 0xbe,
  0x5d, 0x57, 0x7d, 0xbd, 0xd1, 0xce, 0xee, 0xbe, 0xc4, 0x0f, 0x4d, 0xbe,
  0xa8, 0x69, 0x77, 0x3e, 0x49, 0xdd, 0x98, 0xbd, 0xdc, 0x4b, 0x84, 0x3c,
  0x1b, 0xc9, 0x93, 0xbd, 0x77, 0xf7, 0xa7, 0xbc, 0x13, 0xfd, 0x20, 0x3e,
  0xeb, 0xea, 0xe5, 0xbd, 0xab, 0x3d, 0xd6, 0x3d, 0x31, 0x97, 0x26, 0xbc,
  0x26, 0x2c, 0xf1, 0xbd, 0xe2, 0x32, 0x35, 0xbe, 0x25, 0xca, 0xd8, 0xbc,
  0x00, 0xfd, 0x52, 0xbe, 0xb4, 0xee, 0x04, 0xbe, 0x20, 0xc3, 0x93, 0xbe,
  0x9a, 0xa0, 0x9d, 0xbe, 0x11, 0x51, 0x86, 0x3e, 0xf2, 0x6c, 0xe0, 0xbc,
  0x20, 0x9b, 0x10, 0x3d, 0x81, 0xcc, 0xaa, 0xbd, 0x63, 0xf2, 0x32, 0x3e,
  0x4c, 0x97, 0xa1, 0x3e, 0x0a, 0xbd, 0x44, 0xbe, 0xf0, 0x29, 0xa5, 0x3d,
  0x80, 0x08, 0x24, 0xbc, 0x2c, 0xb5, 0x5b, 0xbe, 0xdc, 0x4b, 0xe0, 0xbd,
  0x61, 0x7d, 0xd0, 0x3d, 0xbb, 0xb4, 0xb8, 0xbe, 0xb7, 0xa3, 0xe8, 0xbd,
  0x4b, 0x9b, 0x92, 0xbe, 0xf9, 0x87, 0xbd, 0xbe, 0xdd, 0x7b, 0xb1, 0xbe,
  0xe8, 0xde, 0x02, 0xbe, 0xf6, 0x6d, 0xad, 0xbe, 0x8c, 0x47, 0xb6, 0x3c,
  0x94, 0x81, 0x59, 0xbc, 0x0a, 0xdc, 0x45, 0x3b, 0xc0, 0x48, 0xc2, 0x3d,
  0xfd, 0x0b, 0xfd, 0xbd, 0xb9, 0x56, 0x28, 0x3c, 0x8c, 0x62, 0x71, 0xbe,
  0x62, 0x33, 0x29, 0x3c, 0x9b, 0x28, 0x9c, 0x3e, 0x30, 0xe1, 0xcc, 0x3c,
  0x08, 0xbb, 0x92, 0xbc, 0xb0, 0x1b, 0xb6, 0xbe, 0x77, 0x6d, 0x68, 0xbe,
  0xda, 0x4f, 0x06, 0xbf, 0xb5, 0xa0, 0x92, 0xbd, 0xa5, 0x25, 0x8d, 0xbe,
  0x39, 0x37, 0x3d, 0x3d, 0xef, 0x7b, 0x5d, 0xbd, 0x89, 0x2d, 0xf5, 0xbe,
  0x9a, 0xc7, 0x69, 0x3c, 0x22, 0x4e, 0x5a, 0x3e, 0x92, 0x9e, 0x2a, 0x3e,
  0x96, 0x5a, 0x36, 0x3e, 0x11, 0x45, 0xa3, 0xbd, 0xdc, 0xbd, 0x3b, 0x3e,
  0x22, 0x29, 0x0b, 0x3d, 0xb7, 0x04, 0x88, 0xbe, 0x68, 0x3e, 0x1a, 0xbe,
  0xe6, 0xcc, 0xbd, 0x3d, 0xe9, 0x93, 0xbd, 0xbd, 0x8f, 0xc7, 0x97, 0xbd,
  0xe5, 0x71, 0xa2, 0xbe, 0xc3, 0x59, 0x44, 0xbe, 0xfc, 0x94, 0x8b, 0xbd,
  0x9b, 0x2f, 0x08, 0xbe, 0x0e, 0x20, 0x87, 0xbd, 0xa0, 0x8e, 0x84, 0xbc,
  0x91, 0xdd, 0x1d, 0x3d, 0x6c, 0x38, 0x0a, 0xbe, 0x31, 0xe3, 0x78, 0x3d,
  0x25, 0x65, 0x1f, 0x3d, 0xaa, 0xcc, 0xa5, 0x3d, 0x10, 0x04, 0x27, 0xbe,
  0x85, 0x51, 0x34, 0xbe, 0x72, 0xef, 0xfd, 0x3e, 0xac, 0x53, 0x36, 0x3d,
  0xbe, 0xde, 0x8f, 0xbe, 0xe8, 0xbe, 0xba, 0xbe, 0xd0, 0x55, 0x3b, 0x3d,
  0x46, 0xb1, 0xa3, 0x3d, 0x32, 0x4a, 0xf2, 0xbd, 0x25, 0x00, 0x4a, 0xbe,
  0xd1, 0x6e, 0x39, 0xbe, 0x22, 0x89, 0xad, 0xbd, 0xcd, 0xf0, 0x56, 0x3e,
  0xf9, 0x63, 0x3e, 0xbe, 0x74, 0x4a, 0x81, 0x3e, 0x23, 0x96, 0xc4, 0xbd,
  0x12, 0x97, 0x3b, 0xbe, 0x4f, 0x89, 0x22, 0xbe, 0x59, 0x3d, 0x7b, 0x3f,
  0xea, 0x5d, 0x68, 0x3d, 0xcc, 0x70, 0x96, 0xbe, 0x1d, 0xb8, 0x93, 0xbe,
  0xa3, 0x3d, 0x05, 0x3c, 0x70, 0x69, 0xf9, 0x3d, 0x6d, 0x79, 0x58, 0xbc,
  0x2f, 0x7b, 0xf9, 0xbd, 0xc8, 0x1d, 0x25, 0xbe, 0x86, 0xa4, 0x2a, 0x3d,
  0x5c, 0xa5, 0x33, 0xbd, 0x1d, 0xa7, 0x04, 0x3d, 0x1c, 0x49, 0x0e, 0x3e,
  0x43, 0x87, 0xda, 0xbd, 0x29, 0xf9, 0x71, 0xbd, 0xf8, 0x4b, 0x06, 0x3e,
  0x34, 0xb5, 0x88, 0x3f, 0x6b, 0xdf, 0x8f, 0xbe, 0x3b, 0x14, 0x51, 0xbe,
  0xdc, 0x98, 0x99, 0xbe, 0x03, 0x3b, 0x6c, 0xbd, 0x4e, 0xb9, 0x0a, 0xbe,
  0x6e, 0xac, 0xa7, 0xbe, 0x85, 0xa4, 0xd5, 0xbc, 0xbf, 0x88, 0x7b, 0xbe,
  0x65, 0xf5, 0x36, 0xbe, 0x57, 0x17, 0x23, 0xbd, 0x41, 0xb1, 0x01, 0xbe,
  0xf2, 0xcb, 0xf2, 0x3d, 0xfd, 0x46, 0x06, 0xbe, 0xf3, 0x02, 0x22, 0xbe,
  0x70, 0xbb, 0xca, 0xbd, 0x10, 0x2b, 0xae, 0x3e, 0xc8, 0x33, 0x3c, 0x3c,
  0x8a, 0x61, 0xb5, 0xbd, 0x12, 0x46, 0x82, 0xbe, 0xfc, 0x11, 0x2e, 0x3d,
  0x10, 0x39, 0x16, 0x3e, 0x9c, 0x17, 0xac, 0xbd, 0xb0, 0x15, 0x6d, 0xbe,
  0xf2, 0x9c, 0x85, 0x3c, 0xb6, 0x17, 0x1d, 0xbe, 0x03, 0x7a, 0x3a, 0x3e,
  0x4e, 0xa2, 0x32, 0x3e, 0xc0, 0xa3, 0x16, 0x3e, 0x46, 0x03, 0xd2, 0xbc,
  0x7e, 0xe5, 0x47, 0xbe, 0xa7, 0xd9, 0x2f, 0x3d, 0x6d, 0xc8, 0x90, 0x3e,
  0x1e, 0xf4, 0x94, 0xbc, 0x2c, 0xad, 0x27, 0xbe, 0x07, 0xca, 0x5a, 0xbe,
  0x6b, 0x7f, 0x93, 0xbc, 0x67, 0xf9, 0x3d, 0xbe, 0xf1, 0xc6, 0x22, 0xbe,
  0x4a, 0xb3, 0x02, 0x3a, 0x26, 0x1d, 0x1f, 0xbe, 0x4c, 0xcf, 0xa3, 0xbd,
  0xbc, 0x7e, 0x2a, 0xbe, 0x81, 0xa5, 0x1d, 0x3e, 0x0d, 0x4d, 0x31, 0x3d,
  0x24, 0x63, 0x64, 0x3d, 0xe1, 0xbe, 0x6a, 0xbe, 0x1d, 0x5b, 0x95, 0xbe,
  0xc8, 0x23, 0xc4, 0x3e, 0xf6, 0x45, 0xb4, 0xbd, 0x8a, 0x49, 0xa0, 0xbd,
  0x41, 0x38, 0x00, 0xbe, 0x5e, 0x64, 0x14, 0xbe, 0x7e, 0x35, 0x20, 0xbe,
  0xb5, 0x5a, 0x8b, 0xbe, 0xdb, 0xb6, 0x57, 0xbe, 0xd4, 0xfd, 0x6d, 0xbe,
  0xdd, 0x43, 0x85, 0xbd, 0xf3, 0x81, 0x5e, 0xbd, 0x94, 0xc4, 0xf7, 0x3d,
  0x5a, 0xcb, 0x36, 0x3c, 0x5d, 0xee, 0xb3, 0xbe, 0xfc, 0x27, 0x0d, 0xbe,
  0x66, 0xa7, 0x24, 0x3e, 0x57, 0x3a, 0x87, 0xbe, 0x9e, 0xc8, 0x09, 0x3e,
  0x02, 0x96, 0x95, 0xbe, 0xa0, 0x65, 0xe2, 0xbb, 0x16, 0xcd, 0x53, 0xbe,
  0x98, 0xaa, 0x81, 0x3e, 0x45, 0x0f, 0x93, 0x3d, 0x06, 0xbd, 0xd5, 0xbd,
  0xa8, 0x8a, 0x72, 0xbe, 0x1c, 0x8b, 0x92, 0xbe, 0xe9, 0xb5, 0xc9, 0xbe,
  0xcf, 0x2e, 0x3a, 0xbd, 0x64, 0x76, 0x7f, 0x3f, 0x73, 0x64, 0x38, 0x3e,
  0x8d, 0xd5, 0x97, 0xbe, 0x45, 0xc2, 0x86, 0x3d, 0xc4, 0xfc, 0xc2, 0x3e,
  0x8e, 0x6d, 0x32, 0x3e, 0xad, 0x21, 0x0e, 0xbf, 0xf7, 0x7b, 0xce, 0xbd,
  0xe8, 0x04, 0xf4, 0x3d, 0x38, 0xfd, 0x55, 0xbe, 0x6d, 0xa3, 0x06, 0x3e,
  0xc8, 0x38, 0x39, 0xbe, 0x65, 0x3c, 0xfa, 0x3d, 0x4d, 0xd9, 0x0b, 0xbf,
  0x85, 0x86, 0x33, 0xbd, 0xc8, 0x04, 0xa8, 0xbe, 0x1a, 0xe7, 0x97, 0x3f,
  0x38, 0xe5, 0xa2, 0x3e, 0x09, 0x14, 0x50, 0x3d, 0xd8, 0x04, 0x96, 0x3d,
  0x92, 0x8f, 0x90, 0x3f, 0x36, 0x92, 0x8a, 0x3e, 0x08, 0x83, 0x98, 0xbe,
  0xe5, 0xb6, 0x62, 0xba, 0x72, 0x45, 0x1d, 0x3c, 0x38, 0x66, 0x98, 0xbd,
  0x93, 0x29, 0xcd, 0xbd, 0xc5, 0x0b, 0xac, 0xbe, 0x06, 0x1d, 0x10, 0x3e,
  0xbf, 0x10, 0xc6, 0xbe, 0x08, 0xa3, 0x73, 0x3e, 0xc0, 0xc3, 0x12, 0xbf,
  0x2f, 0x47, 0x85, 0x3f, 0x32, 0xdf, 0x96, 0x3e, 0x06, 0x74, 0x28, 0x3d,
  0xa7, 0x5e, 0xa2, 0x3e, 0x29, 0x22, 0x7e, 0x3f, 0x3c, 0x5d, 0x7a, 0x3e,
  0xd5, 0xdd, 0xd5, 0xbd, 0x77, 0xe8, 0x4f, 0x3d, 0xbf, 0x07, 0x4e, 0xbd,
  0x48, 0x6e, 0x5b, 0xbe, 0x58, 0x68, 0x32, 0x3e, 0x2f, 0x40, 0x61, 0xbe,
  0xc8, 0xc7, 0x88, 0xbb, 0x1b, 0x92, 0xa2, 0xbd, 0xb3, 0xa5, 0xaa, 0x3e,
  0x9b, 0x82, 0xf8, 0xbe, 0x8e, 0xa6, 0x5b, 0x3f, 0x3f, 0x3d, 0x0f, 0xbe,
  0x96, 0xc8, 0x61, 0xbe, 0xe7, 0xf7, 0xa4, 0x3e, 0xc1, 0xca, 0x93, 0x3e,
  0x9e, 0x96, 0x22, 0x3e, 0x4d, 0x26, 0x3c, 0xbe, 0x1c, 0x22, 0x05, 0xbd,
  0x68, 0x2c, 0x80, 0x3c, 0x7d, 0x2a, 0xe9, 0xbd, 0xa5, 0xc8, 0xcf, 0x3d,
  0x65, 0x25, 0x1a, 0xbe, 0xb5, 0x7e, 0xbe, 0xbd, 0x2c, 0x5d, 0xa3, 0xbd,
  0x81, 0x58, 0x7f, 0xbe, 0xaf, 0xe6, 0x0c, 0xbf, 0xc3, 0xc5, 0x61, 0x3f,
  0xc1, 0xfa, 0xbc, 0x3d, 0xa6, 0x2f, 0xa8, 0xbe, 0x15, 0x38, 0x7c, 0x3e,
  0x7d, 0xc4, 0xbb, 0x3d, 0x4b, 0x63, 0x3c, 0x3e, 0xda, 0xb7, 0xbb, 0xbe,
  0x64, 0xd2, 0x81, 0xbd, 0xfe, 0x05, 0xa4, 0x3c, 0x32, 0x42, 0x98, 0xbe,
  0xa0, 0x09, 0x30, 0x3e, 0xb4, 0x9b, 0x46, 0xbe, 0x44, 0x84, 0xde, 0xbd,
  0xea, 0x8a, 0x7c, 0x3a, 0x9c, 0xaf, 0x30, 0xbd, 0x0b, 0x34, 0x08, 0xbf,
  0xbc, 0xdf, 0x99, 0x3f, 0x97, 0xcd, 0x55, 0x3e, 0x72, 0xe1, 0x69, 0xbe,
  0xc2, 0xfb, 0x86, 0xbc, 0x49, 0xd2, 0xf4, 0x3d, 0xa0, 0x41, 0x98, 0xbd,
  0xa3, 0x87, 0xba, 0xbd, 0xfb, 0x6e, 0x08, 0xbd, 0x76, 0x1a, 0x65, 0x3b,
  0x32, 0x9e, 0x84, 0xbe, 0xdb, 0x06, 0x83, 0xbc, 0x2b, 0x3d, 0x60, 0xbd,
  0x18, 0x99, 0x43, 0xbe, 0x92, 0x91, 0x2c, 0xbe, 0xc5, 0xf4, 0x08, 0xbe,
  0x3a, 0x29, 0x9d, 0xbe, 0x18, 0x2f, 0x4b, 0x3e, 0x5f, 0xcb, 0xbc, 0xbe,
  0xc0, 0x45, 0x45, 0x3d, 0x8e, 0x01, 0xd3, 0xbe, 0xe4, 0x48, 0x0b, 0xba,
  0x31, 0xf2, 0xd0, 0xbe, 0x2c, 0xfb, 0x4e, 0xbe, 0x67, 0xf9, 0x92, 0x3d,
  0x6b, 0xff, 0x6b, 0x3e, 0x69, 0x72, 0x20, 0xbc, 0xcf, 0xb7, 0x1e, 0xbf,
  0xb1, 0x57, 0x90, 0x3d, 0x22, 0x7a, 0x6e, 0x3e, 0x25, 0xce, 0x2c, 0x3c,
  0x9a, 0x0e, 0x5c, 0xbc, 0xf6, 0x2d, 0xbf, 0xb9, 0x51, 0x86, 0x04, 0x3f,
  0x8e, 0xaf, 0xba, 0xbc, 0xf9, 0x1f, 0xec, 0x3d, 0xdd, 0x47, 0x06, 0xbe,
  0xd0, 0x82, 0x3f, 0xbe, 0xff, 0x41, 0x4a, 0xbf, 0x5f, 0x3d, 0x4f, 0x3e,
  0x94, 0xa1, 0xa2, 0x3d, 0x9d, 0x99, 0x3c, 0x3e, 0x21, 0xd9, 0x83, 0xbe,
  0x80, 0x47, 0x17, 0xbf, 0x8f, 0xe4, 0xc8, 0x3e, 0xb4, 0xd0, 0x17, 0xbe,
  0xbb, 0x20, 0x53, 0x3c, 0x49, 0x68, 0x37, 0xbd, 0x78, 0x9d, 0xcd, 0x3e,
  0x44, 0xeb, 0x98, 0x3e, 0x13, 0x80, 0xc8, 0x3d, 0x48, 0xcf, 0xb6, 0xbd,
  0xd5, 0xae, 0x1c, 0xbe, 0x91, 0x39, 0xb3, 0xbd, 0xd2, 0xd8, 0xe4, 0xbe,
  0xba, 0xd2, 0x43, 0x3c, 0xdd, 0xb6, 0xca, 0x3d, 0x69, 0x2d, 0x8d, 0xbc,
  0x8f, 0xf2, 0x10, 0xbe, 0x2d, 0x13, 0x85, 0xbe, 0xf7, 0x62, 0xcb, 0x3e,
  0xba, 0x72, 0x07, 0x3c, 0xf8, 0x66, 0x9d, 0x3c, 0x51, 0x39, 0xb5, 0xbc,
  0xb9, 0x9d, 0xb4, 0x3e, 0xc6, 0x51, 0xbe, 0x3e, 0xe6, 0xcf, 0x88, 0x3e,
  0x13, 0xac, 0x3a, 0xbd, 0x26, 0x4c, 0xd2, 0x3d, 0x38, 0xac, 0x6c, 0xbe,
  0x31, 0x88, 0xfe, 0x3d, 0x6d, 0xe0, 0xb7, 0x3d, 0xa1, 0xc1, 0x9d, 0x3d,
  0xf0, 0x30, 0x86, 0xbd, 0x95, 0x44, 0x48, 0xbb, 0x9b, 0x55, 0x2c, 0x3d,
  0x89, 0xec, 0x5a, 0x3e, 0xb8, 0x9f, 0x85, 0x3c, 0x4d, 0x86, 0x04, 0x3c,
  0x2c, 0xf4, 0x50, 0xbd, 0xd6, 0x98, 0xff, 0x3e, 0x69, 0x6c, 0x58, 0x3d,
  0x2f, 0xaa, 0x73, 0x3d, 0x9c, 0x84, 0xa4, 0xbd, 0xce, 0xb1, 0x8d, 0xbd,
  0x6d, 0x14, 0x2c, 0xbe, 0x6b, 0x7b, 0xa3, 0xbe, 0xe4, 0x54, 0x28, 0x3d,
  0xcc, 0xba, 0x0d, 0x3e, 0xb1, 0x2a, 0x0a, 0xbd, 0xea, 0x82, 0x87, 0x3e,
  0x06, 0xb3, 0x74, 0xbd, 0xe2, 0xa6, 0xab, 0x3e, 0x11, 0x33, 0x00, 0xbe,
  0x6b, 0xa7, 0x97, 0xbc, 0x95, 0xe8, 0x89, 0xbd, 0xdb, 0x58, 0xb3, 0x3e,
  0x1d, 0x88, 0x6c, 0x3e, 0x90, 0x24, 0xca, 0xbb, 0x11, 0xf0, 0x00, 0xbd,
  0x06, 0x82, 0x64, 0xbe, 0x7a, 0xd7, 0x32, 0xbe, 0xbb, 0x84, 0xf5, 0xbe,
  0x69, 0xde, 0x28, 0x3e, 0xb5, 0xb7, 0xcc, 0xbc, 0x58, 0x06, 0xa7, 0x3d,
  0x78, 0xeb, 0x25, 0x3e, 0xcb, 0x78, 0x78, 0xbe, 0x1b, 0x43, 0x83, 0x3e,
  0xe1, 0x86, 0x59, 0xbe, 0xfb, 0x6a, 0xdc, 0xbc, 0x2d, 0x88, 0xbb, 0xbc,
  0xda, 0x5c, 0xf4, 0x3e, 0x1c, 0xdb, 0xb2, 0x3e, 0x84, 0xc0, 0x43, 0xbe,
  0x0a, 0xaf, 0x2d, 0xbc, 0xc6, 0xc5, 0x9d, 0xbe, 0xf4, 0xa0, 0x25, 0xbe,
  0x82, 0x96, 0xa7, 0xbe, 0xa4, 0xc6, 0xf3, 0x3d, 0x9f, 0x0a, 0xcd, 0xbd,
  0x99, 0xf4, 0x68, 0x3e, 0x1c, 0xca, 0x57, 0xbe, 0x08, 0x5c, 0xea, 0x3c,
  0x99, 0xe3, 0x20, 0x3d, 0x86, 0xfe, 0xab, 0xbe, 0x52, 0xfe, 0x63, 0x3c,
  0x74, 0xad, 0x69, 0x3e, 0x5c, 0x4e, 0x14, 0xbc, 0x17, 0xaf, 0xd0, 0x3e,
  0x85, 0xa6, 0x1a, 0xbd, 0x25, 0xa5, 0x86, 0xbe, 0x68, 0xb4, 0xf5, 0xbb,
  0x23, 0x1d, 0x02, 0xbe, 0x8c, 0xbd, 0x8d, 0xbe, 0x23, 0x89, 0x87, 0xbe,
  0x0a, 0xd5, 0xa8, 0xbd, 0x0c, 0xe5, 0xb3, 0xbd, 0x8c, 0x95, 0x14, 0x3e,
  0x86, 0xcc, 0xe0, 0xbd, 0xa3, 0xab, 0xe6, 0xbd, 0xe4, 0xf3, 0x2a, 0x3e,
  0xc5, 0xe7, 0x5e, 0xbc, 0x13, 0x2b, 0x15, 0xbe, 0x5b, 0xe1, 0x8c, 0x3d,
  0xf7, 0xd3, 0xc1, 0x3d, 0x6d, 0xd4, 0xf1, 0x3c, 0x20, 0x62, 0x72, 0xbe,
  0x98, 0x75, 0x07, 0xbe, 0xa0, 0xa8, 0x8f, 0x3d, 0xa9, 0xa2, 0x40, 0xbd,
  0x43, 0x10, 0xe1, 0xba, 0xe5, 0xb0, 0x96, 0xbe, 0x1d, 0x43, 0x86, 0xbe,
  0x5b, 0xdb, 0x09, 0x3e, 0xe4, 0xa9, 0x43, 0xbe, 0x18, 0xa8, 0xd9, 0xbd,
  0xb8, 0xdb, 0x5f, 0xbe, 0xac, 0x53, 0xb2, 0xbd, 0x9d, 0xdf, 0x27, 0xbd,
  0x1b, 0x9d, 0x33, 0xba, 0x4f, 0x0d, 0x4e, 0xbe, 0x0b, 0xd1, 0xdd, 0xbd,
  0x4d, 0x5d, 0x40, 0xbe, 0x6c, 0xdb, 0xf5, 0x3c, 0xcd, 0x09, 0xe3, 0xbd,
  0xcb, 0xbc, 0x4d, 0x3d, 0x84, 0xed, 0x2b, 0xbd, 0xe9, 0x8c, 0x00, 0xbe,
  0x96, 0x5e, 0xa9, 0xb8, 0xbe, 0x52, 0x0b, 0x3e, 0xe9, 0x20, 0x31, 0xbe,
  0xce, 0x15, 0x2d, 0x3d, 0x0f, 0x8c, 0x32, 0xbe, 0xe3, 0xa8, 0xa6, 0x3a,
  0x1e, 0xc6, 0x2d, 0x3e, 0xe6, 0x4a, 0x20, 0xbb, 0x56, 0x19, 0x21, 0xbe,
  0x4b, 0x91, 0x3e, 0xbe, 0xfc, 0xd2, 0x8f, 0xbd, 0x68, 0x19, 0x47, 0xbe,
  0x9c, 0xb8, 0xfe, 0xbd, 0x78, 0xa9, 0x83, 0xbc, 0xb8, 0x39, 0x5e, 0xbe,
  0x2f, 0xc4, 0x82, 0xbe, 0x03, 0x6e, 0x7e, 0x3d, 0xe8, 0xb8, 0xd3, 0xbd,
  0xd1, 0x23, 0xda, 0xbd, 0x68, 0xd5, 0x08, 0xbe, 0xd2, 0x0c, 0x9e, 0xbc,
  0x36, 0xb2, 0x10, 0x3d, 0xfd, 0x95, 0x83, 0x3c, 0x51, 0x05, 0x31, 0x3e,
  0x40, 0xc2, 0x30, 0x3e, 0x7e, 0x02, 0x6a, 0x3d, 0x01, 0xcf, 0x3c, 0x3d,
  0x6b, 0xc8, 0x75, 0xbc, 0xf5, 0x7e, 0x60, 0xbe, 0x0e, 0x15, 0x94, 0xbe,
  0xc5, 0xf6, 0xe6, 0xbd, 0x33, 0xac, 0x52, 0xbe, 0x78, 0xdd, 0x1d, 0xbe,
  0x98, 0x42, 0x9b, 0xba, 0x9b, 0x33, 0x1b, 0xbe, 0x25, 0x26, 0xbb, 0x3d,
  0x2e, 0x34, 0x51, 0xbe, 0xd0, 0x15, 0x23, 0xbd, 0xec, 0x22, 0xd0, 0xbd,
  0x84, 0xec, 0x01, 0xbe, 0x98, 0x1f, 0x42, 0xbe, 0x53, 0xe0, 0x7e, 0xbe,
  0x7b, 0x45, 0x61, 0xbe, 0x85, 0x18, 0x4b, 0xbd, 0x4b, 0x09, 0x2b, 0x3d,
  0x49, 0x8e, 0x63, 0xbe, 0xcd, 0xf0, 0x97, 0xbe, 0xaf, 0x5e, 0xfc, 0xbc,
  0xa9, 0x77, 0x47, 0xbd, 0x8e, 0xac, 0x9c, 0x3d, 0x94, 0xec, 0xdd, 0xbd,
  0x8e, 0xce, 0xad, 0x3a, 0xf1, 0x67, 0xf4, 0x3d, 0x34, 0xa4, 0x94, 0xbd,
  0x5b, 0xdd, 0xb5, 0x3d, 0x00, 0xc4, 0x11, 0xbd, 0x07, 0xd8, 0x2b, 0xbe,
  0xb8, 0x22, 0x92, 0x3d, 0xe9, 0xfb, 0x26, 0xbc, 0x1d, 0x91, 0x20, 0xbe,
  0x21, 0x64, 0x6b, 0xbe, 0x44, 0x75, 0x86, 0xbe, 0x42, 0xf3, 0xa0, 0x3a,
  0x8b, 0x7c, 0x38, 0xbe, 0xad, 0xfb, 0xbe, 0xbd, 0x4c, 0xdf, 0x72, 0xbe,
  0x85, 0xfc, 0xf8, 0xbd, 0xa3, 0x0b, 0x1a, 0x3e, 0xff, 0x31, 0x18, 0xbe,
  0xfb, 0x2d, 0xb2, 0xbd, 0xfd, 0x67, 0xc6, 0xbd, 0x2b, 0x46, 0x87, 0xbd,
  0x84, 0x34, 0x2f, 0xbe, 0x70, 0xcd, 0xc0, 0xbc, 0xab, 0x83, 0x15, 0xbe,
  0xa1, 0x3e, 0x99, 0xbd, 0x7e, 0xb9, 0x8d, 0x3a, 0x2a, 0x8f, 0x82, 0x3b,
  0xda, 0x5f, 0xfd, 0xbd, 0x8d, 0x22, 0xaf, 0xbd, 0x82, 0x2c, 0xf4, 0xbd,
  0xc5, 0x2a, 0x43, 0xbd, 0x9c, 0x24, 0x8c, 0x3c, 0x98, 0xb9, 0xc4, 0x3d,
  0x98, 0x42, 0x0f, 0xbc, 0xcc, 0x4c, 0x69, 0xbe, 0xff, 0x50, 0x4a, 0xbe,
  0xe0, 0x66, 0x5e, 0x3c, 0xdb, 0x5b, 0x6f, 0x3d, 0x20, 0x60, 0x47, 0x3e,
  0xbd, 0x84, 0xf4, 0x3c, 0x96, 0x47, 0x68, 0xbd, 0xf3, 0x11, 0x5f, 0xbe,
  0xe5, 0x33, 0x92, 0xbe, 0x07, 0x62, 0x3c, 0xbe, 0x15, 0xa0, 0x3c, 0xbe,
  0x82, 0x59, 0x81, 0x3d, 0x84, 0x1f, 0x32, 0xbe, 0xe2, 0xf6, 0x53, 0x3c,
  0x08, 0xc3, 0xf4, 0xbd, 0x59, 0x92, 0x0c, 0xbe, 0xc2, 0x20, 0x28, 0xbd,
  0xff, 0xab, 0x20, 0xbd, 0x46, 0xad, 0x5a, 0xbe, 0xc6, 0xce, 0x18, 0xbd,
  0x1b, 0x2f, 0x8e, 0x3d, 0xe2, 0x96, 0x01, 0xbe, 0x9e, 0xda, 0x2c, 0xbe,
  0xb8, 0xfe, 0x4c, 0xbe, 0x60, 0x5a, 0xce, 0xbc, 0xfa, 0x95, 0x59, 0xbe,
  0x1b, 0xe4, 0x56, 0xbe, 0x72, 0x00, 0x35, 0xbe, 0xc1, 0x6a, 0x6e, 0xbd,
  0xc2, 0x32, 0x10, 0xbe, 0xde, 0xd9, 0x50, 0x3c, 0xfc, 0xf5, 0xa8, 0xbd,
  0x2d, 0xb4, 0x42, 0xbe, 0xd4, 0x8f, 0x57, 0xbe, 0x37, 0x89, 0x06, 0xbd,
  0xe8, 0x2c, 0xd6, 0x3d, 0x99, 0x7d, 0x6f, 0xbe, 0x49, 0x6f, 0x2c, 0x3d,
  0xa2, 0x69, 0x3e, 0x3d, 0xde, 0xa9, 0x43, 0xbd, 0x35, 0x76, 0x0d, 0xbe,
  0xd1, 0x66, 0x0c, 0xba, 0x57, 0x04, 0x8f, 0xbe, 0xf2, 0x5a, 0xdb, 0xbd,
  0x76, 0xd2, 0xa2, 0x3d, 0xde, 0x6d, 0x92, 0xbe, 0xce, 0xad, 0x01, 0xbe,
  0x55, 0x75, 0x52, 0xbe, 0x56, 0xcb, 0x36, 0x3d, 0x2e, 0x3a, 0xdb, 0xbd,
  0x17, 0x8d, 0x47, 0x3d, 0x3e, 0x9a, 0xaa, 0xbd, 0xb3, 0x98, 0x4f, 0xbe,
  0xf3, 0xe8, 0x35, 0x3c, 0x22, 0x67, 0x67, 0xbd, 0x7f, 0xdd, 0x81, 0xbe,
  0xb3, 0x77, 0x4f, 0x3d, 0x14, 0xeb, 0xa0, 0xbe, 0x66, 0x52, 0x3a, 0xbd,
  0xd5, 0x64, 0xa0, 0xbd, 0xe6, 0x5f, 0x49, 0xbe, 0xcf, 0xaa, 0xf2, 0x3c,
  0xdd, 0xd8, 0x8c, 0xbd, 0xb5, 0xc2, 0xe9, 0xbc, 0x25, 0xf6, 0x1a, 0xbe,
  0xcb, 0x5d, 0x17, 0xbe, 0xbf, 0x21, 0x4f, 0x3e, 0x4c, 0xa6, 0xcc, 0xbd,
  0xa8, 0x85, 0xe3, 0x3d, 0xa1, 0xc7, 0xfa, 0xbc, 0xd8, 0xa3, 0x69, 0x3d,
  0x5a, 0x51, 0x66, 0xbe, 0x35, 0x3f, 0xd1, 0x3c, 0x1c, 0x61, 0x47, 0x3c,
  0x66, 0x34, 0xd8, 0x3c, 0xbb, 0x11, 0x9e, 0xbd, 0xa5, 0xae, 0x3f, 0xbe,
  0xb2, 0x97, 0x87, 0xbd, 0x6c, 0xf0, 0x0e, 0xbe, 0xaa, 0x14, 0x67, 0xbe,
  0x6e, 0xb7, 0xfe, 0x3c, 0x6f, 0x80, 0x57, 0xbe, 0xe3, 0x78, 0x89, 0xbd,
  0x61, 0x47, 0x0b, 0x3e, 0x7e, 0xf2, 0x2e, 0xbe, 0xe3, 0xe8, 0xe7, 0xbc,
  0xdb, 0x43, 0xea, 0xbd, 0xf9, 0x02, 0x80, 0xbe, 0x1b, 0xc2, 0xfd, 0xbd,
  0xfb, 0x88, 0x42, 0xbd, 0x7b, 0xdd, 0xa7, 0xbe, 0x31, 0x43, 0x4a, 0xbe,
  0xf8, 0xb8, 0x5c, 0xbe, 0xd1, 0x15, 0x6b, 0xbe, 0x15, 0x91, 0x09, 0x3e,
  0x2a, 0xbf, 0x25, 0xbe, 0xbd, 0x66, 0x19, 0xbe, 0x40, 0x0c, 0x95, 0xbe,
  0x30, 0xed, 0xb2, 0xbd, 0x95, 0xd7, 0x7e, 0xbe, 0x3b, 0x18, 0x2c, 0x3d,
  0x3c, 0x83, 0xc9, 0x3d, 0x9b, 0x97, 0xc4, 0xbd, 0x94, 0xf0, 0xe4, 0xbd,
  0x26, 0x5e, 0xbb, 0x3d, 0xdc, 0xfc, 0x49, 0xbd, 0xba, 0xdd, 0x04, 0xbe,
  0x36, 0xc7, 0x1d, 0x3e, 0x18, 0x77, 0xa6, 0x3e, 0x60, 0x0b, 0xa0, 0xbe,
  0x9e, 0x5b, 0x91, 0xbc, 0x53, 0x19, 0xfd, 0x3d, 0xd3, 0xf8, 0x12, 0xbe,
  0x17, 0xe2, 0x46, 0xbe, 0xd0, 0xf1, 0xfb, 0x3c, 0x74, 0x0c, 0xda, 0x3e,
  0x03, 0x56, 0xd8, 0xbd, 0x8d, 0x4f, 0x94, 0xbd, 0x5c, 0x19, 0x91, 0x3d,
  0x59, 0xe6, 0xfe, 0xbd, 0xf2, 0x77, 0xa3, 0xbe, 0x5f, 0xc8, 0x6f, 0xbe,
  0x0e, 0x40, 0x6c, 0xbe, 0xf6, 0x16, 0x63, 0xbd, 0x0e, 0x04, 0x9b, 0x3d,
  0x8e, 0x3e, 0xfa, 0xbe, 0x4c, 0x42, 0xf5, 0xbc, 0x69, 0x42, 0x82, 0xbe,
  0xda, 0x4f, 0xa1, 0xbc, 0x7e, 0x92, 0x0e, 0xbc, 0x17, 0xbc, 0x21, 0x3e,
  0x37, 0x1c, 0x88, 0x3e, 0xd0, 0xea, 0x1f, 0xbe, 0xa1, 0x89, 0x07, 0xbe,
  0xf1, 0xa0, 0xa9, 0x3d, 0x43, 0xf3, 0x0b, 0xbe, 0x70, 0xd7, 0xaf, 0xbc,
  0x27, 0xa6, 0xd6, 0x3d, 0x2c, 0x5f, 0x87, 0xbe, 0x7c, 0x19, 0x7d, 0x3d,
  0x50, 0xcc, 0x2b, 0x3d, 0xbc, 0xcb, 0x50, 0xbb, 0x28, 0x7d, 0x46, 0x3d,
  0x88, 0xee, 0xfa, 0xbd, 0x2e, 0x0c, 0x6c, 0xbe, 0x89, 0xcf, 0xae, 0xbd,
  0x92, 0x3a, 0xe4, 0x3c, 0x96, 0x7b, 0x54, 0xbd, 0xee, 0x6f, 0x98, 0x3c,
  0x3b, 0xdf, 0x4c, 0xbe, 0x25, 0x96, 0x97, 0x3e, 0xff, 0xc9, 0xa9, 0xbd,
  0x85, 0xf4, 0xb9, 0x3d, 0x88, 0x87, 0x0a, 0xbe, 0x40, 0x4f, 0xd6, 0xbe,
  0xf1, 0xc0, 0x22, 0xbe, 0x06, 0x65, 0xe9, 0x3d, 0xa9, 0x69, 0x40, 0xbe,
  0x3d, 0x9f, 0xbc, 0x3d, 0xde, 0xc8, 0x34, 0x3e, 0x4c, 0xbd, 0x34, 0xbe,
  0xc6, 0xef, 0x50, 0x3e, 0xa5, 0x9a, 0x17, 0x3e, 0xe1, 0xeb, 0x9c, 0x3e,
  0x5e, 0xbd, 0xff, 0x3c, 0x93, 0x19, 0xcb, 0xbd, 0xdf, 0xfd, 0x40, 0xbe,
  0xa8, 0x30, 0x9b, 0xba, 0x97, 0x08, 0x23, 0xbe, 0x09, 0x53, 0x5e, 0x3c,
  0x38, 0xa5, 0x23, 0xbe, 0xc8, 0x1c, 0x29, 0x3e, 0xf1, 0x45, 0x16, 0xbe,
  0xd8, 0xc4, 0x9e, 0x3c, 0x93, 0xd8, 0x44, 0xbe, 0xeb, 0xdc, 0xe9, 0x3d,
  0xa2, 0xea, 0x50, 0xbd, 0xc9, 0x63, 0x5a, 0xbb, 0x21, 0xbf, 0x30, 0xbd,
  0xf9, 0x0f, 0xaa, 0x3d, 0xcd, 0x15, 0xc7, 0xbd, 0x13, 0x11, 0x95, 0xbe,
  0x6f, 0x8b, 0xf4, 0x3d, 0x2a, 0x3f, 0x34, 0xbe, 0x95, 0x95, 0x2e, 0xbe,
  0xac, 0x75, 0x83, 0xbe, 0x37, 0x5a, 0x7a, 0xbe, 0xf9, 0x34, 0xea, 0x3c,
  0xd1, 0x2d, 0xa2, 0x3e, 0xfa, 0x85, 0x6b, 0xbd, 0xed, 0xd3, 0x0d, 0xbe,
  0xce, 0xe1, 0x68, 0xbd, 0xe5, 0x35, 0xc0, 0xbd, 0x3b, 0xe0, 0x84, 0xbc,
  0xbd, 0x54, 0x04, 0xbd, 0x36, 0xda, 0x3d, 0x3d, 0x26, 0x26, 0x30, 0x3e,
  0x1a, 0xaf, 0xa6, 0xbd, 0x9c, 0xda, 0x7a, 0xbd, 0x23, 0x92, 0x85, 0x3b,
  0xe8, 0x65, 0x6e, 0xbe, 0x13, 0x5a, 0x46, 0xbd, 0x9a, 0x58, 0x91, 0xbe,
  0xe9, 0x21, 0x0e, 0xbc, 0xd7, 0xf3, 0x4e, 0x3e, 0x3d, 0xba, 0x91, 0xbe,
  0x02, 0xc2, 0x91, 0x3e, 0x2d, 0x9b, 0x71, 0x3e, 0x35, 0x2e, 0x89, 0x3d,
  0x18, 0xab, 0x43, 0xbd, 0x60, 0x1a, 0x95, 0xbe, 0xdd, 0xd7, 0xa3, 0x3e,
  0x6e, 0xdc, 0x28, 0x3d, 0x4e, 0xb4, 0x8d, 0xbe, 0x5a, 0xb5, 0x5d, 0xbe,
  0xb3, 0x33, 0x32, 0xbe, 0x03, 0x13, 0xf5, 0xbd, 0xf7, 0x79, 0x0b, 0xbd,
  0x8a, 0x6b, 0x04, 0xbe, 0xdd, 0x42, 0x1d, 0xbd, 0x24, 0xd6, 0x0a, 0xbe,
  0x4a, 0x58, 0x3e, 0xbe, 0x59, 0x16, 0x0c, 0x3d, 0xfd, 0xdd, 0x20, 0x3e,
  0x9e, 0x64, 0x03, 0x3d, 0x84, 0xcf, 0x97, 0xbd, 0x7e, 0xc3, 0x31, 0xbe,
  0xf7, 0xf8, 0x2c, 0xbe, 0xf3, 0xbc, 0x40, 0x3e, 0xf9, 0x2d, 0x90, 0x3c,
  0xd4, 0x0a, 0xa1, 0xbc, 0x8b, 0xd3, 0x27, 0x3c, 0x47, 0x32, 0xd4, 0xbd,
  0xe3, 0x40, 0x4e, 0xbe, 0x4e, 0x43, 0xa2, 0x3c, 0xc9, 0xb4, 0x2c, 0xbe,
  0xdc, 0xe1, 0x10, 0x3d, 0x95, 0x41, 0xd0, 0xbe, 0x6a, 0x3f, 0x4c, 0x3d,
  0xcf, 0x49, 0x23, 0xbe, 0x10, 0xb2, 0x26, 0x3d, 0xe3, 0xd0, 0xa7, 0x3d,
  0x60, 0xcb, 0x50, 0xbe, 0xae, 0x70, 0x6f, 0xbd, 0x30, 0x8c, 0xe2, 0x3d,
  0x2f, 0x49, 0x21, 0xbe, 0x07, 0x9e, 0x17, 0xbd, 0x00, 0x39, 0x7d, 0x3d,
  0xe3, 0xfb, 0xee, 0xbd, 0x24, 0x4f, 0x84, 0xbd, 0x3e, 0x83, 0x15, 0xbd,
  0x72, 0xdd, 0x93, 0xbd, 0x83, 0xef, 0x0a, 0x3e, 0x46, 0x1f, 0x9b, 0xbd,
  0x65, 0xc3, 0x91, 0x3d, 0x99, 0x6b, 0xbe, 0xbd, 0xc3, 0xd5, 0xd2, 0xbd,
  0x16, 0xa4, 0x49, 0x3e, 0xa4, 0xaf, 0x29, 0x3e, 0x7d, 0x50, 0xa3, 0x3d,
  0x91, 0x3f, 0x0d, 0x3e, 0xab, 0x39, 0x79, 0xbd, 0x34, 0x05, 0x1f, 0xbe,
  0x0e, 0x67, 0xf2, 0xbd, 0xfe, 0xf5, 0x46, 0xbe, 0x57, 0x5d, 0x29, 0xbe,
  0x04, 0x7c, 0x3d, 0xbe, 0xe4, 0xd6, 0x3b, 0xbe, 0x31, 0x19, 0x54, 0xbd,
  0x3f, 0x69, 0x30, 0x3c, 0x1e, 0x7c, 0x8d, 0xbd, 0x87, 0xbe, 0x1e, 0xbe,
  0xa7, 0xba, 0xb4, 0x3d, 0xfe, 0xc4, 0x72, 0xbe, 0x3f, 0x9a, 0xc6, 0x3c,
  0x48, 0x6c, 0xa0, 0xbd, 0xe8, 0x7b, 0x5c, 0xbd, 0x15, 0xb3, 0xae, 0xbd,
  0xe4, 0xd4, 0x2b, 0x3d, 0xf4, 0x2f, 0x16, 0xbe, 0x2f, 0x8f, 0x9e, 0xbd,
  0xea, 0x04, 0xf6, 0xbd, 0x89, 0x21, 0x9a, 0xbe, 0x58, 0xac, 0x63, 0xbe,
  0x5a, 0xa2, 0xd0, 0xbd, 0x41, 0x29, 0xb1, 0x3a, 0x18, 0x87, 0x0b, 0xbe,
  0x5b, 0x26, 0xc5, 0x3c, 0xa8, 0xae, 0x3f, 0xbe, 0xba, 0x67, 0x53, 0xbe,
  0xe7, 0x51, 0x66, 0xbe, 0x7a, 0xc4, 0xb4, 0x3d, 0xa0, 0x2f, 0xce, 0xbd,
  0xbc, 0xe5, 0x4c, 0xba, 0xc9, 0x1a, 0x3a, 0xbe, 0xdf, 0x29, 0x2f, 0xbe,
  0xa4, 0x7b, 0xda, 0xbc, 0x7e, 0xa1, 0x31, 0xbe, 0x8b, 0xc9, 0xb9, 0x3c,
  0x71, 0x6b, 0x3b, 0xbe, 0x86, 0xd2, 0x4f, 0x3e, 0xef, 0xd8, 0xfb, 0xbd,
  0x51, 0x9e, 0x17, 0xbe, 0xc1, 0x18, 0xaf, 0xbc, 0x5e, 0x9b, 0x86, 0xbd,
  0xf9, 0xf9, 0x4e, 0xbe, 0xb0, 0xf6, 0xcd, 0xbd, 0x49, 0xc8, 0x2e, 0x3e,
  0x77, 0x78, 0x0d, 0x3e, 0xc6, 0x61, 0xbc, 0xbc, 0x54, 0x88, 0x47, 0xbe,
  0x13, 0xe2, 0x3b, 0x3e, 0x0b, 0x47, 0xdf, 0xbd, 0xa6, 0x4b, 0x80, 0x3d,
  0x85, 0x9e, 0x7d, 0xbe, 0xba, 0xda, 0x1d, 0xbe, 0xd2, 0xb0, 0x92, 0xbd,
  0x72, 0x99, 0x4a, 0xbe, 0x28, 0xb3, 0xee, 0x3d, 0x61, 0x1e, 0x47, 0x3e,
  0xbe, 0xe4, 0x94, 0xbd, 0x9c, 0x76, 0xb1, 0xbd, 0x43, 0xc5, 0x31, 0x3e,
  0x52, 0x34, 0x65, 0x3d, 0xd7, 0xcf, 0x01, 0xbf, 0x83, 0x90, 0x84, 0xbe,
  0x9f, 0xed, 0x2d, 0x3d, 0x3a, 0xd3, 0xe1, 0xbe, 0x34, 0x47, 0x0a, 0x3e,
  0x73, 0x2e, 0xbb, 0xbe, 0xd5, 0x1b, 0x1d, 0x3c, 0x6b, 0x4d, 0xae, 0x3b,
  0x27, 0xe5, 0x53, 0xbd, 0x32, 0x5c, 0xcc, 0x3d, 0x3e, 0x8d, 0x0a, 0x3d,
  0x73, 0x2b, 0x4a, 0xbe, 0xd5, 0x46, 0x09, 0xbf, 0x2d, 0xf9, 0xd6, 0xbe,
  0x5f, 0x32, 0xf4, 0xbe, 0xfb, 0x30, 0xd9, 0x3f, 0x7f, 0xac, 0x9d, 0x3d,
  0xf0, 0xc0, 0x27, 0xbe, 0x78, 0x0f, 0xc2, 0x3d, 0x3a, 0x3a, 0x92, 0x3e,
  0x3e, 0xa3, 0x2b, 0x3e, 0xb0, 0x4a, 0xf7, 0xbe, 0x63, 0xda, 0x7c, 0xbc,
  0x39, 0x2e, 0xf4, 0x3c, 0x08, 0xbc, 0x82, 0xbe, 0xec, 0x22, 0x4c, 0x3d,
  0x3c, 0x8c, 0x62, 0xbe, 0xee, 0x71, 0xef, 0x3b, 0x3f, 0xf7, 0xb7, 0xbe,
  0x37, 0x7e, 0x23, 0xbd, 0xfb, 0xf4, 0xb6, 0xbe, 0x1a, 0xa4, 0xe1, 0x3f,
  0x3a, 0x08, 0xb2, 0x3e, 0xed, 0x87, 0xa4, 0xbc, 0x27, 0x18, 0xc6, 0x3d,
  0x28, 0xbe, 0xae, 0x3f, 0xc0, 0x54, 0x8e, 0x3e, 0x95, 0x0d, 0x8a, 0xbd,
  0xe7, 0x8b, 0xae, 0x3c, 0x9e, 0x89, 0x12, 0x3d, 0x72, 0x38, 0x52, 0xbe,
  0xc4, 0xfe, 0xd0, 0xbd, 0x84, 0xe9, 0x01, 0xbe, 0x9f, 0x60, 0x78, 0x3e,
  0xf8, 0xb6, 0x82, 0xbe, 0xff, 0xbe, 0x27, 0x3e, 0xe0, 0x30, 0xec, 0xbe,
  0xfa, 0x3a, 0x88, 0x3f, 0x89, 0x0e, 0x83, 0x3e, 0xc2, 0xd4, 0xb9, 0x3d,
  0x30, 0x1e, 0x14, 0x3f, 0xf1, 0xa8, 0xc2, 0x3f, 0x6e, 0x80, 0xa9, 0x3e,
  0x85, 0x6d, 0xb8, 0xbd, 0x28, 0x08, 0x07, 0x3b, 0x26, 0xc9, 0xd6, 0xbd,
  0x94, 0x0e, 0xf4, 0x3d, 0x2c, 0x47, 0x26, 0x3e, 0x8c, 0x70, 0x09, 0xbd,
  0x6f, 0x6c, 0x1a, 0xbc, 0x8d, 0x13, 0x8d, 0xbe, 0xe2, 0x3d, 0x0f, 0xbe,
  0xb0, 0x64, 0x04, 0xbf, 0xf5, 0x62, 0x5b, 0x3f, 0x11, 0xbc, 0x48, 0xbe,
  0x76, 0x7c, 0x95, 0xbe, 0xc0, 0x61, 0x07, 0x3f, 0xe5, 0x14, 0x0d, 0x3e,
  0x4f, 0x3c, 0x5c, 0x3e, 0xbb, 0x30, 0x3b, 0xbe, 0x77, 0xa1, 0x8a, 0x3c,
  0x4f, 0xbf, 0x04, 0x3d, 0x60, 0xcf, 0x4c, 0xbe, 0x3d, 0xb2, 0x35, 0x3e,
  0x9b, 0xd9, 0x6e, 0xbe, 0xd9, 0x86, 0x64, 0xbe, 0xbc, 0x2d, 0x11, 0xbe,
  0xf0, 0xa2, 0x70, 0xbd, 0xb5, 0xba, 0x20, 0xbf, 0x7d, 0x95, 0xf3, 0x3e,
  0x4b, 0x73, 0x4a, 0xbe, 0xec, 0x7a, 0xa4, 0xbe, 0x1c, 0xed, 0x17, 0x3e,
  0x35, 0xd7, 0x02, 0xbe, 0x3c, 0xda, 0x9d, 0x3d, 0x4e, 0xb3, 0xe4, 0xbe,
  0xe3, 0x24, 0xc0, 0x3c, 0xab, 0xfc, 0x4b, 0x3d, 0xf4, 0xc6, 0xad, 0xbe,
  0x73, 0xb5, 0x5c, 0x3d, 0x40, 0xbb, 0x07, 0xbb, 0xf4, 0x3b, 0x24, 0x3c,
  0xef, 0x6e, 0xa8, 0xbe, 0x3c, 0x1d, 0xf7, 0xbe, 0x25, 0xeb, 0xd7, 0xbe,
  0xc6, 0x0f, 0xc2, 0x3f, 0xdd, 0xb3, 0x2d, 0xbd, 0x76, 0x91, 0x9d, 0xbe,
  0x6c, 0xcb, 0xa8, 0x3d, 0xff, 0x4d, 0xa6, 0xbe, 0xca, 0x61, 0xc8, 0x3d,
  0x80, 0xd3, 0xd1, 0xbc, 0x88, 0xe8, 0x00, 0x3d, 0x4d, 0x30, 0x5a, 0xbe,
  0x6f, 0x8d, 0x0a, 0xbe, 0x2e, 0x74, 0x02, 0xbc, 0xc3, 0xd6, 0xd7, 0xbd,
  0x47, 0xf1, 0x0e, 0xbe, 0xcf, 0x9c, 0xc1, 0xbd, 0x5a, 0x39, 0xa8, 0xbe,
  0x68, 0xe4, 0x21, 0xbe, 0xd0, 0x05, 0x58, 0x3e, 0x88, 0xc8, 0xed, 0xbc,
  0x0c, 0x1f, 0x3c, 0xbe, 0xbb, 0x54, 0xb2, 0xbe, 0x47, 0x0f, 0x0e, 0xbd,
  0xe1, 0xbf, 0xd7, 0xbd, 0x4b, 0xd7, 0x02, 0xbd, 0x3e, 0xe5, 0x2d, 0x3c,
  0x19, 0x51, 0x21, 0xbe, 0x74, 0xcd, 0x23, 0xbe, 0xc2, 0xfa, 0xb0, 0xbe,
  0x76, 0xd8, 0x37, 0x3d, 0xc0, 0xfc, 0x9e, 0xbe, 0x3b, 0x9b, 0x40, 0xbf,
  0x8c, 0x76, 0xf4, 0xbd, 0x62, 0xbe, 0x38, 0x3d, 0xd0, 0xe2, 0xfe, 0x3e,
  0xd7, 0xa4, 0xd1, 0x3d, 0xb2, 0x8e, 0xd8, 0xbd, 0xce, 0xcd, 0x2b, 0xbe,
  0xba, 0x62, 0x69, 0x3e, 0x9c, 0x20, 0x91, 0xbe, 0x1e, 0x0d, 0x90, 0xbd,
  0xaf, 0x94, 0xa0, 0xbc, 0xba, 0xc7, 0x1f, 0xbd, 0x99, 0xfb, 0xec, 0xbd,
  0xc2, 0x10, 0xd0, 0xbe, 0x0f, 0xe0, 0x5b, 0x3d, 0x22, 0x23, 0x87, 0xbd,
  0x00, 0xd9, 0x0c, 0xbf, 0xc2, 0x35, 0x16, 0x3e, 0x78, 0x77, 0x31, 0x3e,
  0x88, 0x53, 0x6a, 0x3e, 0xb4, 0x54, 0x7e, 0xbe, 0x10, 0x07, 0x92, 0x3d,
  0x45, 0xff, 0xb4, 0xbd, 0xe9, 0xa6, 0x50, 0x3f, 0xf3, 0xd6, 0xc2, 0xbe,
  0x54, 0xe7, 0x11, 0xbc, 0x93, 0x3d, 0xa4, 0xbc, 0x7e, 0x68, 0xb0, 0xbc,
  0xec, 0x56, 0xce, 0x3d, 0x3d, 0x19, 0xd2, 0xbe, 0x1e, 0x40, 0x2a, 0xbc,
  0x04, 0x2b, 0xa7, 0xbe, 0x14, 0x8a, 0x06, 0xbf, 0xdf, 0x47, 0xc5, 0xbd,
  0x52, 0xed, 0x34, 0x3d, 0x46, 0x2d, 0x75, 0x3e, 0x08, 0xa5, 0x0a, 0xbe,
  0xf7, 0x8d, 0xa2, 0xbd, 0x49, 0x75, 0x66, 0xbe, 0x35, 0x44, 0x2a, 0x3f,
  0xae, 0x6a, 0x8f, 0xbe, 0x43, 0x9b, 0xf9, 0xbd, 0x24, 0xcf, 0x89, 0xbd,
  0xe7, 0xe5, 0xd9, 0xbc, 0x8b, 0xec, 0x0c, 0x3d, 0xc1, 0x90, 0x08, 0xbf,
  0xbd, 0x91, 0x9c, 0xbd, 0x98, 0x6d, 0xa9, 0xbe, 0xdd, 0xba, 0x18, 0xbf,
  0x2b, 0xc8, 0x1f, 0x3e, 0x05, 0x14, 0x17, 0xbb, 0x48, 0x17, 0xbb, 0x3e,
  0x31, 0x76, 0xd4, 0x3d, 0xb7, 0xcb, 0x92, 0xbe, 0xfd, 0xbf, 0x07, 0xbf,
  0x2d, 0x77, 0xb9, 0x3e, 0x7f, 0x5d, 0xef, 0x3d, 0xf7, 0x52, 0xa2, 0xbd,
  0x7d, 0x23, 0xbd, 0xbd, 0x7c, 0xb9, 0x88, 0xbd, 0xe7, 0xab, 0x4e, 0xba,
  0x9e, 0x99, 0xde, 0xbe, 0x8c, 0x36, 0x00, 0x3e, 0x8b, 0x16, 0x45, 0x3e,
  0x06, 0x9f, 0x22, 0xbf, 0x88, 0x6f, 0x1a, 0x3e, 0x8e, 0xe3, 0x09, 0xbe,
  0x5f, 0xcf, 0x5a, 0x3e, 0x59, 0x39, 0xa4, 0x3e, 0xe3, 0xf3, 0x31, 0x3d,
  0xeb, 0x5d, 0xbf, 0x3d, 0xfa, 0x1a, 0xf3, 0x3e, 0x24, 0xad, 0x8c, 0xbd,
  0x14, 0x85, 0x11, 0xbd, 0x55, 0xd2, 0x8e, 0xbd, 0xb9, 0x43, 0x3a, 0xbe,
  0x66, 0x12, 0x2d, 0x3d, 0x64, 0x7f, 0xb5, 0xbe, 0x00, 0xc6, 0xb4, 0x3d,
  0xbf, 0x7e, 0x36, 0x3e, 0x8f, 0xbe, 0xd9, 0xbe, 0x30, 0x98, 0x94, 0x3e,
  0x7a, 0x33, 0xdd, 0x3d, 0x01, 0xdc, 0x48, 0x3e, 0x5d, 0xfe, 0x7e, 0x3d,
  0x22, 0xa4, 0xaf, 0x3d, 0xe7, 0x35, 0xe7, 0xbc, 0x7a, 0xe6, 0xb9, 0x3e,
  0x0e, 0x80, 0x12, 0xbd, 0x0a, 0x36, 0xb3, 0x3d, 0xae, 0xd6, 0xc5, 0x3d,
  0xb5, 0x69, 0x01, 0xbf, 0x88, 0xeb, 0xb1, 0x3d, 0xeb, 0x7c, 0x8f, 0xbc,
  0x6b, 0xd9, 0x82, 0x3d, 0x62, 0xba, 0xa0, 0x3e, 0x57, 0x07, 0x8d, 0xbe,
  0x0f, 0xb5, 0xd8, 0x3d, 0xad, 0xcc, 0x92, 0x3d, 0x2d, 0x84, 0xd0, 0xbc,
  0x67, 0x45, 0x9e, 0x3d, 0xc9, 0x83, 0x81, 0x3e, 0x62, 0xe1, 0x58, 0x3d,
  0x61, 0xe1, 0x8a, 0x3e, 0xb5, 0xc2, 0x08, 0xbd, 0x5b, 0xec, 0x7c, 0x3e,
  0x97, 0xfb, 0xa4, 0xbc, 0x85, 0x28, 0x76, 0xbd, 0x95, 0x6f, 0x1b, 0x3e,
  0x8a, 0x15, 0xd0, 0xbd, 0xce, 0x37, 0xcf, 0x3c, 0x8f, 0xb2, 0x81, 0x3e,
  0xbc, 0xa6, 0x43, 0xbe, 0x17, 0x6c, 0xe2, 0x3d, 0x9c, 0x43, 0xc1, 0x3d,
  0x07, 0x3e, 0x6d, 0x3f, 0xe7, 0xea, 0x2a, 0xbd, 0xcf, 0x38, 0xfc, 0xbd,
  0x64, 0x92, 0xf3, 0x3d, 0x17, 0x63, 0x21, 0x3f, 0xe2, 0x9f, 0x7d, 0xbd,
  0xaf, 0xd8, 0x90, 0xbd, 0xa0, 0xa0, 0x69, 0x3d, 0xc4, 0x48, 0xda, 0xbd,
  0xb7, 0xe5, 0x2c, 0xbe, 0xcc, 0x61, 0x80, 0x3d, 0x0d, 0xc5, 0x39, 0xbe,
  0x39, 0x5b, 0x06, 0x3e, 0x4c, 0xb4, 0xc0, 0xbd, 0x98, 0x6a, 0x17, 0x3e,
  0x46, 0xe2, 0x81, 0xbe, 0x7f, 0x24, 0x51, 0x3f, 0xc1, 0x63, 0x51, 0xbf,
  0xce, 0x84, 0x79, 0xbe, 0xf1, 0x17, 0x45, 0x3d, 0x36, 0xe6, 0x0a, 0x3f,
  0xc1, 0x54, 0x12, 0xbe, 0x89, 0xc9, 0x82, 0xbe, 0x46, 0x42, 0xe7, 0xbd,
  0xbc, 0x8e, 0xe9, 0xbd, 0xef, 0x45, 0x73, 0x3c, 0x4c, 0xa8, 0xab, 0x3d,
  0x6e, 0x3b, 0x0b, 0xbe, 0x0e, 0x5b, 0x0a, 0xbe, 0x09, 0x83, 0x42, 0xbe,
  0x79, 0xb5, 0xd0, 0xbd, 0x2f, 0x6e, 0xa2, 0xbe, 0xe2, 0xd9, 0x3f, 0x3f,
  0x09, 0x78, 0xd2, 0xbe, 0x45, 0x3e, 0x06, 0xbe, 0x2b, 0xc5, 0x15, 0xbf,
  0xfd, 0xd7, 0xa6, 0x3f, 0x68, 0xcc, 0xea, 0xbd, 0xbe, 0x35, 0x02, 0xbe,
  0x0d, 0x25, 0x54, 0xbe, 0x65, 0xf7, 0xd0, 0xbd, 0x49, 0x14, 0x1f, 0x3e,
  0x51, 0x41, 0xac, 0xbe, 0x05, 0x25, 0xbd, 0xbd, 0x92, 0xd2, 0x28, 0x3e,
  0x35, 0x88, 0xe6, 0xbd, 0x74, 0x04, 0x30, 0xbe, 0x54, 0x22, 0x8a, 0xbe,
  0x66, 0xb0, 0xed, 0x3e, 0x24, 0xc5, 0x16, 0x3e, 0x23, 0xda, 0x0e, 0xbe,
  0x0c, 0x84, 0xa6, 0xbe, 0xeb, 0xf2, 0x68, 0x3f, 0xa0, 0xbd, 0x62, 0x3d,
  0x2b, 0x87, 0x2c, 0xbe, 0xc8, 0xc6, 0xd5, 0xbd, 0xd2, 0x4e, 0x44, 0xbe,
  0x5e, 0x77, 0x5d, 0x3e, 0x1a, 0xbe, 0x03, 0xbe, 0x5b, 0x24, 0x1c, 0x3e,
  0xb3, 0xdd, 0xd7, 0x3e, 0xcd, 0xa7, 0xca, 0xbd, 0xd3, 0x92, 0xaa, 0x3d,
  0x67, 0xa4, 0x02, 0xbe, 0xc3, 0xb5, 0xe0, 0x3e, 0x52, 0xda, 0x24, 0x3e,
  0xa8, 0x25, 0xc4, 0x3d, 0x3e, 0x8b, 0x2c, 0x3d, 0x75, 0xd1, 0x5a, 0x3f,
  0x48, 0xfd, 0x3b, 0xbe, 0x52, 0xc7, 0x2e, 0xbe, 0xfb, 0x9a, 0xde, 0xbd,
  0xac, 0x0e, 0xae, 0xbe, 0x27, 0xd2, 0xd0, 0x3d, 0xff, 0xdb, 0x18, 0xbe,
  0x5f, 0x3a, 0x7f, 0xbd, 0x56, 0x50, 0xb3, 0x3c, 0x4d, 0xce, 0x47, 0xbe,
  0x9f, 0xc0, 0xf9, 0x3e, 0x08, 0x96, 0x55, 0x3e, 0x52, 0xfc, 0xd6, 0x3e,
  0x54, 0x8f, 0x4c, 0xbe, 0x02, 0xf3, 0x9c, 0xbd, 0xb0, 0x66, 0x5d, 0xbd,
  0x4e, 0x0a, 0x07, 0x3f, 0x74, 0xe8, 0xd1, 0xba, 0x3f, 0xfd, 0x92, 0xbe,
  0x88, 0x1f, 0x1d, 0xbc, 0x81, 0x0b, 0xfe, 0xbd, 0x85, 0xe4, 0x93, 0xbd,
  0x8d, 0x16, 0xaa, 0xbc, 0xa0, 0x7f, 0x12, 0xbe, 0x72, 0x29, 0xf4, 0xbd,
  0x8f, 0xab, 0x48, 0xbe, 0x89, 0x16, 0x89, 0x3d, 0xd3, 0xeb, 0x28, 0xbe,
  0x90, 0x57, 0xc1, 0x3d, 0xf6, 0xa5, 0x0b, 0x3e, 0x7c, 0xd6, 0x17, 0x3d,
  0xb6, 0x48, 0x4d, 0xbe, 0x37, 0x2e, 0x5b, 0xbe, 0xf7, 0x03, 0x9f, 0xbd,
  0xec, 0x1b, 0x14, 0xbe, 0x77, 0x28, 0x92, 0xbe, 0x26, 0xbb, 0xc0, 0xbd,
  0x01, 0xef, 0x20, 0xbe, 0xc5, 0x79, 0x78, 0xbc, 0x19, 0x93, 0x5c, 0xbc,
  0xd9, 0x1f, 0xca, 0xbd, 0x54, 0x35, 0x0d, 0xbe, 0x1f, 0x42, 0x31, 0x3e,
  0x1b, 0xe3, 0x15, 0xbe, 0xe1, 0xb5, 0xc8, 0xbd, 0x80, 0xd4, 0x84, 0x3d,
  0x94, 0xb5, 0xdc, 0xbd, 0x04, 0x02, 0x10, 0xbd, 0xfb, 0xf1, 0x41, 0xbe,
  0xc7, 0xef, 0x30, 0xbe, 0xe2, 0xfa, 0xab, 0xbd, 0xd7, 0xc0, 0x28, 0xbe,
  0x29, 0x28, 0x55, 0xbc, 0xd1, 0x90, 0x55, 0xbd, 0x1e, 0x4d, 0x13, 0xbe,
  0x50, 0xa2, 0xda, 0xbd, 0x5e, 0x6b, 0xf2, 0x3d, 0xbd, 0x4f, 0xd0, 0x3c,
  0xf6, 0x93, 0x19, 0xbe, 0xa0, 0x2e, 0xc7, 0x3d, 0xff, 0x5e, 0x17, 0x3e,
  0x78, 0x19, 0x4e, 0xbd, 0xfe, 0x5a, 0x61, 0xbe, 0x60, 0x93, 0xb7, 0x3d,
  0x40, 0x5c, 0xf1, 0x3d, 0x5a, 0xbc, 0x87, 0xbe, 0xac, 0x30, 0x5f, 0xbe,
  0xa2, 0x30, 0xfa, 0xbd, 0x17, 0x10, 0xf0, 0xbd, 0x1c, 0xd3, 0x2d, 0x3e,
  0xab, 0x06, 0xd8, 0xbd, 0x9c, 0xe3, 0xe0, 0xbd, 0xd1, 0x75, 0x21, 0xbe,
  0x9f, 0x89, 0xf9, 0x3c, 0xed, 0xec, 0x48, 0x3b, 0xb9, 0xf4, 0x9b, 0x3d,
  0xb9, 0x05, 0xac, 0xbd, 0x61, 0xd6, 0xf8, 0xbd, 0x6d, 0x6f, 0x93, 0xbd,
  0x0e, 0xed, 0x68, 0xbe, 0x1a, 0xe0, 0xda, 0xbd, 0x26, 0x2c, 0xe1, 0xbd,
  0x27, 0xb5, 0xee, 0xbd, 0xba, 0x66, 0x07, 0xbd, 0x20, 0x53, 0x34, 0xbe,
  0x4a, 0x00, 0x12, 0x3e, 0x4c, 0x01, 0x53, 0xbe, 0xb3, 0x08, 0x3d, 0xbe,
  0xf6, 0xc7, 0xf1, 0x3d, 0x03, 0x53, 0x68, 0xbe, 0xfd, 0x3a, 0x57, 0xbd,
  0x6c, 0x58, 0x3e, 0xbe, 0x39, 0x8f, 0xec, 0x3c, 0x00, 0x18, 0x51, 0xbe,
  0x0c, 0x5b, 0x8d, 0x3d, 0x6f, 0x4a, 0x48, 0xbd, 0xd5, 0x5d, 0x5f, 0xbd,
  0x1a, 0xea, 0x73, 0xbe, 0x49, 0xdc, 0x81, 0xbe, 0x86, 0xfa, 0x79, 0xbe,
  0xe8, 0x36, 0x81, 0xbb, 0xe9, 0xe2, 0xd8, 0xbd, 0x63, 0x6d, 0xcf, 0xbc,
  0x88, 0x95, 0xff, 0xbd, 0x75, 0x96, 0x71, 0xbe, 0x01, 0x6c, 0x49, 0xbe,
  0x36, 0xb1, 0x58, 0xbe, 0x46, 0x73, 0xb4, 0x3b, 0xab, 0x27, 0xed, 0x3d,
  0x1e, 0x11, 0x06, 0xbe, 0xa9, 0xd0, 0x0e, 0x3e, 0x8d, 0x52, 0x05, 0x3e,
  0x20, 0x1e, 0x70, 0xbe, 0x3e, 0x2f, 0x46, 0xbe, 0xa4, 0xd7, 0x0e, 0xbe,
  0x65, 0x72, 0x4b, 0xbe, 0xb6, 0x3c, 0x45, 0xbe, 0x01, 0x16, 0x42, 0x3b,
  0x85, 0xf9, 0x81, 0xbe, 0xf6, 0x3c, 0xd7, 0x3d, 0x34, 0xc8, 0x16, 0x3e,
  0x93, 0x5c, 0x9e, 0xbd, 0xb3, 0xee, 0x5c, 0x3d, 0x49, 0x0e, 0xe6, 0x3d,
  0x5f, 0xda, 0x14, 0xbe, 0xe0, 0x3b, 0xf3, 0xbd, 0xde, 0x8c, 0x57, 0x3d,
  0xfb, 0xe9, 0x6c, 0xbe, 0x2c, 0xb8, 0x1a, 0xbe, 0x0a, 0xcf, 0x38, 0xbe,
  0x18, 0xb7, 0xe0, 0x3d, 0xbe, 0x94, 0xa1, 0xbe, 0xfa, 0x80, 0x6a, 0xbd,
  0x3c, 0x53, 0x83, 0xbd, 0x45, 0x09, 0x85, 0xbd, 0x22, 0x29, 0x5f, 0xbe,
  0x58, 0xd2, 0x9c, 0xbd, 0xa7, 0x28, 0xdb, 0xbd, 0xa9, 0x2c, 0x0c, 0x3d,
  0x82, 0x0c, 0xf1, 0xbb, 0xae, 0x37, 0xb3, 0x3d, 0x58, 0x5c, 0xf7, 0xbc,
  0x0a, 0x24, 0x30, 0xbf, 0x8e, 0xad, 0x1c, 0xbe, 0x4c, 0xb6, 0xd7, 0xbe,
  0x97, 0xdb, 0xe1, 0x3c, 0xf8, 0x6b, 0x27, 0xbe, 0x76, 0x6a, 0xd5, 0xbd,
  0x39, 0x00, 0x1e, 0xbf, 0xf3, 0x35, 0xf2, 0xbe, 0xce, 0xd8, 0x90, 0x3d,
  0x19, 0x46, 0x19, 0xbd, 0x50, 0x1b, 0x66, 0xbe, 0x21, 0x8f, 0x3d, 0x3d,
  0xbb, 0xd9, 0x4f, 0xbe, 0x9c, 0x12, 0x90, 0x3b, 0x78, 0x97, 0xc1, 0xbd,
  0x71, 0x8d, 0xc4, 0xbe, 0x46, 0x2b, 0x6c, 0xbe, 0x33, 0x35, 0x83, 0xbe,
  0xf0, 0x27, 0x96, 0xbd, 0x58, 0x0a, 0x74, 0x3e, 0xf1, 0xb7, 0x85, 0x3d,
  0x67, 0x14, 0xd4, 0xbd, 0xc5, 0x43, 0xdd, 0xbe, 0x8a, 0x71, 0xad, 0x3e,
  0xbe, 0xfa, 0x74, 0x3d, 0x35, 0x80, 0xdf, 0xbd, 0x36, 0x49, 0x99, 0x3d,
  0xd3, 0x0d, 0xde, 0x3c, 0x9d, 0x47, 0xa4, 0x3d, 0xf9, 0xaf, 0xcf, 0x3c,
  0x47, 0x2a, 0xee, 0xbd, 0x23, 0xcc, 0x76, 0xbe, 0xb2, 0xa9, 0x7e, 0x3e,
  0x5b, 0xe9, 0xa8, 0xbd, 0x57, 0x51, 0x31, 0xbd, 0xe0, 0x81, 0x76, 0x3e,
  0xac, 0x9f, 0x8b, 0x3d, 0xd3, 0xc1, 0x27, 0xbe, 0x6f, 0xd8, 0xd3, 0x3d,
  0x72, 0xf8, 0x80, 0x3e, 0xb2, 0x08, 0x0b, 0x3e, 0xbd, 0x2c, 0xf8, 0x3d,
  0xe4, 0x05, 0x5d, 0xbd, 0xe4, 0x19, 0x2e, 0xbb, 0x76, 0x33, 0xa3, 0xbe,
  0xab, 0x5b, 0xdc, 0xbd, 0x3d, 0xdb, 0xcd, 0xbd, 0x51, 0xee, 0x81, 0xbe,
  0x65, 0x04, 0x1e, 0x3e, 0x81, 0x08, 0x88, 0xbe, 0x55, 0xa1, 0xf6, 0xbc,
  0x49, 0xe6, 0x10, 0xbf, 0xe2, 0xd9, 0x36, 0x3d, 0x88, 0x75, 0x44, 0xbe,
  0xae, 0x6e, 0x36, 0x3e, 0x6d, 0x70, 0x4b, 0xbe, 0x3e, 0xf5, 0x3b, 0xbe,
  0x3a, 0x10, 0x0c, 0x3e, 0x90, 0xf8, 0xf2, 0xbe, 0x10, 0x84, 0x93, 0xbc,
  0xf6, 0x2f, 0x8e, 0x3e, 0x36, 0xf7, 0x07, 0xbe, 0xda, 0x93, 0xa3, 0xbd,
  0x8d, 0x5b, 0xa7, 0x3d, 0x22, 0x37, 0xe3, 0x3d, 0xd4, 0xe1, 0xe1, 0xbe,
  0x1b, 0x2d, 0x1d, 0x3e, 0x62, 0xed, 0xff, 0xbe, 0x6f, 0xc4, 0x40, 0x3b,
  0x85, 0x43, 0x59, 0xbe, 0xa3, 0x42, 0x96, 0x3d, 0xb5, 0x60, 0x80, 0xbe,
  0xcc, 0xe7, 0x46, 0xbe, 0x1a, 0x00, 0x2b, 0x3d, 0x2c, 0x92, 0x91, 0x3e,
  0xe5, 0xae, 0xd4, 0xbc, 0x64, 0xcc, 0x73, 0x3e, 0x67, 0xf0, 0x6f, 0xbe,
  0x7a, 0x80, 0x89, 0xbe, 0x14, 0x8f, 0xa8, 0x3e, 0x35, 0x3e, 0xec, 0xbd,
  0x0d, 0xf4, 0x6b, 0xbe, 0x67, 0xc9, 0x82, 0x3e, 0x7d, 0xf6, 0x35, 0x3e,
  0xc1, 0x17, 0xa6, 0xbd, 0x21, 0x74, 0x2c, 0xbe, 0x52, 0x87, 0xd7, 0xbd,
  0xdb, 0x30, 0x2d, 0xbe, 0x10, 0xb8, 0x90, 0x3d, 0xe6, 0x88, 0x2a, 0xbd,
  0x38, 0x59, 0x40, 0x3e, 0x37, 0x4e, 0x01, 0x3e, 0xbc, 0x61, 0xbb, 0x3d,
  0x5e, 0xd4, 0x2c, 0xbd, 0xe1, 0x14, 0x92, 0xbe, 0xd1, 0xf9, 0x10, 0x3e,
  0xe2, 0x39, 0xcb, 0x3d, 0x20, 0xbf, 0xa1, 0x3d, 0x2b, 0xec, 0x98, 0x3e,
  0x3e, 0xed, 0x13, 0x3d, 0xbf, 0x38, 0xf2, 0x3c, 0xa6, 0x42, 0x23, 0x3e,
  0x56, 0xa3, 0x2c, 0xbd, 0x18, 0x95, 0xc5, 0x3e, 0x81, 0x25, 0x80, 0x3b,
  0x68, 0x28, 0x91, 0xbc, 0x6a, 0x71, 0xc8, 0x3e, 0x12, 0xdb, 0x80, 0x3c,
  0xf1, 0x87, 0x19, 0xbe, 0x75, 0x31, 0x1f, 0x3e, 0xab, 0x50, 0x4a, 0xbe,
  0x46, 0xfe, 0xff, 0xff, 0x10, 0x00, 0x00, 0x00, 0x05, 0x00, 0x00, 0x00,
  0x14, 0x00, 0x00, 0x00, 0x2c, 0x00, 0x00, 0x00, 0x02, 0x00, 0x00, 0x00,
  0x10, 0x00, 0x00, 0x00, 0x70, 0x00, 0x00, 0x00, 0x17, 0x00, 0x00, 0x00,
  0x73, 0x65, 0x71, 0x75, 0x65, 0x6e, 0x74, 0x69, 0x61, 0x6c, 0x2f, 0x64,
  0x65, 0x6e, 0x73, 0x65, 0x2f, 0x4d, 0x61, 0x74, 0x4d, 0x75, 0x6c, 0x00,
  0x34, 0xfe, 0xff, 0xff, 0x2a, 0xff, 0xff, 0xff, 0x04, 0x00, 0x00, 0x00,
  0x08, 0x00, 0x00, 0x00, 0xff, 0xff, 0xff, 0xff, 0x70, 0x00, 0x00, 0x00,
  0x00, 0x00, 0x0e, 0x00, 0x18, 0x00, 0x08, 0x00, 0x07, 0x00, 0x0c, 0x00,
  0x10, 0x00, 0x14, 0x00, 0x0e, 0x00, 0x00, 0x00, 0x00, 0x00, 0x00, 0x02,
  0x10, 0x00, 0x00, 0x00, 0x04, 0x00, 0x00, 0x00, 0x10, 0x00, 0x00, 0x00,
  0x2c, 0x00, 0x00, 0x00, 0x01, 0x00, 0x00, 0x00, 0x02, 0x00, 0x00, 0x00,
  0x18, 0x00, 0x00, 0x00, 0x73, 0x65, 0x71, 0x75, 0x65, 0x6e, 0x74, 0x69,
  0x61, 0x6c, 0x2f, 0x66, 0x6c, 0x61, 0x74, 0x74, 0x65, 0x6e, 0x2f, 0x43,
  0x6f, 0x6e, 0x73, 0x74, 0x00, 0x00, 0x00, 0x00, 0x9c, 0xfe, 0xff, 0xff,
  0x92, 0xff, 0xff, 0xff, 0x04, 0x00, 0x00, 0x00, 0x10, 0x00, 0x00, 0x00,
  0x86, 0x03, 0x82, 0xc0, 0x01, 0x6c, 0xd9, 0xc0, 0x7b, 0x51, 0x09, 0x40,
  0xfa, 0xad, 0x64, 0x3f, 0x0a, 0xff, 0xff, 0xff, 0x10, 0x00, 0x00, 0x00,
  0x03, 0x00, 0x00, 0x00, 0x10, 0x00, 0x00, 0x00, 0x3c, 0x00, 0x00, 0x00,
  0x01, 0x00, 0x00, 0x00, 0x04, 0x00, 0x00, 0x00, 0x29, 0x00, 0x00, 0x00,
  0x73, 0x65, 0x71, 0x75, 0x65, 0x6e, 0x74, 0x69, 0x61, 0x6c, 0x2f, 0x64,
  0x65, 0x6e, 0x73, 0x65, 0x5f, 0x31, 0x2f, 0x42, 0x69, 0x61, 0x73, 0x41,
  0x64, 0x64, 0x2f, 0x52, 0x65, 0x61, 0x64, 0x56, 0x61, 0x72, 0x69, 0x61,
  0x62, 0x6c, 0x65, 0x4f, 0x70, 0x00, 0x00, 0x00, 0x60, 0xff, 0xff, 0xff,
  0x00, 0x00, 0x06, 0x00, 0x08, 0x00, 0x04, 0x00, 0x06, 0x00, 0x00, 0x00,
  0x04, 0x00, 0x00, 0x00, 0x40, 0x00, 0x00, 0x00, 0xb3, 0xd4, 0xc7, 0x3f,
  0x44, 0x72, 0x31, 0x3f, 0xc9, 0x2d, 0x23, 0x3f, 0x02, 0x01, 0xc7, 0x3c,
  0xd8, 0x47, 0x0f, 0x40, 0x58, 0x12, 0x75, 0xbf, 0xd0, 0x63, 0xd2, 0x3f,
  0x0b, 0x7c, 0x80, 0xbe, 0x61, 0xef, 0x49, 0xbe, 0xd4, 0xe7, 0x01, 0xbf,
  0x74, 0xb4, 0x54, 0xbe, 0xa2, 0xaf, 0xca, 0x3d, 0xd7, 0x26, 0x26, 0xbf,
  0x13, 0xde, 0x17, 0x3f, 0xcc, 0xbb, 0x9b, 0xbe, 0xdc, 0x56, 0x1c, 0xbf,
  0xae, 0xff, 0xff, 0xff, 0x10, 0x00, 0x00, 0x00, 0x02, 0x00, 0x00, 0x00,
  0x10, 0x00, 0x00, 0x00, 0x3c, 0x00, 0x00, 0x00, 0x01, 0x00, 0x00, 0x00,
  0x10, 0x00, 0x00, 0x00, 0x27, 0x00, 0x00, 0x00, 0x73, 0x65, 0x71, 0x75,
  0x65, 0x6e, 0x74, 0x69, 0x61, 0x6c, 0x2f, 0x64, 0x65, 0x6e, 0x73, 0x65,
  0x2f, 0x42, 0x69, 0x61, 0x73, 0x41, 0x64, 0x64, 0x2f, 0x52, 0x65, 0x61,
  0x64, 0x56, 0x61, 0x72, 0x69, 0x61, 0x62, 0x6c, 0x65, 0x4f, 0x70, 0x00,
  0x04, 0x00, 0x06, 0x00, 0x04, 0x00, 0x00, 0x00, 0x00, 0x00, 0x0e, 0x00,
  0x14, 0x00, 0x04, 0x00, 0x00, 0x00, 0x08, 0x00, 0x0c, 0x00, 0x10, 0x00,
  0x0e, 0x00, 0x00, 0x00, 0x10, 0x00, 0x00, 0x00, 0x01, 0x00, 0x00, 0x00,
  0x1c, 0x00, 0x00, 0x00, 0x2c, 0x00, 0x00, 0x00, 0x04, 0x00, 0x00, 0x00,
  0x01, 0x00, 0x00, 0x00, 0x40, 0x00, 0x00, 0x00, 0x03, 0x00, 0x00, 0x00,
  0x01, 0x00, 0x00, 0x00, 0x0c, 0x00, 0x00, 0x00, 0x63, 0x6f, 0x6e, 0x76,
  0x32, 0x64, 0x5f, 0x69, 0x6e, 0x70, 0x75, 0x74, 0x00, 0x00, 0x00, 0x00,
  0xfc, 0xff, 0xff, 0xff, 0x04, 0x00, 0x04, 0x00, 0x04, 0x00, 0x00, 0x00
};


unsigned int model_tflite_len = 12384;// Fill the int in `src/model.cc` here