#include "magic_wand_model_data.h"


// We need to keep the data array aligned on some architectures.

#ifdef __has_attribute

#define HAVE_ATTRIBUTE(x) __has_attribute(x)

#else

#define HAVE_ATTRIBUTE(x) 0

#endif

#if HAVE_ATTRIBUTE(aligned) || (defined(__GNUC__) && !defined(__clang__))

#define DATA_ALIGN_ATTRIBUTE __attribute__((aligned(4)))

#else

#define DATA_ALIGN_ATTRIBUTE

#endif


const unsigned char g_magic_wand_model_data[] DATA_ALIGN_ATTRIBUTE = {

  // Paste the data of the char array in `src/model.cc` here
  0x08, 0x00, 0x00, 0x00, 0x54, 0x46, 0x4c, 0x33, 0x62, 0xff, 0xff, 0xff,
  0x03, 0x00, 0x00, 0x00, 0x10, 0x00, 0x00, 0x00, 0x24, 0x00, 0x00, 0x00,
  0x78, 0x00, 0x00, 0x00, 0x24, 0x00, 0x00, 0x00, 0x05, 0x00, 0x00, 0x00,
  0x78, 0x05, 0x00, 0x00, 0xb0, 0x04, 0x00, 0x00, 0xe0, 0x02, 0x00, 0x00,
  0x60, 0x02, 0x00, 0x00, 0x54, 0x01, 0x00, 0x00, 0x01, 0x00, 0x00, 0x00,
  0x78, 0x00, 0x00, 0x00, 0x13, 0x00, 0x00, 0x00, 0x18, 0x30, 0x00, 0x00,
  0x14, 0x30, 0x00, 0x00, 0x20, 0x2f, 0x00, 0x00, 0xa8, 0x2e, 0x00, 0x00,
  0x3c, 0x2e, 0x00, 0x00, 0xec, 0x11, 0x00, 0x00, 0x98, 0x10, 0x00, 0x00,
  0xbc, 0x0e, 0x00, 0x00, 0x60, 0x06, 0x00, 0x00, 0xfc, 0x05, 0x00, 0x00,
  0x78, 0x05, 0x00, 0x00, 0xec, 0x2f, 0x00, 0x00, 0xe8, 0x2f, 0x00, 0x00,
  0xe4, 0x2f, 0x00, 0x00, 0xe0, 0x2f, 0x00, 0x00, 0xdc, 0x2f, 0x00, 0x00,
  0xd8, 0x2f, 0x00, 0x00, 0xd4, 0x2f, 0x00, 0x00, 0xd0, 0x2f, 0x00, 0x00,
  0x0f, 0x00, 0x00, 0x00, 0x4d, 0x4c, 0x49, 0x52, 0x20, 0x43, 0x6f, 0x6e,
  0x76, 0x65, 0x72, 0x74, 0x65, 0x64, 0x2e, 0x00, 0x00, 0x00, 0x0e, 0x00,
  0x18, 0x00, 0x04, 0x00, 0x08, 0x00, 0x0c, 0x00, 0x10, 0x00, 0x14, 0x00,
  0x0e, 0x00, 0x00, 0x00, 0x14, 0x00, 0x00, 0x00, 0x5c, 0x00, 0x00, 0x00,
  0x60, 0x00, 0x00, 0x00, 0x64, 0x00, 0x00, 0x00, 0x84, 0x00, 0x00, 0x00,
  0x12, 0x00, 0x00, 0x00, 0x48, 0x2f, 0x00, 0x00, 0xe4, 0x2e, 0x00, 0x00,
  0x3c, 0x2e, 0x00, 0x00, 0xd8, 0x2d, 0x00, 0x00, 0x70, 0x2d, 0x00, 0x00,
  0x1c, 0x11, 0x00, 0x00, 0xc0, 0x0f, 0x00, 0x00, 0xe4, 0x0d, 0x00, 0x00,
  0xa0, 0x05, 0x00, 0x00, 0x3c, 0x05, 0x00, 0x00, 0xb0, 0x04, 0x00, 0x00,
  0xe8, 0x03, 0x00, 0x00, 0x38, 0x03, 0x00, 0x00, 0xa4, 0x02, 0x00, 0x00,
  0x10, 0x02, 0x00, 0x00, 0x90, 0x01, 0x00, 0x00, 0xfc, 0x00, 0x00, 0x00,
  0x80, 0x00, 0x00, 0x00, 0x01, 0x00, 0x00, 0x00, 0x00, 0x00, 0x00, 0x00,
  0x01, 0x00, 0x00, 0x00, 0x11, 0x00, 0x00, 0x00, 0x08, 0x00, 0x00, 0x00,
  0x1c, 0x04, 0x00, 0x00, 0x58, 0x03, 0x00, 0x00, 0xc8, 0x02, 0x00, 0x00,
  0x24, 0x02, 0x00, 0x00, 0xac, 0x01, 0x00, 0x00, 0x10, 0x01, 0x00, 0x00,
  0x94, 0x00, 0x00, 0x00, 0x10, 0x00, 0x00, 0x00, 0x04, 0x00, 0x00, 0x00,
  0x6d, 0x61, 0x69, 0x6e, 0x00, 0x00, 0x00, 0x00, 0x8e, 0xff, 0xff, 0xff,
  0x00, 0x00, 0x00, 0x09, 0x04, 0x00, 0x00, 0x00, 0x1c, 0x00, 0x00, 0x00,
  0x10, 0x00, 0x00, 0x00, 0x04, 0x00, 0x00, 0x00, 0x0a, 0xd2, 0xff, 0xff,
  0x00, 0x00, 0x80, 0x3f, 0x01, 0x00, 0x00, 0x00, 0x11, 0x00, 0x00, 0x00,
  0x01, 0x00, 0x00, 0x00, 0x10, 0x00, 0x00, 0x00, 0xf6, 0xfb, 0xff, 0xff,
  0x00, 0x00, 0x00, 0x19, 0x01, 0x00, 0x00, 0x00, 0x8a, 0xd1, 0xff, 0xff,
  0x10, 0x00, 0x00, 0x00, 0x12, 0x00, 0x00, 0x00, 0x14, 0x00, 0x00, 0x00,
  0x20, 0x00, 0x00, 0x00, 0x02, 0x00, 0x00, 0x00, 0x01, 0x00, 0x00, 0x00,
  0x04, 0x00, 0x00, 0x00, 0x08, 0x00, 0x00, 0x00, 0x49, 0x64, 0x65, 0x6e,
  0x74, 0x69, 0x74, 0x79, 0x00, 0x00, 0x00, 0x00, 0xc4, 0xd1, 0xff, 0xff,
  0x00, 0x00, 0x0e, 0x00, 0x18, 0x00, 0x08, 0x00, 0x0c, 0x00, 0x10, 0x00,
  0x07, 0x00, 0x14, 0x00, 0x0e, 0x00, 0x00, 0x00, 0x00, 0x00, 0x00, 0x08,
  0x03, 0x00, 0x00, 0x00, 0x18, 0x00, 0x00, 0x00, 0x0c, 0x00, 0x00, 0x00,
  0x04, 0x00, 0x00, 0x00, 0x98, 0xd1, 0xff, 0xff, 0x01, 0x00, 0x00, 0x00,
  0x10, 0x00, 0x00, 0x00, 0x03, 0x00, 0x00, 0x00, 0x0f, 0x00, 0x00, 0x00,
  0x05, 0x00, 0x00, 0x00, 0x02, 0x00, 0x00, 0x00, 0x02, 0xd2, 0xff, 0xff,
  0x10, 0x00, 0x00, 0x00, 0x11, 0x00, 0x00, 0x00, 0x14, 0x00, 0x00, 0x00,
  0x30, 0x00, 0x00, 0x00, 0x02, 0x00, 0x00, 0x00, 0x01, 0x00, 0x00, 0x00,
  0x04, 0x00, 0x00, 0x00, 0x1a, 0x00, 0x00, 0x00, 0x73, 0x65, 0x71, 0x75,
  0x65, 0x6e, 0x74, 0x69, 0x61, 0x6c, 0x2f, 0x64, 0x65, 0x6e, 0x73, 0x65,
  0x5f, 0x31, 0x2f, 0x42, 0x69, 0x61, 0x73, 0x41, 0x64, 0x64, 0x00, 0x00,
  0xf4, 0xd1, 0xff, 0xff, 0xd6, 0xfd, 0xff, 0xff, 0x00, 0x00, 0x00, 0x08,
  0x03, 0x00, 0x00, 0x00, 0x24, 0x00, 0x00, 0x00, 0x18, 0x00, 0x00, 0x00,
  0x0c, 0x00, 0x00, 0x00, 0x00, 0x00, 0x06, 0x00, 0x08, 0x00, 0x07, 0x00,
  0x06, 0x00, 0x00, 0x00, 0x00, 0x00, 0x00, 0x01, 0x01, 0x00, 0x00, 0x00,
  0x0f, 0x00, 0x00, 0x00, 0x03, 0x00, 0x00, 0x00, 0x0e, 0x00, 0x00, 0x00,
  0x04, 0x00, 0x00, 0x00, 0x01, 0x00, 0x00, 0x00, 0xfe, 0xfc, 0xff, 0xff,
  0x00, 0x00, 0x00, 0x09, 0x01, 0x00, 0x00, 0x00, 0x92, 0xd2, 0xff, 0xff,
  0x10, 0x00, 0x00, 0x00, 0x10, 0x00, 0x00, 0x00, 0x14, 0x00, 0x00, 0x00,
  0x2c, 0x00, 0x00, 0x00, 0x02, 0x00, 0x00, 0x00, 0x01, 0x00, 0x00, 0x00,
  0x10, 0x00, 0x00, 0x00, 0x15, 0x00, 0x00, 0x00, 0x73, 0x65, 0x71, 0x75,
  0x65, 0x6e, 0x74, 0x69, 0x61, 0x6c, 0x2f, 0x64, 0x65, 0x6e, 0x73, 0x65,
  0x2f, 0x52, 0x65, 0x6c, 0x75, 0x00, 0x00, 0x00, 0xd8, 0xd2, 0xff, 0xff,
  0x00, 0x00, 0x0a, 0x00, 0x10, 0x00, 0x04, 0x00, 0x08, 0x00, 0x0c, 0x00,
  0x0a, 0x00, 0x00, 0x00, 0x02, 0x00, 0x00, 0x00, 0x10, 0x00, 0x00, 0x00,
  0x04, 0x00, 0x00, 0x00, 0x01, 0x00, 0x00, 0x00, 0x0e, 0x00, 0x00, 0x00,
  0x02, 0x00, 0x00, 0x00, 0x0d, 0x00, 0x00, 0x00, 0x03, 0x00, 0x00, 0x00,
  0x7a, 0xfd, 0xff, 0xff, 0x00, 0x00, 0x00, 0x16, 0x01, 0x00, 0x00, 0x00,
  0x0e, 0xd3, 0xff, 0xff, 0x10, 0x00, 0x00, 0x00, 0x0f, 0x00, 0x00, 0x00,
  0x14, 0x00, 0x00, 0x00, 0x30, 0x00, 0x00, 0x00, 0x02, 0x00, 0x00, 0x00,
  0x01, 0x00, 0x00, 0x00, 0x70, 0x00, 0x00, 0x00, 0x1a, 0x00, 0x00, 0x00,
  0x73, 0x65, 0x71, 0x75, 0x65, 0x6e, 0x74, 0x69, 0x61, 0x6c, 0x2f, 0x66,
  0x6c, 0x61, 0x74, 0x74, 0x65, 0x6e, 0x2f, 0x52, 0x65, 0x73, 0x68, 0x61,
  0x70, 0x65, 0x00, 0x00, 0x00, 0xd3, 0xff, 0xff, 0xe2, 0xfe, 0xff, 0xff,
  0x00, 0x00, 0x00, 0x05, 0x01, 0x00, 0x00, 0x00, 0x38, 0x00, 0x00, 0x00,
  0x2c, 0x00, 0x00, 0x00, 0x14, 0x00, 0x00, 0x00, 0x00, 0x00, 0x0e, 0x00,
  0x14, 0x00, 0x00, 0x00, 0x10, 0x00, 0x0c, 0x00, 0x08, 0x00, 0x04, 0x00,
  0x0e, 0x00, 0x00, 0x00, 0x03, 0x00, 0x00, 0x00, 0x01, 0x00, 0x00, 0x00,
  0x03, 0x00, 0x00, 0x00, 0x01, 0x00, 0x00, 0x00, 0x01, 0x00, 0x00, 0x00,
  0x0d, 0x00, 0x00, 0x00, 0x01, 0x00, 0x00, 0x00, 0x0c, 0x00, 0x00, 0x00,
  0x9e, 0xd3, 0xff, 0xff, 0x10, 0x00, 0x00, 0x00, 0x0e, 0x00, 0x00, 0x00,
  0x1c, 0x00, 0x00, 0x00, 0x40, 0x00, 0x00, 0x00, 0x04, 0x00, 0x00, 0x00,
  0x01, 0x00, 0x00, 0x00, 0x07, 0x00, 0x00, 0x00, 0x01, 0x00, 0x00, 0x00,
  0x10, 0x00, 0x00, 0x00, 0x22, 0x00, 0x00, 0x00, 0x73, 0x65, 0x71, 0x75,
  0x65, 0x6e, 0x74, 0x69, 0x61, 0x6c, 0x2f, 0x6d, 0x61, 0x78, 0x5f, 0x70,
  0x6f, 0x6f, 0x6c, 0x69, 0x6e, 0x67, 0x32, 0x64, 0x5f, 0x31, 0x2f, 0x4d,
  0x61, 0x78, 0x50, 0x6f, 0x6f, 0x6c, 0x00, 0x00, 0xa0, 0xd3, 0xff, 0xff,
  0xc2, 0xfe, 0xff, 0xff, 0x00, 0x00, 0x00, 0x01, 0x24, 0x00, 0x00, 0x00,
  0x18, 0x00, 0x00, 0x00, 0x04, 0x00, 0x00, 0x00, 0xb4, 0xfe, 0xff, 0xff,
  0x01, 0x00, 0x00, 0x00, 0x01, 0x00, 0x00, 0x00, 0x00, 0x00, 0x00, 0x01,
  0x01, 0x00, 0x00, 0x00, 0x0c, 0x00, 0x00, 0x00, 0x03, 0x00, 0x00, 0x00,
  0x0b, 0x00, 0x00, 0x00, 0x07, 0x00, 0x00, 0x00, 0x09, 0x00, 0x00, 0x00,
  0x2e, 0xd4, 0xff, 0xff, 0x10, 0x00, 0x00, 0x00, 0x0d, 0x00, 0x00, 0x00,
  0x1c, 0x00, 0x00, 0x00, 0x2c, 0x00, 0x00, 0x00, 0x04, 0x00, 0x00, 0x00,
  0x01, 0x00, 0x00, 0x00, 0x15, 0x00, 0x00, 0x00, 0x01, 0x00, 0x00, 0x00,
  0x10, 0x00, 0x00, 0x00, 0x0c, 0x00, 0x00, 0x00, 0x74, 0x66, 0x6c, 0x2e,
  0x63, 0x6f, 0x6e, 0x76, 0x5f, 0x32, 0x64, 0x31, 0x00, 0x00, 0x00, 0x00,
  0x74, 0xd4, 0xff, 0xff, 0x00, 0x00, 0x0e, 0x00, 0x1a, 0x00, 0x08, 0x00,
  0x0c, 0x00, 0x10, 0x00, 0x07, 0x00, 0x14, 0x00, 0x0e, 0x00, 0x00, 0x00,
  0x00, 0x00, 0x00, 0x05, 0x01, 0x00, 0x00, 0x00, 0x3c, 0x00, 0x00, 0x00,
  0x30, 0x00, 0x00, 0x00, 0x14, 0x00, 0x00, 0x00, 0x00, 0x00, 0x0e, 0x00,
  0x18, 0x00, 0x17, 0x00, 0x10, 0x00, 0x0c, 0x00, 0x08, 0x00, 0x04, 0x00,
  0x0e, 0x00, 0x00, 0x00, 0x03, 0x00, 0x00, 0x00, 0x03, 0x00, 0x00, 0x00,
  0x03, 0x00, 0x00, 0x00, 0x03, 0x00, 0x00, 0x00, 0x00, 0x00, 0x00, 0x01,
  0x01, 0x00, 0x00, 0x00, 0x0b, 0x00, 0x00, 0x00, 0x01, 0x00, 0x00, 0x00,
  0x0a, 0x00, 0x00, 0x00, 0x46, 0xff, 0xff, 0xff, 0x00, 0x00, 0x00, 0x11,
  0x01, 0x00, 0x00, 0x00, 0xda, 0xd4, 0xff, 0xff, 0x10, 0x00, 0x00, 0x00,
  0x0c, 0x00, 0x00, 0x00, 0x1c, 0x00, 0x00, 0x00, 0x40, 0x00, 0x00, 0x00,
  0x04, 0x00, 0x00, 0x00, 0x01, 0x00, 0x00, 0x00, 0x15, 0x00, 0x00, 0x00,
  0x01, 0x00, 0x00, 0x00, 0x08, 0x00, 0x00, 0x00, 0x20, 0x00, 0x00, 0x00,
  0x73, 0x65, 0x71, 0x75, 0x65, 0x6e, 0x74, 0x69, 0x61, 0x6c, 0x2f, 0x6d,
  0x61, 0x78, 0x5f, 0x70, 0x6f, 0x6f, 0x6c, 0x69, 0x6e, 0x67, 0x32, 0x64,
  0x2f, 0x4d, 0x61, 0x78, 0x50, 0x6f, 0x6f, 0x6c, 0x00, 0x00, 0x00, 0x00,
  0x34, 0xd5, 0xff, 0xff, 0x00, 0x00, 0x0e, 0x00, 0x14, 0x00, 0x00, 0x00,
  0x08, 0x00, 0x0c, 0x00, 0x07, 0x00, 0x10, 0x00, 0x0e, 0x00, 0x00, 0x00,
  0x00, 0x00, 0x00, 0x01, 0x30, 0x00, 0x00, 0x00, 0x24, 0x00, 0x00, 0x00,
  0x10, 0x00, 0x00, 0x00, 0x0c, 0x00, 0x10, 0x00, 0x00, 0x00, 0x04, 0x00,
  0x08, 0x00, 0x0f, 0x00, 0x0c, 0x00, 0x00, 0x00, 0x01, 0x00, 0x00, 0x00,
  0x01, 0x00, 0x00, 0x00, 0x00, 0x00, 0x00, 0x01, 0x01, 0x00, 0x00, 0x00,
  0x0a, 0x00, 0x00, 0x00, 0x03, 0x00, 0x00, 0x00, 0x00, 0x00, 0x00, 0x00,
  0x06, 0x00, 0x00, 0x00, 0x08, 0x00, 0x00, 0x00, 0x00, 0x00, 0x0a, 0x00,
  0x0c, 0x00, 0x07, 0x00, 0x00, 0x00, 0x08, 0x00, 0x0a, 0x00, 0x00, 0x00,
  0x00, 0x00, 0x00, 0x03, 0x01, 0x00, 0x00, 0x00, 0x9e, 0xd5, 0xff, 0xff,
  0x10, 0x00, 0x00, 0x00, 0x0b, 0x00, 0x00, 0x00, 0x1c, 0x00, 0x00, 0x00,
  0x28, 0x00, 0x00, 0x00, 0x04, 0x00, 0x00, 0x00, 0x01, 0x00, 0x00, 0x00,
  0x40, 0x00, 0x00, 0x00, 0x03, 0x00, 0x00, 0x00, 0x08, 0x00, 0x00, 0x00,
  0x0b, 0x00, 0x00, 0x00, 0x74, 0x66, 0x6c, 0x2e, 0x63, 0x6f, 0x6e, 0x76,
  0x5f, 0x32, 0x64, 0x00, 0x88, 0xd5, 0xff, 0xff, 0x7e, 0xd6, 0xff, 0xff,
  0x04, 0x00, 0x00, 0x00, 0x40, 0x00, 0x00, 0x00, 0x93, 0x86, 0x17, 0xbf,
  0xe5, 0xee, 0x4b, 0xbf, 0x78, 0x80, 0xe0, 0x3f, 0xe2, 0x6c, 0x70, 0xbe,
  0xed, 0x25, 0xb5, 0xbf, 0xf8, 0xa8, 0x27, 0x40, 0xc4, 0x49, 0x8d, 0x3e,
  0xe3, 0xcd, 0x52, 0xbf, 0xb9, 0xd7, 0xcc, 0x40, 0xe7, 0xad, 0x01, 0xbf,
  0x0f, 0x8c, 0x92, 0x3f, 0xea, 0x1e, 0x36, 0xbf, 0x26, 0x47, 0xe0, 0xbf,
  0x30, 0x24, 0x94, 0xbf, 0xdd, 0x78, 0x08, 0xc0, 0xdd, 0x9e, 0x57, 0xbc,
  0x26, 0xd6, 0xff, 0xff, 0x10, 0x00, 0x00, 0x00, 0x0a, 0x00, 0x00, 0x00,
  0x10, 0x00, 0x00, 0x00, 0x20, 0x00, 0x00, 0x00, 0x01, 0x00, 0x00, 0x00,
  0x10, 0x00, 0x00, 0x00, 0x0d, 0x00, 0x00, 0x00, 0x73, 0x74, 0x64, 0x2e,
  0x63, 0x6f, 0x6e, 0x73, 0x74, 0x61, 0x6e, 0x74, 0x31, 0x00, 0x00, 0x00,
  0x08, 0xd6, 0xff, 0xff, 0xfe, 0xd6, 0xff, 0xff, 0x04, 0x00, 0x00, 0x00,
  0x20, 0x00, 0x00, 0x00, 0x97, 0xfa, 0x05, 0xc0, 0x16, 0x31, 0x9c, 0xbe,
  0x99, 0xf8, 0xfe, 0xbf, 0xe3, 0x2c, 0xd5, 0xbf, 0x4e, 0xe4, 0xa0, 0xbf,
  0x89, 0x03, 0x34, 0xc0, 0xe1, 0xab, 0xc7, 0xbf, 0x39, 0x13, 0x9d, 0xbf,
  0x86, 0xd6, 0xff, 0xff, 0x10, 0x00, 0x00, 0x00, 0x09, 0x00, 0x00, 0x00,
  0x10, 0x00, 0x00, 0x00, 0x20, 0x00, 0x00, 0x00, 0x01, 0x00, 0x00, 0x00,
  0x08, 0x00, 0x00, 0x00, 0x0c, 0x00, 0x00, 0x00, 0x73, 0x74, 0x64, 0x2e,
  0x63, 0x6f, 0x6e, 0x73, 0x74, 0x61, 0x6e, 0x74, 0x00, 0x00, 0x00, 0x00,
  0x68, 0xd6, 0xff, 0xff, 0x5e, 0xd7, 0xff, 0xff, 0x04, 0x00, 0x00, 0x00,
  0x00, 0x08, 0x00, 0x00, 0x6e, 0x49, 0x27, 0xbe, 0x97, 0xa7, 0x52, 0x3c,
  0xf5, 0x31, 0x2b, 0x3c, 0xfb, 0xf3, 0x67, 0xbe, 0xc5, 0x4a, 0x08, 0xbe,
  0xa1, 0xe7, 0x77, 0xbe, 0x90, 0xcf, 0xc7, 0xbe, 0xe4, 0x4e, 0x42, 0xbe,
  0xc1, 0x5e, 0x88, 0x3e, 0xf9, 0x19, 0x44, 0x3e, 0x74, 0x08, 0x5d, 0x3e,
  0x7a, 0xad, 0x0b, 0x3d, 0x1c, 0xfc, 0x4d, 0x3b, 0xb7, 0xfa, 0x65, 0xbe,
  0x3d, 0x7b, 0x22, 0xbf, 0xaf, 0xb4, 0x80, 0xbe, 0x03, 0xb3, 0x4d, 0x3e,
  0xb6, 0xda, 0x96, 0x3c, 0xf0, 0xcb, 0xbd, 0xbe, 0xee, 0x1e, 0xb1, 0x3e,
  0x03, 0x4c, 0x7f, 0xbe, 0x91, 0xee, 0x3a, 0x3c, 0x3e, 0x8a, 0x72, 0x3e,
  0x28, 0xd0, 0x1c, 0xbd, 0x0c, 0xf6, 0x26, 0xbe, 0x8b, 0x3a, 0x20, 0xbe,
  0xdf, 0x1c, 0x21, 0xbe, 0x48, 0xd7, 0xea, 0xbd, 0x3f, 0x59, 0x87, 0xbe,
  0x97, 0xb4, 0xa0, 0x3b, 0xe8, 0x82, 0xaa, 0x3d, 0xb7, 0xbc, 0xd4, 0xbb,
  0x25, 0x75, 0xa9, 0xbd, 0x6d, 0x3d, 0x84, 0xbd, 0xb9, 0x4f, 0x06, 0x3f,
  0x86, 0x67, 0xe9, 0xbe, 0xca, 0xef, 0xb3, 0xbd, 0x7c, 0x59, 0x78, 0x3d,
  0x35, 0x6a, 0x38, 0x3d, 0x04, 0x56, 0x82, 0x3d, 0x6f, 0xcd, 0x33, 0xbe,
  0xe3, 0xdf, 0x00, 0xbb, 0x92, 0x9f, 0xdb, 0xbd, 0x26, 0x92, 0xd2, 0xbe,
  0xb9, 0x30, 0xa6, 0xbe, 0xa4, 0x9e, 0xba, 0xbc, 0x09, 0xe8, 0x8d, 0xbd,
  0x76, 0x23, 0x92, 0xbd, 0x2e, 0xf0, 0xa8, 0x3d, 0x8d, 0x9b, 0x2c, 0xbd,
  0x5e, 0x72, 0x1a, 0xbe, 0x7d, 0x1d, 0x90, 0xbe, 0x1d, 0x3f, 0xc2, 0xbe,
  0xcc, 0x1c, 0xab, 0xbd, 0xb7, 0xce, 0x38, 0xbd, 0x29, 0x08, 0x58, 0x3d,
  0xa8, 0x67, 0x5c, 0x3d, 0x35, 0x75, 0xe2, 0x3c, 0x41, 0x3d, 0xd5, 0xbe,
  0xc7, 0x86, 0x9d, 0xbe, 0xd2, 0x76, 0x10, 0xbf, 0x24, 0x65, 0xcc, 0x3d,
  0x1a, 0x76, 0x9e, 0xbc, 0xea, 0x69, 0xad, 0x3d, 0xff, 0xab, 0xc5, 0xbe,
  0x65, 0xad, 0xcb, 0xbd, 0x3f, 0x8c, 0x95, 0x3e, 0x4f, 0x4a, 0x4f, 0xbe,
  0x81, 0x43, 0xb3, 0xbd, 0xf8, 0xca, 0xe9, 0xbd, 0x4f, 0xe0, 0xcd, 0xbd,
  0xae, 0x75, 0x13, 0xbe, 0x09, 0x5e, 0x8d, 0xbe, 0x2a, 0x98, 0x69, 0xbd,
  0x15, 0x32, 0x8e, 0xbd, 0x15, 0xcb, 0x5d, 0xbe, 0xda, 0x24, 0x62, 0xbd,
  0x1e, 0x9a, 0x81, 0xbe, 0xd7, 0x20, 0x2c, 0xbe, 0xab, 0xc7, 0xfb, 0xbd,
  0x7e, 0xce, 0x01, 0xbd, 0xa9, 0x7c, 0x02, 0x3d, 0x19, 0xf7, 0xdd, 0xbd,
  0x5e, 0x81, 0x23, 0xbe, 0x19, 0xeb, 0xa7, 0x3d, 0xd7, 0x13, 0x22, 0xbe,
  0x2a, 0x67, 0x05, 0xbe, 0xd9, 0x99, 0x02, 0xbe, 0x46, 0x89, 0x8a, 0x3e,
  0xad, 0x87, 0x8d, 0x3b, 0xa5, 0xc3, 0x02, 0xbe, 0xdf, 0x87, 0x01, 0xbd,
  0x86, 0x58, 0x9f, 0x3c, 0xc4, 0xb3, 0x89, 0x3e, 0x4e, 0x1b, 0x96, 0x3d,
  0xf4, 0x0b, 0xe7, 0x3e, 0x35, 0xe0, 0xe9, 0xbd, 0xcf, 0x84, 0x01, 0xbd,
  0x0b, 0x4c, 0x4e, 0x3c, 0x09, 0x04, 0x3b, 0xbb, 0x77, 0x4e, 0x6e, 0xbe,
  0x4e, 0x9c, 0x8e, 0xbd, 0xa1, 0xfa, 0xaf, 0xbe, 0xa3, 0xdc, 0x76, 0xbc,
  0x7d, 0x50, 0x65, 0xbe, 0x9b, 0x4e, 0x06, 0xbe, 0x50, 0x0a, 0xa8, 0xbe,
  0x42, 0x68, 0x98, 0xbe, 0x1d, 0x77, 0xf2, 0xbd, 0xae, 0xe6, 0xdd, 0xbd,
  0x84, 0x2e, 0x55, 0x3d, 0x60, 0x69, 0x41, 0xbe, 0x86, 0x49, 0x02, 0xbe,
  0x52, 0xf1, 0xc6, 0xbe, 0xcb, 0x7c, 0xbe, 0xbd, 0x92, 0xe4, 0xa4, 0x3d,
  0x34, 0x11, 0x9a, 0xbe, 0xcc, 0xa7, 0x34, 0xbe, 0xd5, 0x7b, 0x3f, 0xbd,
  0x81, 0x7f, 0x95, 0xbd, 0x58, 0x40, 0xc5, 0xbd, 0xde, 0xe6, 0x49, 0xbd,
  0xc3, 0x9c, 0x95, 0xbe, 0xf5, 0xeb, 0x20, 0x3b, 0xea, 0x5d, 0xb8, 0xbd,
  0xbc, 0xc1, 0x44, 0xbe, 0xdd, 0x01, 0x0b, 0x3d, 0x66, 0x1b, 0x55, 0xbd,
  0x59, 0xa2, 0x44, 0x3e, 0xb8, 0x85, 0x31, 0xbe, 0xb6, 0xc1, 0x91, 0x3e,
  0xd4, 0x08, 0x85, 0xbe, 0x89, 0x44, 0x54, 0xbd, 0xe0, 0xaf, 0x18, 0xbc,
  0x9a, 0xee, 0x58, 0x3c, 0x90, 0x68, 0xbc, 0x3e, 0x18, 0x00, 0x95, 0xbd,
  0xdd, 0x9f, 0x42, 0xbe, 0xf7, 0x52, 0xdf, 0x3d, 0xf1, 0xc1, 0x18, 0xbe,
  0x3a, 0xb2, 0xa1, 0xbe, 0x60, 0x7e, 0x7f, 0x3e, 0xee, 0xf1, 0x6b, 0x3c,
  0x37, 0x32, 0xe6, 0xbd, 0x85, 0x81, 0x2a, 0xbe, 0x53, 0xf8, 0xf6, 0xbc,
  0xd5, 0x50, 0xf9, 0x3c, 0x7d, 0xcb, 0xe1, 0xbc, 0xcd, 0x01, 0x67, 0xbe,
  0x9a, 0x46, 0xc2, 0xbd, 0x0e, 0x77, 0x03, 0xbd, 0x90, 0x32, 0x0a, 0xbe,
  0x31, 0x43, 0x62, 0xbe, 0xdd, 0x30, 0xdf, 0x37, 0xf9, 0xca, 0xa0, 0x3d,
  0xd6, 0x54, 0x25, 0xbe, 0x2c, 0x05, 0x72, 0xbe, 0x8c, 0x9d, 0xf9, 0xbd,
  0xa3, 0xad, 0xe2, 0xbd, 0xc5, 0x6e, 0x0d, 0xbe, 0x1b, 0x2d, 0xaf, 0xbe,
  0x05, 0xb5, 0x92, 0xbc, 0x5c, 0xfe, 0xb8, 0xbd, 0x85, 0xd4, 0x1d, 0xbc,
  0xd6, 0x00, 0xda, 0xbc, 0xa3, 0x93, 0xe8, 0xbd, 0xb4, 0xec, 0x81, 0xbe,
  0x23, 0x3f, 0xf6, 0xbd, 0x26, 0x94, 0xe6, 0xbd, 0xac, 0x28, 0x79, 0x3c,
  0x94, 0xea, 0xbf, 0xbd, 0x2c, 0xf1, 0xb8, 0x3c, 0x0d, 0xc6, 0x3b, 0x3c,
  0xda, 0x16, 0xfa, 0xbd, 0xb0, 0x56, 0x59, 0xbe, 0xfe, 0x50, 0xff, 0xbd,
  0x81, 0x6d, 0xbf, 0x3d, 0x0c, 0x88, 0x11, 0x3c, 0x4c, 0xa3, 0x70, 0xbe,
  0x5c, 0xc9, 0xf4, 0xbb, 0x42, 0x28, 0x0c, 0xbe, 0xb8, 0x96, 0xa1, 0xbd,
  0x47, 0x8f, 0x48, 0xbd, 0xe0, 0x34, 0x0c, 0x3d, 0x7e, 0x0f, 0xde, 0x3e,
  0xe7, 0x1e, 0xf3, 0xbd, 0x1d, 0x60, 0x27, 0x3e, 0xe6, 0x86, 0x57, 0xbd,
  0x2b, 0xee, 0x8a, 0xbe, 0xb7, 0xd7, 0xc7, 0x3e, 0x05, 0x98, 0x90, 0xbc,
  0xca, 0xf3, 0x4f, 0x3e, 0xd7, 0x1f, 0xa8, 0xbb, 0xab, 0x17, 0xb3, 0x3d,
  0xb3, 0x75, 0xd5, 0x3e, 0x54, 0xfc, 0x6f, 0xbd, 0xc9, 0xe6, 0x85, 0xbd,
  0x76, 0xa4, 0xf1, 0xbc, 0x75, 0x2c, 0x87, 0x3c, 0x3b, 0x97, 0x92, 0x3b,
  0x9b, 0xfc, 0x30, 0x3a, 0x27, 0xb0, 0x37, 0x3d, 0x73, 0x84, 0x6f, 0xbd,
  0xa7, 0x51, 0x88, 0xbd, 0x83, 0x02, 0x92, 0x3d, 0xe1, 0x4a, 0x3c, 0xbc,
  0x1d, 0xb5, 0xee, 0xbc, 0x59, 0x24, 0x8a, 0xbd, 0xf6, 0xb5, 0x1c, 0x3d,
  0x08, 0x2e, 0x51, 0xbd, 0xb4, 0xe5, 0xb8, 0x3c, 0xd2, 0x42, 0x79, 0xbd,
  0x23, 0x65, 0x2d, 0x3e, 0xca, 0x16, 0xd1, 0xbc, 0xb6, 0x4c, 0x83, 0x3c,
  0x74, 0x1b, 0xf5, 0xbc, 0x45, 0xd5, 0x0f, 0x3e, 0x49, 0x9c, 0x53, 0x3c,
  0x06, 0x0b, 0xc4, 0xbc, 0x5f, 0x3e, 0x53, 0xbd, 0xdb, 0xb0, 0x58, 0xbe,
  0xb6, 0xe9, 0xc5, 0x3b, 0xd4, 0x28, 0x87, 0x3e, 0xe0, 0x49, 0xc6, 0x3c,
  0x32, 0x8a, 0x28, 0xbd, 0xd8, 0x98, 0x8d, 0x3c, 0xf9, 0x23, 0x32, 0xbf,
  0xaf, 0x13, 0x1a, 0xbf, 0xbc, 0xd0, 0x30, 0xbd, 0xd1, 0xb2, 0xf1, 0xbe,
  0xd1, 0x49, 0xe5, 0xbd, 0xee, 0xa3, 0x0e, 0x3b, 0xfa, 0x74, 0xe5, 0xbe,
  0x6b, 0x6a, 0x86, 0xbc, 0x6b, 0xbd, 0x48, 0x3e, 0xde, 0x23, 0x55, 0xbf,
  0x03, 0xc9, 0xbc, 0x3b, 0x4c, 0x71, 0xd3, 0xbd, 0x2b, 0x77, 0x3e, 0xbe,
  0x49, 0xa9, 0x8c, 0xbe, 0x9a, 0x2e, 0x85, 0x3e, 0xa1, 0x92, 0x12, 0x3d,
  0xeb, 0x45, 0x23, 0x3f, 0xde, 0x83, 0x37, 0x3d, 0x70, 0x7b, 0x32, 0xbb,
  0x5d, 0x98, 0x3d, 0xbe, 0xfb, 0x34, 0x54, 0xbf, 0x99, 0xae, 0xaa, 0xbe,
  0x68, 0xd7, 0x8b, 0x3e, 0xee, 0xc2, 0x7c, 0xbc, 0x85, 0x30, 0xd5, 0xbe,
  0x3a, 0x36, 0x1f, 0x3e, 0x8a, 0x53, 0x97, 0xbc, 0x05, 0x3f, 0x9e, 0xbd,
  0x13, 0x7d, 0x74, 0xbe, 0x26, 0xff, 0x22, 0xbc, 0x51, 0xe7, 0x52, 0x3d,
  0x5f, 0x39, 0x69, 0xbe, 0x6b, 0xab, 0xcb, 0x3d, 0xde, 0x26, 0x6d, 0xbe,
  0x30, 0x8b, 0xa2, 0xbe, 0xd8, 0xea, 0xe1, 0x3e, 0x9b, 0xda, 0x30, 0xbc,
  0xe9, 0x87, 0x0a, 0x3b, 0x92, 0x47, 0x80, 0xbe, 0x12, 0x03, 0x97, 0xbd,
  0x76, 0xf0, 0x30, 0xbd, 0x8c, 0xfa, 0x9a, 0xbe, 0xe4, 0xb2, 0x6c, 0xbe,
  0x60, 0x83, 0xab, 0xbd, 0xc4, 0x1a, 0x97, 0xbd, 0xdd, 0xda, 0x6e, 0xbe,
  0x7d, 0x83, 0x17, 0xbe, 0xed, 0xff, 0xac, 0x3d, 0x46, 0xb8, 0xcd, 0x3d,
  0x6f, 0x36, 0xa2, 0xbd, 0x9d, 0x33, 0x37, 0x3e, 0xd7, 0xdb, 0xb7, 0xbd,
  0x34, 0xa8, 0xa1, 0xbd, 0x9e, 0xfc, 0x0c, 0xbe, 0x11, 0x46, 0xfe, 0xbe,
  0x84, 0x3d, 0x9a, 0xbe, 0x9b, 0x66, 0x21, 0xbf, 0x1d, 0x3d, 0xcf, 0xbe,
  0x6d, 0x92, 0x38, 0xbf, 0x18, 0xfc, 0xdb, 0xbe, 0x4a, 0xed, 0xf4, 0xbe,
  0xac, 0x3d, 0x27, 0xbe, 0x75, 0x5d, 0x6b, 0x3d, 0xd5, 0xc5, 0xb0, 0xbc,
  0x25, 0x91, 0x4b, 0xbf, 0x7d, 0x4e, 0x40, 0xbf, 0xaf, 0x9d, 0x3c, 0xbd,
  0x60, 0x2e, 0x94, 0xbe, 0x00, 0x6f, 0xd1, 0x3d, 0x8b, 0x8a, 0xa2, 0xbc,
  0x76, 0xf9, 0x05, 0xbe, 0xc0, 0x0c, 0xa5, 0xbc, 0x5e, 0x8e, 0x07, 0xbf,
  0x79, 0xdd, 0x27, 0xbf, 0xcb, 0x06, 0x80, 0xbd, 0x51, 0x46, 0x7d, 0xbe,
  0xa0, 0xa7, 0x98, 0xbb, 0x5a, 0x95, 0x31, 0xbd, 0x00, 0x74, 0x35, 0xbd,
  0xaa, 0x04, 0x2a, 0xbc, 0x21, 0x01, 0x5a, 0x3e, 0x80, 0xe2, 0x1b, 0xbf,
  0xd3, 0x88, 0x7f, 0xbd, 0x63, 0x4a, 0x6c, 0xbd, 0xd5, 0x0c, 0x47, 0xbc,
  0x9d, 0x19, 0x80, 0xbd, 0x9f, 0xef, 0x4a, 0xbd, 0x1b, 0xdf, 0xc2, 0x3c,
  0x48, 0x04, 0xf7, 0x3e, 0x7b, 0xb8, 0xf0, 0x3d, 0x33, 0xf0, 0xa4, 0x3e,
  0x07, 0x88, 0x27, 0xbd, 0x72, 0x9e, 0x4a, 0xbe, 0x23, 0x4a, 0x22, 0xbe,
  0x4d, 0x8b, 0xc3, 0x3d, 0xd8, 0x92, 0x79, 0xbe, 0xfd, 0xc6, 0xaa, 0x3d,
  0xef, 0x0c, 0xa7, 0xbd, 0xb4, 0x47, 0x15, 0xbe, 0xc3, 0x37, 0xfc, 0x3e,
  0x5f, 0xd4, 0x91, 0xbd, 0xf9, 0x33, 0xd2, 0x3e, 0xd8, 0xbb, 0x14, 0xbe,
  0x00, 0x50, 0x42, 0xbe, 0x62, 0xe7, 0x15, 0x3d, 0x10, 0xb8, 0x18, 0xbd,
  0xd3, 0x33, 0x0c, 0xbe, 0x7d, 0x19, 0x67, 0xbc, 0xce, 0x51, 0x2e, 0xbd,
  0x15, 0xbe, 0x46, 0xbe, 0x26, 0x11, 0x67, 0xbe, 0xfb, 0x19, 0xb3, 0xbd,
  0x43, 0xbb, 0xd5, 0x3d, 0x6c, 0xc1, 0x86, 0xbc, 0x8c, 0x89, 0x7c, 0xbd,
  0x07, 0xdd, 0xaf, 0xbd, 0x58, 0xa0, 0x86, 0xbd, 0xe0, 0x25, 0x8f, 0xbe,
  0x10, 0x4e, 0x9a, 0xbe, 0xbd, 0xa2, 0x0a, 0x3e, 0x17, 0xad, 0x7d, 0x3c,
  0xcb, 0x0e, 0x26, 0xbd, 0x8f, 0xe7, 0x4a, 0x3e, 0x91, 0xc8, 0xf9, 0xbd,
  0x72, 0xc6, 0x24, 0xbe, 0xe3, 0xf2, 0xac, 0xbe, 0xde, 0x4c, 0xde, 0xbc,
  0x39, 0x51, 0x3c, 0xbe, 0xe6, 0xd0, 0x94, 0x3d, 0xfb, 0x85, 0xbb, 0x3c,
  0x7f, 0x81, 0xe7, 0xbe, 0x5b, 0xd8, 0xe3, 0xbb, 0xfa, 0xd0, 0x78, 0xbe,
  0x92, 0x62, 0x5e, 0x3e, 0xb3, 0xa6, 0x18, 0xbe, 0x20, 0xc3, 0xae, 0xbe,
  0xaf, 0xca, 0x36, 0xbd, 0xa8, 0xc9, 0x4b, 0xbb, 0xaf, 0x21, 0xb6, 0xbe,
  0x47, 0x4c, 0x29, 0xbd, 0xc5, 0xca, 0x81, 0xbe, 0xfc, 0xfb, 0x09, 0x3e,
  0x27, 0xa1, 0x8a, 0xbd, 0x6f, 0x2f, 0x9e, 0xbe, 0x5b, 0xb3, 0xb2, 0x3d,
  0xb6, 0x14, 0x27, 0x3c, 0xf4, 0x87, 0x1a, 0xbe, 0xc8, 0x05, 0x78, 0x3e,
  0xb6, 0xbd, 0x83, 0xbe, 0x44, 0xff, 0x4b, 0xbd, 0x06, 0x47, 0x51, 0xbd,
  0xf0, 0x24, 0x4b, 0xbd, 0xff, 0x51, 0x8d, 0x3e, 0x89, 0xeb, 0x8f, 0xbb,
  0xa9, 0x3a, 0x0c, 0x3f, 0x48, 0xde, 0xdc, 0x3c, 0x69, 0x8b, 0x82, 0xbe,
  0x93, 0x9a, 0x57, 0xbd, 0x73, 0xcc, 0xb6, 0xbe, 0x22, 0x31, 0x78, 0x3d,
  0x8a, 0x79, 0x01, 0x3e, 0xaf, 0x52, 0xac, 0xbe, 0x0e, 0x56, 0x76, 0x3c,
  0x89, 0x68, 0xbb, 0xbe, 0x4c, 0xac, 0xc2, 0xbe, 0x95, 0xff, 0xce, 0xbe,
  0x9d, 0xb3, 0xcd, 0x3d, 0x96, 0x9f, 0xa4, 0xbd, 0x53, 0x35, 0xfa, 0x3e,
  0xa5, 0x5c, 0xb4, 0xbe, 0x3f, 0xbb, 0x1a, 0x3e, 0xa7, 0x89, 0xa8, 0xbe,
  0x10, 0x4c, 0x47, 0xbf, 0x00, 0x64, 0x34, 0xbf, 0x5c, 0x3d, 0x6f, 0x3d,
  0xfd, 0x42, 0x8e, 0xbd, 0x66, 0xcc, 0x82, 0xbe, 0xd7, 0x42, 0x79, 0x3e,
  0xac, 0x94, 0xba, 0xbd, 0x90, 0x6d, 0xc4, 0xbd, 0x64, 0x5f, 0x84, 0xbe,
  0xef, 0x0f, 0x61, 0xbd, 0x0d, 0xcb, 0xc3, 0x3d, 0x71, 0x29, 0xa7, 0xbd,
  0xc2, 0xc6, 0x09, 0xbe, 0x0d, 0xc6, 0x02, 0x3c, 0xe4, 0xe7, 0x3b, 0xbe,
  0x41, 0x7d, 0xb2, 0xbb, 0x47, 0xc9, 0xab, 0x3e, 0xb9, 0x4c, 0x49, 0x3e,
  0x53, 0xc0, 0x5e, 0x3d, 0x73, 0xa4, 0xaf, 0xbe, 0x61, 0xb2, 0x54, 0x3d,
  0xff, 0xb1, 0x97, 0xbe, 0xb0, 0x05, 0xf9, 0xbe, 0x0c, 0xfb, 0xb5, 0xbc,
  0x36, 0x58, 0x54, 0x3c, 0x49, 0xc9, 0x22, 0x3e, 0x46, 0x3b, 0xad, 0x3e,
  0xb3, 0x85, 0x09, 0xbf, 0xe9, 0x04, 0x27, 0x3e, 0x9b, 0x87, 0x6f, 0xbe,
  0x73, 0xc1, 0x03, 0xbf, 0x64, 0xe8, 0x5b, 0x3e, 0x1f, 0xb0, 0x1e, 0xbc,
  0xa9, 0x55, 0xa0, 0x3b, 0xe8, 0xc3, 0x5c, 0xbe, 0xd5, 0xc8, 0x12, 0xbe,
  0xf4, 0x6d, 0x6e, 0x3e, 0xb4, 0xa3, 0xb7, 0xbe, 0xed, 0xee, 0x04, 0xbf,
  0x0f, 0x19, 0x7d, 0x3c, 0xe5, 0x1f, 0x53, 0x3d, 0x75, 0x58, 0xde, 0xbc,
  0xc4, 0xde, 0xc0, 0xbe, 0x7f, 0x78, 0x04, 0xbe, 0x75, 0x52, 0xb1, 0x3e,
  0x9a, 0x5e, 0x43, 0xbe, 0xc1, 0x47, 0x6a, 0xbe, 0xff, 0x4c, 0x20, 0xbd,
  0x40, 0x85, 0x84, 0xbd, 0xd8, 0x85, 0x22, 0xbe, 0xc9, 0xd0, 0xd0, 0x3e,
  0x5d, 0x49, 0x71, 0x3d, 0xa2, 0xd7, 0x32, 0xbc, 0xa6, 0x7d, 0xc7, 0x3e,
  0x10, 0x64, 0x0a, 0x3e, 0xbe, 0x16, 0x59, 0xbe, 0xd2, 0x7c, 0x14, 0xbf,
  0xbb, 0x30, 0x22, 0xbe, 0x58, 0xe2, 0xa4, 0x3d, 0xd2, 0xd5, 0x1a, 0xbe,
  0x75, 0x0e, 0x5f, 0xbe, 0x83, 0xfd, 0x2b, 0x3e, 0x68, 0xbf, 0x85, 0xbe,
  0x1e, 0x05, 0xb2, 0xbd, 0x35, 0xd6, 0xdc, 0xbd, 0x63, 0x00, 0xf4, 0xbd,
  0x1f, 0x39, 0x8f, 0xbe, 0x02, 0x22, 0xec, 0xbd, 0x49, 0xb9, 0xa7, 0x3d,
  0x5b, 0x34, 0xdb, 0xbe, 0x66, 0x9a, 0xdf, 0xbd, 0x63, 0x3b, 0x9a, 0xbd,
  0xf4, 0x86, 0x0a, 0x3e, 0xd6, 0xee, 0xe2, 0xbb, 0x94, 0x84, 0xe1, 0xbe,
  0x9f, 0xa8, 0x32, 0x3d, 0x5a, 0x27, 0x46, 0x3e, 0xf2, 0x61, 0x46, 0xbf,
  0x1e, 0xec, 0xf5, 0xbd, 0x75, 0x20, 0x09, 0xbe, 0x07, 0x14, 0xb1, 0x3c,
  0x65, 0xf4, 0xd8, 0x3d, 0xe0, 0x17, 0x9b, 0xbe, 0x76, 0x85, 0xbe, 0xbd,
  0xdd, 0x2c, 0x0d, 0x3e, 0x0a, 0xb4, 0x3a, 0x3d, 0x0c, 0x86, 0x28, 0xbd,
  0x09, 0x19, 0xb6, 0xbd, 0x27, 0x0a, 0x12, 0xbf, 0xba, 0x42, 0x92, 0xbf,
  0xb7, 0xc3, 0x4c, 0x3e, 0xff, 0x64, 0x25, 0xbe, 0xc2, 0x00, 0x6e, 0x3e,
  0x8c, 0x59, 0xa9, 0x3d, 0x24, 0x5b, 0x95, 0x3e, 0xae, 0x83, 0x86, 0x3c,
  0xfc, 0x2a, 0xae, 0x3e, 0x9a, 0x58, 0x1e, 0xbe, 0xdf, 0xc5, 0x0d, 0x3d,
  0x84, 0x38, 0xef, 0xbe, 0x23, 0xa5, 0x8a, 0xbd, 0x2e, 0x9b, 0x81, 0xbd,
  0xe0, 0xd2, 0x1b, 0xbe, 0xe4, 0xcb, 0x53, 0x3e, 0x09, 0x40, 0x06, 0xbf,
  0x54, 0xf5, 0xe4, 0xbe, 0x54, 0x11, 0x09, 0xbe, 0x48, 0xa0, 0x04, 0xbf,
  0xea, 0xfd, 0xc3, 0xbc, 0x78, 0x33, 0x5a, 0x3c, 0xc4, 0x25, 0x0f, 0xbe,
  0x90, 0xf9, 0x33, 0x3e, 0xcf, 0xa3, 0xdf, 0xbe, 0xc1, 0x77, 0x08, 0xbf,
  0xc6, 0xde, 0xff, 0xff, 0x10, 0x00, 0x00, 0x00, 0x08, 0x00, 0x00, 0x00,
  0x1c, 0x00, 0x00, 0x00, 0x38, 0x00, 0x00, 0x00, 0x04, 0x00, 0x00, 0x00,
  0x10, 0x00, 0x00, 0x00, 0x04, 0x00, 0x00, 0x00, 0x01, 0x00, 0x00, 0x00,
  0x08, 0x00, 0x00, 0x00, 0x1a, 0x00, 0x00, 0x00, 0x73, 0x65, 0x71, 0x75,
  0x65, 0x6e, 0x74, 0x69, 0x61, 0x6c, 0x2f, 0x63, 0x6f, 0x6e, 0x76, 0x32,
  0x64, 0x5f, 0x31, 0x2f, 0x43, 0x6f, 0x6e, 0x76, 0x32, 0x44, 0x00, 0x00,
  0xc0, 0xde, 0xff, 0xff, 0xb6, 0xdf, 0xff, 0xff, 0x04, 0x00, 0x00, 0x00,
  0x80, 0x01, 0x00, 0x00, 0xfd, 0xf4, 0x92, 0x3e, 0xe1, 0x16, 0x1d, 0x3d,
  0x80, 0x78, 0x17, 0x3a, 0x01, 0xb3, 0xe4, 0x3e, 0xa3, 0x6d, 0x9a, 0x3d,
  0xc7, 0x9b, 0x64, 0x3d, 0x85, 0xc4, 0xdd, 0xbc, 0xf7, 0x27, 0xd9, 0xbd,
  0x5f, 0xb6, 0xb4, 0xbd, 0xe5, 0x6e, 0x12, 0xbf, 0xe0, 0x6d, 0xce, 0xbd,
  0x81, 0x7b, 0x5c, 0x3c, 0x89, 0x9d, 0xb9, 0x3e, 0x3a, 0xb9, 0x43, 0xbe,
  0x15, 0x8f, 0xdc, 0x3d, 0x0a, 0x36, 0x5a, 0x3e, 0x21, 0xb4, 0xec, 0x3b,
  0x16, 0x19, 0x0b, 0x3e, 0x93, 0x00, 0x61, 0x3e, 0x39, 0x28, 0x12, 0xbe,
  0x80, 0xc3, 0x8c, 0x3d, 0x0f, 0x10, 0xa0, 0x3d, 0xb0, 0xc9, 0x77, 0x3e,
  0xa7, 0x39, 0xb9, 0xbe, 0xd0, 0x24, 0x02, 0xbf, 0x1c, 0xcb, 0xdc, 0xbd,
  0x22, 0xec, 0xeb, 0xbc, 0x23, 0x4c, 0xb5, 0xbe, 0x83, 0x42, 0x5d, 0xbe,
  0x4c, 0xb9, 0x82, 0xbc, 0x6b, 0xe1, 0xeb, 0x3e, 0x07, 0x8e, 0x7e, 0x3d,
  0xe2, 0x46, 0xb8, 0x3c, 0x9f, 0xa8, 0xc8, 0x3e, 0x40, 0x41, 0x7e, 0x3e,
  0x30, 0xc0, 0x90, 0x3c, 0x22, 0x23, 0xc4, 0x3d, 0xbd, 0x03, 0x89, 0x3e,
  0xc8, 0x9a, 0x51, 0x3e, 0xb2, 0xfe, 0x0a, 0x3b, 0xc8, 0x1f, 0x58, 0x3c,
  0xe4, 0x92, 0x56, 0x3e, 0x70, 0x41, 0x95, 0xba, 0x9a, 0x3e, 0x8b, 0xbe,
  0x18, 0x1a, 0x53, 0xbe, 0x87, 0xd8, 0x9d, 0xbd, 0x36, 0x4a, 0x65, 0x3d,
  0x5a, 0x21, 0xda, 0xbd, 0xaf, 0xee, 0x7e, 0x3e, 0xe4, 0xec, 0x22, 0xbe,
  0x96, 0x41, 0xa6, 0xbd, 0x99, 0x50, 0x31, 0xbe, 0x86, 0xbe, 0x37, 0xbd,
  0xd4, 0x29, 0x90, 0x3d, 0x01, 0xc0, 0x41, 0x3f, 0xb6, 0xc7, 0x95, 0x3e,
  0xe1, 0x51, 0x6f, 0xbd, 0x86, 0x1f, 0x7c, 0xbd, 0x00, 0xd6, 0x2b, 0xbd,
  0xb6, 0xc1, 0x13, 0xbd, 0xa9, 0x00, 0x97, 0x3e, 0x37, 0x37, 0xbb, 0xbe,
  0x11, 0x14, 0xa6, 0xbc, 0x75, 0xaf, 0x80, 0xbd, 0x6b, 0x3c, 0x1b, 0xbe,
  0x13, 0x63, 0x31, 0x3e, 0x6f, 0xff, 0x35, 0xbe, 0x09, 0x2d, 0x95, 0x3d,
  0x95, 0x86, 0x04, 0xbe, 0x8a, 0x8d, 0x58, 0xbe, 0xfc, 0x24, 0x41, 0x3e,
  0x9e, 0x64, 0x17, 0x3d, 0xfd, 0x4f, 0x6f, 0xbc, 0x11, 0x4f, 0x3e, 0x3c,
  0x52, 0x9d, 0x85, 0xbe, 0xd5, 0x68, 0x56, 0xbe, 0xf1, 0x11, 0xa6, 0xbe,
  0xd0, 0x9e, 0x8a, 0x3e, 0x1e, 0x02, 0x47, 0x3e, 0xf7, 0xdb, 0xe5, 0xbc,
  0x03, 0xd3, 0x14, 0x3d, 0x79, 0x4d, 0x4a, 0xbe, 0xce, 0x98, 0xd2, 0xba,
  0xa2, 0x7b, 0xe6, 0xbd, 0xab, 0xb9, 0x01, 0x3e, 0x49, 0x31, 0xd5, 0x3d,
  0x7c, 0xa7, 0x0c, 0xbe, 0x48, 0x1f, 0x49, 0x3d, 0x14, 0xb7, 0x8a, 0x3d,
  0xbc, 0x8c, 0x34, 0xbe, 0x2b, 0xf6, 0xfd, 0xbd, 0xe0, 0xf8, 0x73, 0x3a,
  0x9e, 0xa5, 0xd5, 0xbd, 0xfa, 0xd4, 0x36, 0x3e, 0x70, 0x56, 0x8b, 0xbe,
  0x60, 0xa9, 0x0e, 0x3d, 0x9e, 0xe0, 0xff, 0xff, 0x10, 0x00, 0x00, 0x00,
  0x07, 0x00, 0x00, 0x00, 0x1c, 0x00, 0x00, 0x00, 0x38, 0x00, 0x00, 0x00,
  0x04, 0x00, 0x00, 0x00, 0x08, 0x00, 0x00, 0x00, 0x04, 0x00, 0x00, 0x00,
  0x03, 0x00, 0x00, 0x00, 0x01, 0x00, 0x00, 0x00, 0x18, 0x00, 0x00, 0x00,
  0x73, 0x65, 0x71, 0x75, 0x65, 0x6e, 0x74, 0x69, 0x61, 0x6c, 0x2f, 0x63,
  0x6f, 0x6e, 0x76, 0x32, 0x64, 0x2f, 0x43, 0x6f, 0x6e, 0x76, 0x32, 0x44,
  0x00, 0x00, 0x00, 0x00, 0x98, 0xe0, 0xff, 0xff, 0x8e, 0xe1, 0xff, 0xff,
  0x04, 0x00, 0x00, 0x00, 0x00, 0x01, 0x00, 0x00, 0x80, 0x5b, 0x02, 0xbe,
  0x16, 0x38, 0xc9, 0x3d, 0x14, 0xe6, 0x19, 0x3e, 0x21, 0x31, 0xfa, 0x3d,
  0x5a, 0xbf, 0xa6, 0xbd, 0xec, 0xe0, 0x2e, 0x3e, 0x3d, 0xd0, 0x3c, 0xbe,
  0x86, 0xa0, 0x73, 0xbe, 0x7a, 0x1c, 0x84, 0x3e, 0x67, 0x57, 0x90, 0xbe,
  0x19, 0xc8, 0x30, 0xbf, 0x9f, 0xe7, 0x4f, 0x3e, 0x1c, 0x3e, 0x3e, 0xbe,
  0x0e, 0x6a, 0x86, 0x3e, 0x6e, 0x6f, 0xb7, 0x3e, 0x03, 0x10, 0x8b, 0xbd,
  0xab, 0x6c, 0x48, 0x3b, 0x9d, 0x08, 0x12, 0xbf, 0xaf, 0xca, 0x4c, 0x3e,
  0x25, 0x91, 0x44, 0x3d, 0xc2, 0x08, 0xf2, 0xbe, 0x51, 0x84, 0x2e, 0x3e,
  0x88, 0x6e, 0xde, 0xbd, 0x54, 0x97, 0x88, 0x3e, 0x91, 0x00, 0x68, 0x3e,
  0x06, 0x85, 0x18, 0xbd, 0x20, 0x7b, 0x91, 0xbe, 0xac, 0x70, 0x32, 0x3e,
  0xd8, 0x5e, 0xf5, 0xbd, 0x25, 0x4d, 0x90, 0x3e, 0xc5, 0x8c, 0x3d, 0xbe,
  0xb9, 0x54, 0x7d, 0xbf, 0x79, 0x3e, 0xe3, 0xbd, 0xcd, 0x8e, 0x66, 0xbe,
  0x23, 0xe6, 0xcb, 0x3c, 0x9c, 0xf3, 0x81, 0xbd, 0xdb, 0x47, 0xdc, 0x3d,
  0x49, 0xd9, 0x39, 0xbe, 0xd2, 0x75, 0x29, 0xbd, 0xb3, 0xf7, 0x55, 0xbc,
  0x0e, 0x50, 0x33, 0x3e, 0xc4, 0xb5, 0x54, 0xbd, 0x63, 0x71, 0x7f, 0xbd,
  0xf8, 0xb2, 0x3f, 0x3e, 0x3f, 0x8a, 0xef, 0xbe, 0x64, 0xdc, 0x2b, 0x3e,
  0x1f, 0x1a, 0x74, 0x3c, 0x9b, 0x37, 0xca, 0xbd, 0xa6, 0xc1, 0x9c, 0xbc,
  0x46, 0x64, 0xd2, 0xbc, 0xb6, 0xeb, 0x35, 0x3e, 0x9f, 0x00, 0xdb, 0x3d,
  0x06, 0x69, 0x82, 0x3e, 0xa3, 0xf7, 0xfd, 0x3d, 0x4f, 0x37, 0x2f, 0xbe,
  0x73, 0x51, 0x02, 0x3e, 0xf1, 0x90, 0x59, 0x3e, 0x7a, 0x72, 0x42, 0x3d,
  0x4d, 0x3c, 0x15, 0x3e, 0x46, 0x94, 0xcb, 0x3d, 0xbf, 0xa5, 0x0f, 0xbe,
  0xcb, 0x1c, 0x70, 0x3e, 0x35, 0x9c, 0x00, 0x3d, 0xfa, 0x5a, 0xfb, 0xbe,
  0xf6, 0xe1, 0xff, 0xff, 0x10, 0x00, 0x00, 0x00, 0x06, 0x00, 0x00, 0x00,
  0x14, 0x00, 0x00, 0x00, 0x30, 0x00, 0x00, 0x00, 0x02, 0x00, 0x00, 0x00,
  0x04, 0x00, 0x00, 0x00, 0x10, 0x00, 0x00, 0x00, 0x19, 0x00, 0x00, 0x00,
  0x73, 0x65, 0x71, 0x75, 0x65, 0x6e, 0x74, 0x69, 0x61, 0x6c, 0x2f, 0x64,
  0x65, 0x6e, 0x73, 0x65, 0x5f, 0x31, 0x2f, 0x4d, 0x61, 0x74, 0x4d, 0x75,
  0x6c, 0x00, 0x00, 0x00, 0xe8, 0xe1, 0xff, 0xff, 0xde, 0xe2, 0xff, 0xff,
  0x04, 0x00, 0x00, 0x00, 0x00, 0x1c, 0x00, 0x00, 0x9f, 0x87, 0x16, 0xbe,
  0x70, 0xf7, 0x6b, 0xbe, 0x5b, 0x8e, 0x56, 0xbe, 0xfd, 0x8c, 0xf1, 0x3d,
  0xa0, 0xf9, 0x17, 0x3d, 0xd6, 0x45, 0xa2, 0xbe, 0xf8, 0xa9, 0xf1, 0x3d,
  0xd1, 0x5c, 0x91, 0xbd, 0x32, 0x37, 0x3c, 0x3e, 0x44, 0xce, 0x55, 0x3e,
  0x1d, 0xf6, 0x08, 0xbe, 0x46, 0x59, 0x8f, 0xbd, 0xf3, 0x69, 0xf4, 0x3c,
  0xdb, 0x0c, 0x55, 0xbe, 0x01, 0x9b, 0xf4, 0xbc, 0x3b, 0x6a, 0x8d, 0xbe,
  0xc2, 0xe8, 0x4b, 0xbe, 0x1c, 0xaa, 0x03, 0xbe, 0x55, 0xea, 0x03, 0xbe,
  0x4b, 0x86, 0x2a, 0x3e, 0x72, 0x05, 0xb9, 0xbd, 0xbf, 0x70, 0x37, 0xbe,
  0x6c, 0xa8, 0x4b, 0xbe, 0xe9, 0xee, 0x43, 0x3e, 0xa4, 0x24, 0x07, 0xbe,
  0x09, 0x4c, 0x35, 0xbd, 0x23, 0x19, 0x84, 0xbe, 0xd4, 0x81, 0x9c, 0x3b,
  0xfb, 0x12, 0xc4, 0xbd, 0x16, 0xa2, 0x5a, 0xbe, 0x23, 0xad, 0x05, 0x3e,
  0xc3, 0x9e, 0xd7, 0x3d, 0xf2, 0xa1, 0x19, 0xbe, 0x6b, 0xda, 0x19, 0x3e,
  0xfa, 0xa1, 0xb4, 0x3b, 0xfa, 0x1f, 0xee, 0x3d, 0x8a, 0x86, 0x76, 0x3c,
  0xde, 0x7c, 0x79, 0x3e, 0x6f, 0x61, 0x41, 0xbe, 0x41, 0xaa, 0xd9, 0x3c,
  0x7c, 0xa7, 0x20, 0xbe, 0x48, 0xe3, 0x5c, 0xbd, 0xd6, 0x26, 0xcb, 0xbd,
  0x11, 0x76, 0x59, 0x3d, 0x74, 0x54, 0x76, 0x3e, 0x99, 0xfa, 0x21, 0x3e,
  0x9b, 0xa4, 0x1f, 0xbd, 0x3a, 0x3c, 0x00, 0x3d, 0xb9, 0x63, 0x9a, 0xbd,
  0x10, 0x40, 0x08, 0x3e, 0x3c, 0x78, 0x5c, 0x3c, 0xff, 0x38, 0x2a, 0x3c,
  0x23, 0x76, 0x85, 0xbc, 0x6c, 0xd4, 0x69, 0xbd, 0x8e, 0xaf, 0x83, 0xbe,
  0xf7, 0xc8, 0xc9, 0xbd, 0x5e, 0x2a, 0x8a, 0xbd, 0x6d, 0xf2, 0x44, 0x3e,
  0xa0, 0xde, 0x3d, 0x3d, 0x71, 0x5b, 0x84, 0x3d, 0x38, 0xdf, 0xeb, 0xbd,
  0x4d, 0xe5, 0xef, 0xbd, 0x23, 0xec, 0x90, 0xbd, 0xea, 0xe1, 0xfb, 0x3d,
  0x17, 0x07, 0x0a, 0x3e, 0xd1, 0xb0, 0x5e, 0xbc, 0x09, 0x31, 0x1b, 0x3d,
  0xa5, 0x03, 0x95, 0x3d, 0x70, 0x40, 0x85, 0x3d, 0x2f, 0x6b, 0x25, 0xbe,
  0x94, 0x33, 0xc6, 0xbe, 0x9c, 0xc2, 0x61, 0x3e, 0x1c, 0x56, 0xbd, 0xbd,
  0xa9, 0x38, 0xdc, 0xbd, 0x65, 0x1a, 0x31, 0x3e, 0xe4, 0x39, 0x5c, 0xbd,
  0x99, 0xe6, 0x27, 0x3c, 0x20, 0xcb, 0xaa, 0xbd, 0x38, 0x2d, 0x06, 0x3e,
  0x2a, 0x8c, 0x02, 0x3e, 0xe9, 0x8c, 0x05, 0x3e, 0xb4, 0xa9, 0x03, 0xbe,
  0xf3, 0x8d, 0x34, 0xbe, 0x7c, 0x97, 0x12, 0xbe, 0x06, 0x70, 0xd7, 0xbd,
  0x7f, 0x0c, 0x1b, 0xbe, 0xa9, 0xf2, 0xc1, 0xbe, 0xb8, 0x53, 0x85, 0x3d,
  0x8b, 0xd7, 0x33, 0xbe, 0x5c, 0xb3, 0xa0, 0x3d, 0xef, 0x26, 0xdb, 0x3d,
  0xeb, 0xca, 0x9e, 0xbd, 0x1e, 0xea, 0x9b, 0xbd, 0xae, 0x9d, 0xaf, 0xbd,
  0x31, 0x00, 0xa5, 0x3d, 0x42, 0xa0, 0x07, 0x3e, 0xc4, 0x52, 0xb0, 0x3b,
  0x20, 0x9e, 0x22, 0x3e, 0x56, 0xc9, 0x7e, 0x3d, 0x67, 0x1d, 0x3b, 0x3e,
  0x15, 0x9c, 0xae, 0xbd, 0x96, 0x84, 0x3f, 0xbe, 0x1b, 0x7b, 0x69, 0xbe,
  0x74, 0x29, 0x20, 0xbe, 0xfd, 0x83, 0x5d, 0x3e, 0x07, 0xce, 0xdc, 0x3c,
  0x4f, 0xe9, 0xde, 0xbd, 0x58, 0x92, 0xcf, 0xbd, 0x2b, 0xba, 0xd5, 0xbd,
  0x89, 0xfb, 0x80, 0xbd, 0x00, 0x08, 0x94, 0xbd, 0xd6, 0x93, 0xc7, 0x3d,
  0xe7, 0xb8, 0x7b, 0xbe, 0xec, 0x3b, 0x2e, 0xbe, 0x26, 0xef, 0x61, 0xbd,
  0x11, 0xc4, 0x3d, 0xbe, 0xb6, 0x18, 0x4b, 0xbe, 0x44, 0xe0, 0xe4, 0xbc,
  0x64, 0x62, 0x8d, 0xbe, 0xec, 0xb9, 0x5c, 0xba, 0x50, 0xcc, 0xad, 0x3d,
  0x62, 0x20, 0xa5, 0x3d, 0x14, 0x3c, 0x34, 0xbe, 0xa4, 0x55, 0x5e, 0xbe,
  0xf5, 0x62, 0x2c, 0x3c, 0x10, 0x98, 0xe2, 0x3d, 0x0e, 0xfc, 0x51, 0xbe,
  0x86, 0x7e, 0x34, 0xbe, 0xe8, 0x40, 0xec, 0xbd, 0x52, 0x86, 0x59, 0xbe,
  0x2c, 0xad, 0x39, 0x3e, 0x4c, 0xf1, 0x54, 0xbd, 0x75, 0x67, 0x83, 0xbd,
  0xaa, 0x72, 0xa2, 0x3b, 0x0c, 0x06, 0x07, 0xbe, 0x4b, 0xf9, 0x5e, 0xbe,
  0xed, 0x79, 0x45, 0x3e, 0xb3, 0xdb, 0x16, 0x3d, 0xc9, 0xc5, 0x70, 0x3d,
  0x97, 0xf5, 0x17, 0xbd, 0x84, 0xb5, 0xe2, 0xbd, 0x46, 0xc4, 0x47, 0x3e,
  0x05, 0x02, 0x05, 0xbe, 0x23, 0x98, 0x28, 0xbe, 0x05, 0x61, 0x7b, 0x3d,
  0x4d, 0xf3, 0x1e, 0x3e, 0x6d, 0xa6, 0xca, 0xbd, 0xc2, 0x1e, 0x16, 0x3e,
  0x4b, 0xc7, 0x3b, 0xbe, 0x99, 0x55, 0x82, 0xbe, 0x96, 0x73, 0x8f, 0xbe,
  0xeb, 0x21, 0x19, 0xbe, 0x0b, 0x2e, 0xf9, 0x3c, 0x34, 0xe1, 0xbd, 0x3d,
  0x95, 0x8b, 0x2d, 0xbe, 0x5c, 0x61, 0x0a, 0x3c, 0xd9, 0x82, 0x11, 0x3d,
  0xd9, 0x74, 0xa8, 0x3d, 0x6a, 0x5a, 0x58, 0xbe, 0x1a, 0xfb, 0xb7, 0xbd,
  0x51, 0x53, 0x70, 0xbd, 0x0c, 0x2b, 0x0c, 0x3e, 0x19, 0xa1, 0xc7, 0xbd,
  0x3a, 0x5a, 0xc6, 0xbd, 0x1d, 0xeb, 0x34, 0xbe, 0x6b, 0xcc, 0x11, 0xbe,
  0xfb, 0x35, 0xf5, 0xba, 0xac, 0x8d, 0xd7, 0x3d, 0x01, 0xd2, 0x17, 0xbe,
  0xd9, 0xe4, 0xe6, 0xbd, 0x06, 0xcc, 0x22, 0xbe, 0xdd, 0xa8, 0x04, 0xbe,
  0xf1, 0xd9, 0x03, 0xbe, 0x1d, 0x26, 0xe5, 0xbb, 0x2f, 0xde, 0x2e, 0xbe,
  0x87, 0x40, 0xc4, 0x3d, 0x61, 0xd1, 0x51, 0xbe, 0xb7, 0xb4, 0x68, 0xbc,
  0x9f, 0xaf, 0xa1, 0x3d, 0xfa, 0x69, 0xb2, 0xbd, 0x1e, 0xec, 0x04, 0x3d,
  0xab, 0x07, 0x74, 0xbe, 0x6a, 0x97, 0x23, 0xbe, 0x3f, 0x14, 0xf2, 0xbd,
  0xf6, 0x95, 0x1b, 0xbd, 0xc8, 0x62, 0x1e, 0xbe, 0x07, 0x96, 0x3c, 0xbe,
  0xa7, 0xff, 0xc3, 0xbd, 0x53, 0xdd, 0x23, 0xbe, 0xda, 0x36, 0x48, 0xbe,
  0xfe, 0xc2, 0x96, 0x3d, 0x8a, 0x8f, 0x15, 0x3e, 0xcd, 0x30, 0x14, 0xbb,
  0xd5, 0xac, 0xe1, 0x3c, 0xbe, 0xdd, 0x1c, 0xbe, 0x51, 0xb4, 0x13, 0x3e,
  0xca, 0xe2, 0x5d, 0xbe, 0xc6, 0x8c, 0x67, 0xbb, 0xed, 0x93, 0x29, 0xbe,
  0x2c, 0xea, 0xee, 0x3d, 0x37, 0xc0, 0xd0, 0xbd, 0x9a, 0x0b, 0x65, 0xbe,
  0x41, 0xdd, 0x67, 0xbe, 0xf3, 0x59, 0x08, 0xbe, 0x51, 0xe5, 0x5b, 0xbe,
  0x8e, 0x94, 0xe4, 0x3c, 0x00, 0xc0, 0x0f, 0xbe, 0xb6, 0xce, 0x97, 0xbd,
  0x94, 0x3e, 0x53, 0xbe, 0x28, 0xb9, 0x28, 0x3e, 0xcf, 0x7b, 0xb3, 0xbd,
  0x97, 0x69, 0xdd, 0x3d, 0xcf, 0x83, 0xa3, 0xbb, 0xb3, 0x14, 0x12, 0xbe,
  0x83, 0x5c, 0x87, 0xbe, 0x31, 0xfc, 0x16, 0xbe, 0x84, 0xaa, 0x50, 0xbe,
  0x34, 0xe0, 0x9b, 0x3d, 0xc6, 0xf7, 0xb7, 0xbd, 0x4f, 0xd3, 0x90, 0xbe,
  0x42, 0x21, 0x1b, 0xbd, 0xa2, 0xe3, 0x2b, 0xbd, 0x7f, 0x5f, 0x2a, 0xbe,
  0x9c, 0xfb, 0x26, 0xbd, 0xd4, 0xa3, 0x57, 0x3e, 0x7d, 0xbe, 0x1c, 0xbf,
  0xfc, 0x74, 0xfa, 0x3d, 0x1f, 0x17, 0x40, 0x3e, 0x8c, 0xe4, 0xe7, 0xbe,
  0xde, 0x41, 0xe1, 0xba, 0x50, 0xda, 0x7f, 0x3e, 0x13, 0xa8, 0x79, 0x3e,
  0x1e, 0xd6, 0x08, 0xbe, 0xde, 0x25, 0x9d, 0x3e, 0xa3, 0x84, 0x16, 0xbe,
  0x5f, 0xdb, 0x3f, 0x3c, 0x55, 0x1b, 0x1b, 0x3e, 0x03, 0x7a, 0xd3, 0xbe,
  0xac, 0xf6, 0x8b, 0x3e, 0x31, 0x7f, 0x34, 0x3d, 0x58, 0xbc, 0x10, 0x3e,
  0x0d, 0xa6, 0x8d, 0x3c, 0xb0, 0x5e, 0x9f, 0x3d, 0x86, 0x0d, 0x07, 0xbd,
  0xf7, 0xad, 0x07, 0xbe, 0x08, 0xca, 0x87, 0xbc, 0x28, 0xf1, 0x30, 0xbd,
  0x72, 0x4c, 0x2c, 0xbd, 0xdf, 0x84, 0x4c, 0x3e, 0xf6, 0x3f, 0x59, 0xbe,
  0xf4, 0x5c, 0x55, 0xbe, 0x4f, 0x62, 0x8b, 0xbd, 0x9f, 0xb4, 0xca, 0x3d,
  0x4c, 0x74, 0xbd, 0xbd, 0x96, 0x53, 0x18, 0x3e, 0x0e, 0xcf, 0x56, 0x3e,
  0xfa, 0xe9, 0xc1, 0x3d, 0x0d, 0x46, 0x50, 0x3e, 0x49, 0xa3, 0xec, 0xbe,
  0xbb, 0x57, 0x60, 0xbd, 0x2c, 0x84, 0xc8, 0x3c, 0x7f, 0x8d, 0x9c, 0xbe,
  0xf3, 0xbc, 0xa3, 0xbc, 0x28, 0x53, 0x01, 0x3d, 0xf1, 0x86, 0x52, 0x3e,
  0x71, 0xd7, 0x63, 0x3d, 0xbc, 0x56, 0xc6, 0xbc, 0xbb, 0x66, 0xc0, 0xbb,
  0x59, 0x9c, 0xea, 0xbd, 0xd0, 0xb9, 0x66, 0xbd, 0x97, 0x2d, 0x92, 0xbd,
  0x22, 0x80, 0xb4, 0xbc, 0xfa, 0x15, 0x59, 0xbd, 0x87, 0xbb, 0x15, 0x3e,
  0x86, 0x94, 0x91, 0xbe, 0xee, 0x71, 0xfe, 0xbd, 0x40, 0xae, 0xda, 0xbd,
  0xb6, 0xac, 0x79, 0xbe, 0x6a, 0x64, 0xac, 0xbb, 0xc0, 0x4e, 0x02, 0x3e,
  0x1e, 0x6b, 0xa5, 0x3e, 0x80, 0xb6, 0x74, 0xbe, 0xac, 0xf8, 0x20, 0x3e,
  0xf3, 0x55, 0x09, 0x3d, 0x1d, 0xe2, 0x29, 0x3e, 0xdc, 0x63, 0x16, 0x3e,
  0xe7, 0x73, 0x0b, 0x3b, 0x65, 0x05, 0x89, 0x3c, 0x4d, 0x9b, 0x2c, 0xbe,
  0x5a, 0x53, 0x88, 0xbd, 0x41, 0xb0, 0xad, 0xbe, 0xa1, 0x28, 0x03, 0xbe,
  0xc8, 0xbe, 0xf7, 0x3d, 0x9b, 0x0c, 0xeb, 0xbe, 0x0f, 0x7a, 0xae, 0x3b,
  0xa6, 0xc0, 0x4c, 0xbe, 0x69, 0x3c, 0x26, 0x3e, 0xb8, 0x90, 0x1c, 0xbf,
  0x89, 0xb0, 0x4f, 0x3e, 0x09, 0xfc, 0xef, 0x3c, 0xfd, 0x59, 0x5a, 0xbe,
  0xd8, 0x3f, 0x64, 0x3d, 0xab, 0xb9, 0x2a, 0xbd, 0x30, 0xaa, 0x9a, 0x3c,
  0x76, 0x89, 0xad, 0xbe, 0x59, 0x9d, 0x49, 0x3c, 0xa6, 0x30, 0x0e, 0xbf,
  0xb1, 0x5d, 0x15, 0x3e, 0xe0, 0xf4, 0xf5, 0xbc, 0xb6, 0x2f, 0x85, 0xbf,
  0x11, 0x5d, 0x22, 0xbc, 0x19, 0xbf, 0x63, 0xbe, 0x9a, 0x73, 0x31, 0xbd,
  0x1b, 0xb5, 0xf4, 0xbd, 0x46, 0x4e, 0x62, 0x3a, 0x4d, 0x9f, 0xb0, 0xbd,
  0xf6, 0x79, 0xc7, 0xbe, 0x4b, 0xcc, 0xb0, 0xbd, 0xec, 0xa5, 0x83, 0xbd,
  0x05, 0x59, 0x1d, 0x3e, 0x1f, 0xa2, 0x22, 0xbe, 0x5f, 0xa6, 0xc8, 0xbe,
  0xf9, 0xd1, 0xc3, 0xbc, 0xfe, 0xf9, 0x02, 0x3e, 0xcc, 0x6b, 0x67, 0x3c,
  0x95, 0x85, 0xb0, 0xbe, 0x0d, 0xcd, 0x05, 0xbe, 0x1a, 0x03, 0xae, 0xbe,
  0xde, 0x44, 0x98, 0xbe, 0x65, 0x6f, 0xb2, 0xbe, 0xbc, 0x3d, 0x8f, 0x3d,
  0x1f, 0x9d, 0x35, 0xbe, 0xff, 0xbc, 0x2a, 0xbe, 0xd8, 0x42, 0xd3, 0xbb,
  0xa3, 0xf9, 0x03, 0xbd, 0xf0, 0x5e, 0x9e, 0xbc, 0x44, 0xcb, 0x55, 0xbe,
  0x54, 0xfc, 0x0a, 0x3e, 0x20, 0xbe, 0x98, 0xbd, 0x78, 0xb2, 0xb5, 0x3c,
  0x9e, 0xe8, 0xef, 0x3d, 0x89, 0x26, 0xe9, 0xbd, 0xd1, 0x60, 0x5f, 0x3d,
  0xf2, 0xfc, 0x55, 0xbe, 0x93, 0xf0, 0xdd, 0x3f, 0xea, 0x92, 0x5f, 0xbd,
  0xb5, 0xf4, 0x0a, 0xbe, 0x46, 0xb1, 0x2c, 0xbe, 0x74, 0x13, 0x89, 0xbe,
  0xd6, 0x2a, 0x69, 0x3e, 0x0c, 0xa3, 0xcb, 0xbe, 0x67, 0x31, 0x42, 0xbc,
  0x0e, 0xfc, 0x0c, 0xbe, 0x2d, 0xa4, 0x92, 0xbe, 0x52, 0xd6, 0x51, 0x3e,
  0x49, 0x55, 0xfb, 0x3c, 0xc7, 0x1e, 0x00, 0x3d, 0xef, 0xef, 0xf3, 0x3c,
  0xbc, 0x57, 0xcd, 0x3c, 0xc4, 0xd5, 0x95, 0x3d, 0xdf, 0x42, 0x21, 0x40,
  0xb2, 0xac, 0x0b, 0x3d, 0xca, 0x14, 0x0b, 0xbe, 0xb6, 0x72, 0xd1, 0xbd,
  0x4e, 0xe8, 0x22, 0xbd, 0xf8, 0x63, 0x48, 0x3e, 0x2f, 0x42, 0x19, 0xbe,
  0x1c, 0x4c, 0x51, 0x3d, 0x2a, 0x1c, 0x37, 0x3e, 0x13, 0x20, 0xc7, 0xbd,
  0x91, 0x3c, 0x84, 0x3e, 0xc8, 0x58, 0x98, 0x3d, 0x5f, 0xb0, 0xba, 0x3c,
  0x97, 0xa3, 0x35, 0x3e, 0xba, 0xe5, 0x48, 0x3d, 0xa7, 0xcf, 0x85, 0x3b,
  0x35, 0x52, 0x33, 0x40, 0x33, 0xe5, 0x65, 0x3d, 0x3f, 0x94, 0xd9, 0xbd,
  0xf8, 0x21, 0xc7, 0xbc, 0x5d, 0xf2, 0x19, 0x3e, 0xa3, 0x14, 0x81, 0x3d,
  0x53, 0x4d, 0x65, 0x3b, 0x84, 0x78, 0x52, 0x3d, 0x0d, 0xef, 0x8c, 0x3e,
  0x4b, 0xba, 0xb5, 0xbb, 0xd9, 0xa8, 0xb2, 0x3e, 0xcd, 0xa3, 0x2d, 0x3d,
  0xa5, 0x47, 0x6f, 0x3e, 0x51, 0xab, 0xd4, 0x3d, 0x51, 0x5a, 0x88, 0x3d,
  0xf0, 0x2e, 0x70, 0x3d, 0x24, 0x99, 0x88, 0x3f, 0x50, 0x73, 0xca, 0x3d,
  0xa2, 0x1e, 0x7c, 0x3d, 0x55, 0xbc, 0x0a, 0xbc, 0xbf, 0x40, 0x74, 0x3d,
  0xf5, 0x6e, 0x6a, 0x3d, 0x5a, 0x10, 0x9b, 0x3d, 0x92, 0xe7, 0xcc, 0x3c,
  0x88, 0x57, 0x1d, 0xbe, 0x45, 0x72, 0xbb, 0x3c, 0xac, 0x53, 0xab, 0x3d,
  0x31, 0x02, 0xf5, 0x3d, 0x57, 0x4f, 0x8e, 0x3e, 0x31, 0xd4, 0x93, 0xbc,
  0x4c, 0x63, 0x5a, 0x3d, 0xac, 0xfc, 0xbf, 0xbe, 0x17, 0x67, 0x12, 0x40,
  0xd2, 0x52, 0xfa, 0xbe, 0xe9, 0xbf, 0x94, 0x3d, 0x51, 0xdd, 0xea, 0x3c,
  0xa9, 0x6f, 0xba, 0xbe, 0x22, 0x71, 0x8e, 0x3e, 0x32, 0x95, 0xbf, 0xbd,
  0x52, 0xf9, 0x3e, 0x3d, 0x97, 0xd4, 0x64, 0xbe, 0xea, 0x99, 0xd4, 0x3d,
  0x7c, 0xf4, 0x80, 0x3d, 0xaa, 0xb4, 0xb0, 0x3d, 0x19, 0x73, 0x85, 0x3e,
  0x86, 0x9f, 0xfc, 0xbd, 0xaf, 0x6e, 0x32, 0x3d, 0xe9, 0x77, 0x58, 0xbe,
  0x9c, 0xad, 0x1d, 0x40, 0x92, 0x05, 0x1d, 0xbe, 0x84, 0xcc, 0x99, 0xbd,
  0x42, 0xbd, 0x7a, 0xbd, 0xde, 0x49, 0x85, 0xbe, 0x4d, 0xc8, 0x60, 0x3e,
  0x32, 0xb8, 0x22, 0xbe, 0xc5, 0x5a, 0x2f, 0x3e, 0x73, 0x70, 0x45, 0xbd,
  0x9a, 0xbc, 0x59, 0x3c, 0xd9, 0x42, 0x83, 0x3b, 0xbc, 0x05, 0xc7, 0x3b,
  0x82, 0x4c, 0x93, 0x3d, 0xad, 0xb4, 0x7a, 0x3c, 0x18, 0xfc, 0x87, 0xbc,
  0xbf, 0xc1, 0x8f, 0xbe, 0xb0, 0x80, 0xc1, 0x3e, 0x8a, 0x55, 0x7e, 0xbe,
  0xae, 0x13, 0xd2, 0x3c, 0x8c, 0x7a, 0x13, 0xbe, 0x38, 0x4a, 0xfe, 0xbd,
  0xbc, 0x68, 0xb7, 0x3d, 0x34, 0x4a, 0x01, 0xbd, 0x38, 0x7c, 0x52, 0xbd,
  0xb7, 0xf9, 0x8c, 0xbc, 0x50, 0x86, 0x61, 0xbd, 0x75, 0x25, 0x1f, 0xbe,
  0x9c, 0x6c, 0xe2, 0x3d, 0xf5, 0xf0, 0x68, 0x3c, 0xcb, 0x50, 0x57, 0xbe,
  0x8b, 0x3d, 0x37, 0xbe, 0x6f, 0x86, 0x43, 0xbe, 0xbc, 0x7f, 0x28, 0xbe,
  0x0c, 0x8b, 0xb7, 0x3c, 0x62, 0x54, 0xcf, 0xbd, 0x92, 0x4a, 0x51, 0xbe,
  0x7a, 0xd4, 0x91, 0xbe, 0x17, 0xee, 0x98, 0xbd, 0xfb, 0x20, 0xdb, 0x3c,
  0x11, 0x0f, 0x06, 0xbe, 0xd9, 0x2b, 0x36, 0xbe, 0x8c, 0x24, 0x3c, 0xbe,
  0xcf, 0x38, 0xaa, 0x3b, 0xc3, 0x38, 0x3c, 0x3e, 0x87, 0xbd, 0x44, 0x3e,
  0x1c, 0x89, 0x37, 0xbe, 0x74, 0xbd, 0x67, 0xbe, 0xfd, 0x77, 0x37, 0x3e,
  0xd7, 0x3c, 0x82, 0xbd, 0x8e, 0x2d, 0x84, 0xbd, 0x35, 0x70, 0x67, 0xbe,
  0x54, 0x6f, 0x4c, 0xbe, 0x6e, 0x95, 0x86, 0x3d, 0xa6, 0x56, 0x12, 0xbe,
  0xdf, 0x56, 0x81, 0x3d, 0x7f, 0x3f, 0x90, 0x3d, 0xf9, 0xda, 0x8d, 0xbd,
  0x63, 0xee, 0xe7, 0xbd, 0x64, 0x4e, 0xc6, 0xbd, 0x4e, 0x54, 0x2b, 0xbe,
  0xd1, 0x02, 0xbf, 0xbd, 0xd9, 0x61, 0x56, 0xbd, 0xce, 0x47, 0x5f, 0xbe,
  0x4b, 0xb9, 0x46, 0x3e, 0x93, 0xb4, 0xbb, 0x3d, 0x70, 0x00, 0xd2, 0x3d,
  0xdf, 0x82, 0x83, 0x3b, 0x65, 0x93, 0xc6, 0xbc, 0x14, 0x34, 0x8a, 0xbd,
  0x4d, 0xa3, 0x32, 0x3e, 0x34, 0xfa, 0xa1, 0xbd, 0x4c, 0x03, 0x8a, 0xbd,
  0x7f, 0xa9, 0x73, 0x3d, 0xe6, 0xe7, 0x43, 0xbe, 0xa1, 0xaa, 0x63, 0xbe,
  0x11, 0xbe, 0x63, 0xbe, 0xcb, 0x1d, 0xe9, 0x3d, 0x0f, 0xd4, 0x5f, 0xbe,
  0xb3, 0x38, 0x1a, 0xbe, 0xf4, 0xcc, 0x44, 0x3e, 0x93, 0x0c, 0x51, 0x3e,
  0xe3, 0x82, 0x69, 0x3d, 0x0f, 0x3b, 0x41, 0xbe, 0x8a, 0x98, 0xa0, 0xbd,
  0x19, 0x92, 0x36, 0xbe, 0xac, 0x10, 0xc2, 0x3d, 0xc0, 0x71, 0x5b, 0x3c,
  0x84, 0xd0, 0x02, 0x3e, 0x35, 0xcb, 0x48, 0xbe, 0x02, 0x5e, 0x82, 0xbb,
  0x2c, 0x57, 0xbf, 0xbc, 0xa9, 0x6e, 0x39, 0x3e, 0x20, 0x86, 0x5c, 0xbe,
  0xf0, 0x31, 0x5f, 0xbd, 0x07, 0x5d, 0x4d, 0xbe, 0x90, 0x42, 0x28, 0xbe,
  0x84, 0x36, 0xf8, 0x3c, 0x37, 0xeb, 0x57, 0xbc, 0xfc, 0x33, 0x54, 0xbe,
  0xce, 0xc7, 0xce, 0x3d, 0x26, 0xcd, 0xc6, 0x3d, 0x2e, 0xbf, 0x15, 0x3e,
  0x59, 0xda, 0xf9, 0xbd, 0x2a, 0xf4, 0x02, 0xbd, 0x56, 0x2a, 0x19, 0xbe,
  0xdf, 0x49, 0x34, 0xbe, 0x34, 0x76, 0x43, 0xbe, 0x3b, 0x53, 0xf6, 0x3d,
  0x07, 0xf0, 0x0d, 0xbd, 0x61, 0x1e, 0x1e, 0xbe, 0x80, 0x33, 0x88, 0xbe,
  0xfc, 0xe4, 0xf4, 0xbd, 0x98, 0x4a, 0x4d, 0xbe, 0xa1, 0xe3, 0x4a, 0xbe,
  0x3b, 0x36, 0xf6, 0xbd, 0x37, 0x28, 0xbd, 0xbd, 0x02, 0x1a, 0x1e, 0xbe,
  0x13, 0x56, 0xc7, 0xbd, 0xde, 0xf5, 0x0c, 0x3d, 0x11, 0x3e, 0x1f, 0xbe,
  0xae, 0xff, 0x71, 0xbc, 0x1f, 0xd6, 0x0a, 0x3b, 0x5f, 0x7e, 0x57, 0xbd,
  0xd3, 0xca, 0x22, 0xbe, 0xd1, 0x47, 0x62, 0x3d, 0x59, 0x89, 0x7a, 0xbd,
  0xac, 0x82, 0x34, 0xbc, 0x87, 0xaf, 0x52, 0xbd, 0xcc, 0x8b, 0x0c, 0x3e,
  0x50, 0x98, 0x27, 0x3c, 0xa3, 0xe9, 0x51, 0xbe, 0x93, 0x6b, 0x53, 0xbd,
  0xa9, 0xc4, 0x1d, 0x3c, 0x18, 0xf8, 0x47, 0xba, 0x17, 0xca, 0x64, 0xbd,
  0x46, 0x48, 0x09, 0xbe, 0x2a, 0xe1, 0xd7, 0x3d, 0x3b, 0x60, 0x93, 0x3e,
  0x9c, 0xbb, 0x61, 0x3d, 0x68, 0x0d, 0x2e, 0xbd, 0xce, 0x9f, 0x7b, 0x3e,
  0xeb, 0x6c, 0x8a, 0x3d, 0x24, 0x7b, 0xc9, 0xbc, 0x6c, 0x00, 0x23, 0x3e,
  0xf1, 0xe8, 0xf3, 0x3e, 0xf8, 0xdd, 0x8b, 0x3d, 0xfe, 0xe1, 0x0f, 0x3c,
  0xd9, 0x65, 0x18, 0xbe, 0xdc, 0xe8, 0x92, 0x3d, 0x3b, 0x74, 0x60, 0x3e,
  0xfd, 0x5a, 0x7e, 0x3e, 0x29, 0x4c, 0x25, 0xbf, 0xb9, 0xed, 0x10, 0xbc,
  0x10, 0x1a, 0xf7, 0x3d, 0x69, 0x6c, 0x11, 0x3d, 0x41, 0x11, 0xf2, 0xbd,
  0x6b, 0x17, 0x3a, 0x3e, 0x15, 0xe9, 0x8b, 0x3c, 0xaa, 0xf9, 0x05, 0x3c,
  0x21, 0x70, 0x5b, 0xbe, 0x8b, 0xbc, 0x8a, 0x3f, 0x4d, 0xd6, 0x80, 0xbd,
  0x50, 0xa0, 0x88, 0xbd, 0x3d, 0x39, 0x8e, 0xbe, 0x09, 0x9a, 0xdf, 0x3d,
  0x3a, 0x7d, 0x05, 0x3e, 0x4d, 0x66, 0xd2, 0x3d, 0xaa, 0x40, 0x08, 0xbe,
  0x95, 0xc5, 0x97, 0xbd, 0xac, 0xf4, 0x09, 0x3d, 0x31, 0x91, 0x19, 0xbc,
  0xe4, 0x74, 0xf9, 0xbc, 0xc8, 0xf4, 0x7e, 0x3d, 0xec, 0x51, 0x4a, 0x3d,
  0x8c, 0x68, 0xe1, 0xba, 0x14, 0xe5, 0x35, 0xbe, 0x82, 0x0b, 0xae, 0x3f,
  0x18, 0x31, 0x1c, 0x3d, 0x2f, 0xa8, 0x8b, 0xbc, 0xb2, 0x0c, 0x8c, 0xbd,
  0xdb, 0x44, 0x24, 0xbe, 0x56, 0x4b, 0xf5, 0x3d, 0x21, 0xf4, 0xa1, 0xbe,
  0x2e, 0xcf, 0x60, 0xbe, 0x36, 0x0c, 0x12, 0x3d, 0x3d, 0x4c, 0x88, 0xbd,
  0xf7, 0x32, 0xc8, 0x3c, 0x01, 0x2d, 0x8c, 0xbe, 0xd0, 0x47, 0x91, 0x3c,
  0x97, 0x60, 0x71, 0x3d, 0x8a, 0x53, 0x00, 0xbd, 0x3a, 0xc0, 0xe6, 0xbd,
  0x61, 0xfd, 0xc3, 0x3e, 0xe3, 0x03, 0x29, 0xbd, 0x62, 0x55, 0xdd, 0xbc,
  0x67, 0x73, 0x3e, 0xbe, 0xda, 0x9a, 0x44, 0xbd, 0x65, 0x07, 0x1d, 0x3d,
  0x29, 0xa8, 0x0b, 0xbe, 0xe7, 0xc4, 0x2e, 0xbe, 0x09, 0x54, 0xbd, 0x3d,
  0x9c, 0x49, 0xc4, 0xbd, 0xb7, 0xac, 0x19, 0x3e, 0xe1, 0x7e, 0xab, 0xbd,
  0xea, 0xad, 0x1b, 0x3c, 0x68, 0x51, 0x88, 0x3d, 0xe5, 0x60, 0x2e, 0x3b,
  0x79, 0xbb, 0x30, 0x3d, 0x59, 0x07, 0x21, 0x3f, 0x93, 0x95, 0xc1, 0x3d,
  0x8e, 0x47, 0x85, 0x3c, 0xf0, 0xfe, 0xb9, 0xbd, 0x3f, 0x42, 0xba, 0x3d,
  0xa6, 0x58, 0xa3, 0x3c, 0x52, 0xe0, 0x42, 0xbe, 0x75, 0xec, 0x10, 0xbe,
  0x80, 0x9b, 0x21, 0x3e, 0xa7, 0xae, 0x30, 0xbe, 0xc9, 0x21, 0x44, 0x3e,
  0x34, 0x5d, 0xab, 0xbd, 0x98, 0xc5, 0x9d, 0x3d, 0x6b, 0x31, 0x7f, 0x3b,
  0x03, 0x61, 0x96, 0xb8, 0x25, 0x6f, 0x65, 0x3e, 0xb0, 0x05, 0x44, 0x3f,
  0xbc, 0xd1, 0x91, 0x3e, 0xe6, 0x1e, 0x69, 0xbc, 0x2d, 0x42, 0x34, 0xbe,
  0xb2, 0x89, 0xa1, 0x3d, 0x65, 0x7f, 0xff, 0x3d, 0xd1, 0x0b, 0xb2, 0x3c,
  0xd2, 0x65, 0x61, 0xbd, 0xf5, 0x34, 0x21, 0x3d, 0x9a, 0x9c, 0x1c, 0x3e,
  0x18, 0xfa, 0x54, 0x3c, 0xe4, 0x61, 0x65, 0xbd, 0xb9, 0x94, 0xca, 0x3c,
  0xa0, 0x52, 0x7f, 0x3d, 0x1b, 0x18, 0x20, 0x3d, 0x0b, 0x02, 0x60, 0x3e,
  0x66, 0x51, 0xfe, 0x3d, 0x2f, 0xad, 0xa7, 0x3e, 0x12, 0x18, 0x87, 0xbb,
  0x9e, 0xe4, 0x06, 0xbe, 0xea, 0x67, 0x42, 0xbc, 0x25, 0x5a, 0x66, 0x3d,
  0x00, 0x59, 0x55, 0xbc, 0x26, 0x12, 0xba, 0x3c, 0xb5, 0xc8, 0x06, 0xbe,
  0x31, 0xfa, 0x71, 0x3d, 0xa0, 0xfa, 0xe7, 0x3c, 0xb6, 0x6c, 0x3c, 0xbe,
  0x83, 0xd9, 0xc5, 0xbb, 0x9c, 0x30, 0x9a, 0x3d, 0x2b, 0x35, 0x67, 0xbe,
  0x79, 0x3f, 0xc8, 0x3d, 0x40, 0x28, 0xe0, 0xbd, 0x24, 0xb6, 0x39, 0xbd,
  0xcf, 0x12, 0x33, 0x3e, 0x67, 0x70, 0x25, 0x3e, 0xe7, 0xb7, 0xef, 0x3d,
  0x20, 0x0a, 0x66, 0xbd, 0x43, 0x60, 0x55, 0x3d, 0x40, 0x4c, 0x24, 0xba,
  0xa9, 0xe7, 0x1c, 0x3d, 0x51, 0x6c, 0x05, 0xbc, 0xd6, 0x37, 0x79, 0xbe,
  0xbd, 0x13, 0x91, 0x3d, 0xdd, 0x61, 0x19, 0x3c, 0xd5, 0x77, 0xc5, 0x3d,
  0xa3, 0x3e, 0x0e, 0xbe, 0x47, 0x80, 0xa9, 0x3d, 0xdc, 0x5c, 0x5a, 0xbc,
  0xe8, 0xaf, 0x67, 0x3e, 0xc7, 0x0e, 0x13, 0x3e, 0x40, 0x1e, 0xc3, 0x3d,
  0x6c, 0x30, 0x85, 0xbd, 0x55, 0x01, 0x19, 0x3e, 0xad, 0x6b, 0x5e, 0x3d,
  0xc9, 0x03, 0xa8, 0xbd, 0x86, 0xfd, 0x53, 0x3d, 0x21, 0x20, 0xdf, 0x3d,
  0x22, 0x69, 0x5c, 0xbd, 0xbc, 0x89, 0xc8, 0x3d, 0x24, 0x26, 0xc0, 0x3c,
  0x14, 0xde, 0x19, 0x3e, 0x06, 0x0a, 0x9e, 0xbe, 0x10, 0xd7, 0xac, 0xbd,
  0x9b, 0x8b, 0x58, 0x3e, 0x16, 0x07, 0x0f, 0x3d, 0x66, 0x2f, 0xd2, 0xbd,
  0xd6, 0x0a, 0xa5, 0x3c, 0x9f, 0xb8, 0x82, 0x3c, 0x02, 0x03, 0x5a, 0x3e,
  0xfd, 0xcf, 0x2d, 0x3e, 0xbd, 0x4c, 0x8f, 0xbe, 0x43, 0x92, 0x65, 0x3e,
  0x13, 0x0e, 0x03, 0xbe, 0x01, 0x81, 0x34, 0xbe, 0x0a, 0x14, 0x04, 0x3e,
  0x8f, 0x07, 0x81, 0x3e, 0xa6, 0x0d, 0x04, 0x3d, 0xd9, 0xcb, 0x9b, 0xbe,
  0x40, 0xcd, 0x6d, 0xba, 0xde, 0x34, 0x91, 0xbd, 0x6d, 0xd2, 0x1c, 0xbe,
  0x96, 0xde, 0x94, 0xbd, 0x0f, 0xb5, 0xab, 0x3d, 0xe9, 0xc6, 0x11, 0x3e,
  0x0e, 0x9f, 0x94, 0xbd, 0xdb, 0x02, 0x21, 0x3e, 0x41, 0x91, 0x5a, 0xbe,
  0xc7, 0xb2, 0x62, 0x3e, 0xcf, 0x47, 0xf5, 0xbd, 0x7e, 0x7b, 0x68, 0xbe,
  0x0b, 0x7a, 0x38, 0xbe, 0xd4, 0x7b, 0x0e, 0xbc, 0x14, 0x16, 0xd0, 0xbc,
  0x5d, 0x0d, 0x4e, 0xbe, 0x90, 0x81, 0x8f, 0xbd, 0xd0, 0x6c, 0x36, 0xbe,
  0x62, 0x83, 0x25, 0xbe, 0x0b, 0x7a, 0x63, 0xbd, 0xec, 0x80, 0x0f, 0x3e,
  0x05, 0xe7, 0x06, 0xbe, 0xb0, 0x4f, 0x9f, 0xbd, 0x6f, 0x19, 0x8f, 0x3d,
  0x97, 0x16, 0xab, 0xbe, 0x40, 0xd2, 0x52, 0xbe, 0x3b, 0xa0, 0xc9, 0x3d,
  0x17, 0x70, 0xa9, 0xbe, 0x09, 0x7e, 0xe1, 0xbd, 0x45, 0x07, 0xde, 0x3d,
  0x03, 0x35, 0x0f, 0x3e, 0xa4, 0x26, 0xe2, 0xbd, 0x30, 0x0f, 0x74, 0x3d,
  0xfd, 0x88, 0x4b, 0xbe, 0x83, 0x73, 0xac, 0xbd, 0x7e, 0x75, 0x1f, 0x3e,
  0x93, 0x93, 0x13, 0x3e, 0x02, 0x45, 0xd4, 0xbd, 0x5e, 0xa5, 0xdb, 0xbd,
  0x28, 0x92, 0x81, 0x3e, 0xe1, 0x5f, 0xe5, 0xbe, 0xfe, 0x75, 0x85, 0xbd,
  0x76, 0x2d, 0x44, 0x39, 0x5e, 0x34, 0x6f, 0x3c, 0x2f, 0xcd, 0xf6, 0x3d,
  0xf8, 0x4c, 0x95, 0xba, 0x6f, 0xce, 0x1a, 0x3e, 0x04, 0x73, 0x0b, 0x3e,
  0xad, 0xcb, 0x98, 0xbd, 0x75, 0xe3, 0x6d, 0x3d, 0xed, 0x4c, 0x29, 0x3d,
  0xd2, 0xde, 0xf4, 0x3c, 0xe8, 0x26, 0x8d, 0x3e, 0x0c, 0x24, 0xc6, 0x3d,
  0x43, 0x35, 0xde, 0xbd, 0x1d, 0x9a, 0xdc, 0xbc, 0x76, 0x99, 0x80, 0x3e,
  0xb5, 0xa2, 0x07, 0x3e, 0x49, 0x37, 0x7b, 0xbe, 0xf1, 0xcc, 0xd7, 0x3d,
  0xd3, 0x0d, 0xca, 0x3c, 0xcc, 0x5b, 0x5e, 0xbe, 0x3f, 0xdc, 0x8a, 0x3c,
  0x35, 0xeb, 0xe4, 0xbc, 0x84, 0x8e, 0x0d, 0x3e, 0xa9, 0x73, 0x02, 0xbe,
  0x0a, 0x5b, 0x58, 0xbc, 0xab, 0x98, 0xf5, 0xbd, 0xc3, 0x90, 0x02, 0xbd,
  0x42, 0x75, 0x50, 0x3e, 0xf2, 0x95, 0xb0, 0xbd, 0xc7, 0x43, 0x8b, 0x3e,
  0xe2, 0x47, 0xdf, 0xbd, 0xbe, 0x85, 0x71, 0xbe, 0xd5, 0x5c, 0xb6, 0xbd,
  0x2b, 0x68, 0x81, 0xbd, 0xf6, 0x60, 0xcd, 0xbd, 0xde, 0x12, 0x22, 0x3e,
  0xcf, 0x0c, 0x39, 0x3d, 0x60, 0x3a, 0xe7, 0x3d, 0x81, 0xd2, 0x3f, 0xbb,
  0x4e, 0xd3, 0x4e, 0xbe, 0x5d, 0x9e, 0xfc, 0xbd, 0x1a, 0x34, 0xb8, 0xbd,
  0x4a, 0xcf, 0x3f, 0xbe, 0xa9, 0xf5, 0x32, 0xbe, 0x5e, 0xdf, 0x4c, 0xbe,
  0x2b, 0x8a, 0xd3, 0x3c, 0x13, 0xe2, 0x45, 0x3c, 0x83, 0xd0, 0x2c, 0xbd,
  0xeb, 0xd7, 0x90, 0x3e, 0xae, 0xc4, 0x8f, 0xbe, 0xd9, 0x3a, 0x36, 0xbe,
  0x56, 0xdf, 0x21, 0xbe, 0x79, 0x0e, 0x23, 0xbe, 0xd6, 0xf5, 0x22, 0xbe,
  0x23, 0xa2, 0x28, 0x3e, 0x5c, 0x76, 0xa9, 0x3c, 0x2d, 0xd2, 0x14, 0x3d,
  0x52, 0x98, 0xd0, 0xbd, 0xc6, 0xfb, 0xd5, 0xbd, 0x2a, 0x06, 0x6d, 0x3d,
  0xb1, 0x5b, 0x09, 0x3e, 0x46, 0x8e, 0x61, 0xbe, 0xe7, 0xe1, 0x78, 0x3d,
  0xae, 0x7e, 0xc6, 0x3d, 0xef, 0x4e, 0xb6, 0x3d, 0xf0, 0x2d, 0x69, 0xbe,
  0xf4, 0xf2, 0xda, 0x3c, 0x92, 0x9f, 0x63, 0xbe, 0x18, 0xcd, 0xeb, 0xbd,
  0xbf, 0x50, 0x9f, 0xbd, 0xc2, 0x44, 0x0a, 0x3e, 0x79, 0x66, 0x37, 0xbe,
  0x96, 0x65, 0x32, 0x3e, 0x79, 0x49, 0xab, 0xbe, 0x48, 0x63, 0x11, 0xbe,
  0x42, 0xee, 0x5b, 0xbe, 0xa7, 0xe8, 0x3e, 0xbe, 0x2f, 0xa5, 0x8e, 0xbe,
  0x5f, 0xbb, 0x09, 0xbd, 0x60, 0x30, 0x0c, 0x3e, 0x14, 0x7e, 0x95, 0x3d,
  0x80, 0x78, 0xa2, 0xbe, 0x7c, 0x6d, 0x2f, 0x3e, 0x29, 0x7f, 0x99, 0x3d,
  0xe9, 0xb2, 0xa1, 0x3d, 0x87, 0x2b, 0x2b, 0xbe, 0x7f, 0xa7, 0xa2, 0x3e,
  0x48, 0x74, 0x0d, 0x3e, 0xf9, 0x59, 0xbf, 0x3d, 0x2f, 0x65, 0x42, 0xbd,
  0xf0, 0x89, 0x96, 0x3d, 0x97, 0x1c, 0x0a, 0x3e, 0xee, 0x9b, 0x19, 0xbd,
  0xcb, 0x3f, 0xf2, 0xbd, 0x8e, 0xd6, 0xd6, 0xbe, 0x01, 0x08, 0x94, 0xbc,
  0xbd, 0xd4, 0xe1, 0xbd, 0x33, 0xb1, 0xc9, 0xbd, 0x9b, 0x3b, 0x22, 0xbe,
  0xd7, 0xb4, 0x3f, 0xbd, 0xd4, 0x64, 0x1b, 0x3d, 0x00, 0xdf, 0xa5, 0xbd,
  0x68, 0xa8, 0xa6, 0x3e, 0x1f, 0xd1, 0x08, 0x3e, 0x0c, 0xdb, 0x1e, 0xbd,
  0x4f, 0x05, 0x7c, 0xbe, 0x74, 0xa5, 0x23, 0xbe, 0xb6, 0x63, 0x99, 0x3e,
  0x56, 0xd8, 0x6f, 0xbe, 0xd6, 0x68, 0x9a, 0xbc, 0x77, 0xdf, 0x62, 0xbe,
  0xa7, 0xe8, 0x99, 0xbb, 0xda, 0x4b, 0x26, 0x3e, 0xea, 0xae, 0x1e, 0xbd,
  0xcc, 0x09, 0x06, 0x3e, 0x31, 0x7e, 0xa4, 0xbd, 0xbd, 0x13, 0x51, 0xbd,
  0x98, 0x7c, 0xf9, 0xbd, 0x82, 0xcf, 0x8b, 0x3e, 0xe7, 0xf2, 0x91, 0xbd,
  0xe1, 0xe1, 0x67, 0x3e, 0xad, 0xef, 0xd7, 0xbc, 0x6a, 0x36, 0x93, 0xbd,
  0x94, 0x09, 0x6b, 0xbd, 0xa5, 0x1b, 0x32, 0xbd, 0x3a, 0x02, 0x62, 0x3d,
  0x9b, 0x62, 0x56, 0xbe, 0x6b, 0x33, 0x56, 0xbe, 0x6f, 0x7d, 0x8d, 0x3e,
  0xf6, 0x1f, 0x0c, 0x3d, 0xec, 0x4d, 0xa0, 0x3c, 0x00, 0xb1, 0x8d, 0x3e,
  0x5f, 0x2a, 0x19, 0x3d, 0x2c, 0xd5, 0x98, 0x3c, 0x99, 0x41, 0xca, 0x3d,
  0x45, 0x2a, 0xcb, 0x3f, 0xbd, 0xaf, 0x20, 0x3b, 0x06, 0x6b, 0x90, 0x3e,
  0x08, 0xe2, 0xd8, 0xbd, 0xe9, 0xde, 0x13, 0xbe, 0x40, 0xde, 0xec, 0x3d,
  0x0e, 0x21, 0xe8, 0xbd, 0xdc, 0xfb, 0xe7, 0xbe, 0x5e, 0xec, 0xfa, 0xbd,
  0x4d, 0xb3, 0xfa, 0xbd, 0x7b, 0xf9, 0xb4, 0x3d, 0x2c, 0xc0, 0xe5, 0x3d,
  0x3a, 0x07, 0x53, 0x3e, 0x86, 0x07, 0x11, 0x3e, 0x6a, 0x88, 0x8d, 0xbd,
  0xa7, 0xbc, 0x76, 0x3d, 0xe6, 0xe9, 0xba, 0x3f, 0xd7, 0x27, 0xf6, 0xbb,
  0x05, 0x4a, 0xcb, 0x3d, 0xeb, 0x3d, 0x5e, 0xbe, 0xdf, 0xc3, 0xd3, 0x3d,
  0x42, 0xa4, 0xcc, 0x3d, 0x34, 0x81, 0x7c, 0xbe, 0x2e, 0xf1, 0xf5, 0xbe,
  0xf2, 0x9d, 0x01, 0x3e, 0x99, 0x28, 0x92, 0xbe, 0x5c, 0x4d, 0x21, 0x3e,
  0xe1, 0x1e, 0x09, 0xbe, 0xb0, 0x79, 0xdd, 0x3d, 0x51, 0x0b, 0xac, 0x3d,
  0xdb, 0x01, 0x03, 0xbd, 0xcf, 0xd6, 0xe4, 0x3d, 0x3a, 0x02, 0x06, 0x40,
  0xd3, 0x48, 0xfe, 0xbd, 0x80, 0x46, 0x45, 0x3e, 0x89, 0x91, 0xa0, 0xbe,
  0x29, 0x34, 0x45, 0x3c, 0x13, 0x44, 0x42, 0x3d, 0x63, 0xa6, 0xf1, 0x3d,
  0x7d, 0x55, 0xe7, 0xbe, 0x4c, 0x72, 0x56, 0x3e, 0x67, 0x52, 0x40, 0xbe,
  0xf0, 0x90, 0xa4, 0x3d, 0xd1, 0x9c, 0x29, 0xbe, 0xc8, 0x4c, 0x6e, 0x3e,
  0x34, 0x04, 0xe3, 0x3d, 0x96, 0x3e, 0xc8, 0xbc, 0x54, 0x97, 0x42, 0x3e,
  0x1a, 0xda, 0x8f, 0x3f, 0x45, 0x4d, 0x47, 0xbd, 0xe4, 0x3a, 0x08, 0x3e,
  0x05, 0xeb, 0xc4, 0xbd, 0xcc, 0x71, 0x8f, 0xbe, 0xd8, 0xad, 0x5f, 0x3e,
  0x2a, 0xed, 0x7e, 0xbd, 0xc6, 0xa3, 0x85, 0xbe, 0x9b, 0xfc, 0x9a, 0xbd,
  0xf0, 0x86, 0x83, 0x3d, 0xa0, 0x15, 0xfd, 0xbb, 0x1a, 0xf7, 0x40, 0xbe,
  0x2c, 0x21, 0xfc, 0x3d, 0xa1, 0xc5, 0x4d, 0x3e, 0x22, 0x81, 0x1f, 0xbd,
  0x13, 0xdb, 0xab, 0xbe, 0xae, 0x78, 0x7f, 0x3f, 0x99, 0x84, 0x59, 0xbe,
  0x4b, 0xf5, 0xdd, 0x3d, 0xba, 0xee, 0x00, 0x3d, 0x52, 0x0d, 0xdc, 0xbe,
  0x87, 0x76, 0x81, 0x3e, 0x0f, 0x93, 0x0d, 0xbe, 0xb1, 0xd3, 0x96, 0xbe,
  0x0d, 0x93, 0x64, 0xbe, 0x58, 0x56, 0xa5, 0xbd, 0x79, 0xc9, 0xe7, 0x3d,
  0x3e, 0x2a, 0xbe, 0xbd, 0xcd, 0xc0, 0x63, 0x3e, 0x20, 0x52, 0xca, 0x3d,
  0x90, 0xc1, 0x4e, 0xbd, 0xc0, 0xea, 0xa0, 0xbe, 0x60, 0x1e, 0xa8, 0x3f,
  0x23, 0x75, 0x75, 0xbe, 0x05, 0x3e, 0x85, 0x3e, 0xb1, 0xe0, 0xa3, 0xbd,
  0x9a, 0x6a, 0x0e, 0xbe, 0xf5, 0x10, 0xb5, 0x3e, 0x1e, 0x7a, 0x94, 0xbe,
  0x30, 0x13, 0xd7, 0xbe, 0x67, 0x8a, 0x93, 0x3c, 0xff, 0x30, 0x83, 0x3d,
  0x4d, 0x0e, 0xd9, 0x3d, 0x92, 0x79, 0xc2, 0x3d, 0x95, 0x93, 0x9a, 0xb9,
  0xd4, 0x74, 0x10, 0x3e, 0xf9, 0x43, 0x82, 0xbc, 0x47, 0x88, 0x94, 0xbe,
  0xd8, 0xa4, 0xed, 0x3e, 0xd1, 0x1e, 0x5b, 0xbe, 0x71, 0x1c, 0xba, 0x3d,
  0xe4, 0xd2, 0x24, 0xbe, 0x0d, 0x81, 0x4e, 0xbe, 0x0f, 0xb7, 0x38, 0x3d,
  0x4d, 0x79, 0xb7, 0xbe, 0xde, 0x49, 0xce, 0xbe, 0x5e, 0xe1, 0x13, 0x3d,
  0x76, 0xd2, 0x0e, 0x3c, 0xdf, 0xf7, 0x33, 0x3c, 0xf3, 0x01, 0xc9, 0xbd,
  0x45, 0x30, 0x39, 0xbe, 0x1a, 0x3e, 0x59, 0xbe, 0x32, 0x97, 0x0a, 0xbd,
  0x6c, 0x17, 0x4f, 0x3d, 0x70, 0x97, 0x83, 0x3d, 0xf7, 0x2c, 0x44, 0x3d,
  0x9d, 0x7d, 0x86, 0xbe, 0xa7, 0x33, 0x02, 0xbe, 0x01, 0xe1, 0xb9, 0x3c,
  0xe5, 0x3c, 0xbf, 0xbc, 0xcb, 0x6d, 0xc7, 0xbd, 0x39, 0xb6, 0xb6, 0x3d,
  0x08, 0x07, 0x8e, 0x3d, 0x7b, 0x40, 0xbd, 0x3d, 0x8a, 0x91, 0x02, 0xbd,
  0x6f, 0x69, 0x1b, 0xbe, 0x4f, 0x7d, 0x89, 0xbd, 0xad, 0xe0, 0x78, 0xbd,
  0x58, 0x8b, 0x6e, 0xbe, 0x02, 0xb0, 0x2c, 0x3d, 0x51, 0x75, 0x12, 0x3e,
  0x22, 0x34, 0x14, 0x3e, 0x28, 0x7c, 0x9c, 0xbe, 0x03, 0xa4, 0x05, 0xbe,
  0x5f, 0xf8, 0x48, 0xbc, 0x51, 0x12, 0x82, 0xbe, 0xc2, 0x4f, 0xd6, 0xbd,
  0xb4, 0xd2, 0x2b, 0x3e, 0xf0, 0xde, 0x24, 0xbe, 0xc4, 0x0e, 0xbe, 0x3b,
  0x58, 0x95, 0xd5, 0xbd, 0x33, 0x18, 0xeb, 0xbd, 0x6f, 0x5b, 0xc0, 0xbd,
  0x84, 0x54, 0xb8, 0xbd, 0xbf, 0x1a, 0x41, 0xbc, 0x4c, 0xc6, 0x04, 0x3e,
  0x16, 0x47, 0x87, 0x3c, 0x9c, 0xc9, 0xa0, 0x3c, 0xf1, 0xfd, 0x57, 0xbd,
  0x20, 0xe2, 0x53, 0x3c, 0xfa, 0x50, 0xb0, 0x3d, 0xef, 0xf5, 0x13, 0x3e,
  0x99, 0xab, 0xbf, 0x3c, 0xe6, 0x8e, 0x34, 0x3e, 0x8d, 0xf2, 0xc9, 0xbd,
  0x77, 0x77, 0x28, 0x3d, 0x8b, 0xe2, 0x67, 0xbc, 0x55, 0x52, 0x9d, 0x3c,
  0x64, 0x9a, 0x35, 0x3d, 0xa0, 0x62, 0xc1, 0xbd, 0xea, 0x5c, 0x3f, 0xbe,
  0x49, 0xa0, 0x53, 0xbe, 0x94, 0xf3, 0xe5, 0xbc, 0x54, 0x6e, 0xc3, 0x3d,
  0x17, 0x1f, 0xa1, 0x3d, 0x66, 0xb1, 0x9e, 0x3c, 0x7a, 0xb8, 0x50, 0x3e,
  0x67, 0xd5, 0xe6, 0x3c, 0xc0, 0x59, 0x25, 0xbd, 0x20, 0x62, 0x95, 0xbc,
  0xba, 0x3e, 0x08, 0x3e, 0x54, 0x4c, 0xde, 0x3e, 0xfd, 0x2d, 0xd5, 0xbc,
  0xa3, 0xd1, 0xc1, 0x3c, 0x6b, 0x2c, 0xa5, 0x3d, 0xc9, 0xb5, 0xde, 0xbd,
  0xb8, 0x03, 0x0f, 0xbe, 0x4a, 0xc0, 0x89, 0x3e, 0x86, 0xa3, 0x03, 0x3e,
  0x31, 0x43, 0x22, 0xbe, 0x80, 0x08, 0x93, 0xbb, 0xdf, 0xcf, 0x86, 0xbd,
  0x8f, 0x1f, 0x6c, 0xbd, 0xba, 0x3a, 0xbb, 0x3c, 0xf6, 0xc1, 0x03, 0x3b,
  0x93, 0x7e, 0x36, 0x3e, 0x93, 0x81, 0x31, 0xbe, 0x55, 0x00, 0x40, 0x3d,
  0x4f, 0xdb, 0xc8, 0xbe, 0x0e, 0x85, 0x71, 0x3d, 0x9c, 0xa2, 0x15, 0xbe,
  0x40, 0x48, 0x37, 0xbf, 0x18, 0xab, 0xa7, 0xbe, 0xdb, 0x15, 0x8d, 0x3e,
  0xf2, 0x6f, 0x71, 0xbd, 0x85, 0x89, 0x87, 0xbd, 0x5a, 0x49, 0x67, 0x3d,
  0x9e, 0xbd, 0x36, 0xbd, 0x25, 0xa0, 0x46, 0xbe, 0x46, 0xb8, 0x83, 0xbe,
  0x8d, 0x6d, 0x5c, 0x3e, 0x30, 0x99, 0x56, 0x3e, 0xb5, 0xee, 0x52, 0xbe,
  0xda, 0x4c, 0x96, 0xbe, 0x28, 0x3c, 0x4c, 0x3e, 0x76, 0xc7, 0x1a, 0x3e,
  0xaf, 0x0c, 0x94, 0xbe, 0xfe, 0x75, 0x02, 0xbe, 0x39, 0x92, 0x0a, 0xbf,
  0x6d, 0x89, 0x77, 0x3d, 0x9d, 0xf1, 0xae, 0xbd, 0x2b, 0xcb, 0x95, 0x3d,
  0xdd, 0x45, 0x90, 0x3d, 0x74, 0xd0, 0xca, 0xbd, 0xfb, 0x58, 0xb8, 0xbc,
  0x6a, 0x7e, 0x0a, 0xbe, 0x5a, 0x0a, 0x53, 0xbc, 0xf3, 0x9e, 0x56, 0x3c,
  0xbe, 0x2f, 0xe2, 0xbc, 0xa9, 0x91, 0xbe, 0x3c, 0xea, 0x1c, 0x39, 0xbe,
  0x40, 0x6f, 0x63, 0xbd, 0x8c, 0xc5, 0xcb, 0xbc, 0x49, 0xc7, 0x8c, 0xbe,
  0x7c, 0x78, 0xa4, 0xbd, 0x5a, 0xd1, 0xaf, 0x3d, 0x2e, 0x42, 0x26, 0xbe,
  0xf6, 0x84, 0x34, 0x3c, 0x2a, 0x12, 0x81, 0xbd, 0xcf, 0x3e, 0x1b, 0xbc,
  0x93, 0x0e, 0x87, 0x3c, 0xf2, 0x89, 0x42, 0x3d, 0x87, 0xec, 0x68, 0x3d,
  0xc1, 0x78, 0x3b, 0xbe, 0x33, 0x36, 0x4f, 0xbe, 0xbf, 0x78, 0x0a, 0xbe,
  0x67, 0x66, 0xdc, 0x3d, 0xc4, 0x6a, 0xe0, 0x3d, 0x08, 0x78, 0x6d, 0x3d,
  0x55, 0x8c, 0x7b, 0xbd, 0xf2, 0x20, 0xc2, 0xbe, 0x08, 0x1f, 0x2f, 0xbe,
  0x0d, 0x56, 0x0f, 0x3e, 0x2b, 0xde, 0xa5, 0xbd, 0xd9, 0x20, 0xba, 0xbd,
  0xec, 0x58, 0x81, 0xbd, 0x1b, 0x32, 0x0b, 0xbc, 0xcd, 0xc4, 0xf6, 0xbd,
  0x2d, 0xde, 0xd9, 0x3d, 0xfd, 0x41, 0xc3, 0xbd, 0xa5, 0xb9, 0x28, 0xbc,
  0xa6, 0x9f, 0x3c, 0xbe, 0x7e, 0xa3, 0xe4, 0x3d, 0x25, 0xfe, 0x3e, 0x3d,
  0x11, 0xad, 0x2a, 0xbe, 0x0d, 0x98, 0x28, 0xbc, 0x99, 0x77, 0x81, 0xbe,
  0xfd, 0xb9, 0xb0, 0xbd, 0x77, 0x69, 0xb7, 0xbb, 0xc5, 0xc1, 0x34, 0xbe,
  0x7d, 0x7a, 0x35, 0xbe, 0xcb, 0xec, 0x2c, 0xbd, 0x76, 0x23, 0x13, 0xbe,
  0xa5, 0xf2, 0x4b, 0xbe, 0xbd, 0xbb, 0x9c, 0xbd, 0x99, 0xc4, 0x61, 0xbe,
  0xfb, 0x51, 0x16, 0x3e, 0xdc, 0x81, 0x91, 0x3c, 0x99, 0x53, 0x44, 0xbe,
  0xdc, 0x37, 0xe5, 0xbd, 0x00, 0x11, 0x42, 0x3c, 0x45, 0xc3, 0xf6, 0xbd,
  0x7a, 0xce, 0x33, 0xbe, 0x66, 0x3b, 0x56, 0x3e, 0xa6, 0x9e, 0x4c, 0xbe,
  0xbd, 0xb3, 0xf7, 0xbd, 0x4a, 0x50, 0xcf, 0xbd, 0x7a, 0x9d, 0x0b, 0xbe,
  0xb3, 0xd7, 0x1d, 0xbe, 0xed, 0x23, 0x09, 0xbd, 0x3f, 0xb8, 0x5d, 0xbe,
  0xb7, 0x05, 0x28, 0x3e, 0x47, 0x4c, 0x93, 0x3d, 0x25, 0xec, 0x16, 0x3d,
  0x5b, 0xe0, 0x5e, 0x3d, 0x7e, 0x8f, 0x8f, 0xbd, 0x47, 0x87, 0x8c, 0x3d,
  0x17, 0x85, 0x63, 0xbd, 0x29, 0x51, 0xb8, 0xbd, 0x22, 0x6d, 0x9e, 0xbd,
  0xf0, 0x21, 0x01, 0xbb, 0xfc, 0xbb, 0xfc, 0xbd, 0x95, 0xb8, 0x94, 0xbe,
  0x14, 0xda, 0x6f, 0x3d, 0x2a, 0x3d, 0x09, 0x3e, 0xd4, 0xc2, 0xa4, 0x3d,
  0x45, 0x84, 0x35, 0xbd, 0xba, 0x44, 0x16, 0x3b, 0x3f, 0xa7, 0x12, 0xbe,
  0x58, 0x80, 0x16, 0x3e, 0xbb, 0x54, 0x91, 0xbd, 0xd0, 0x35, 0x58, 0xbe,
  0xe4, 0x60, 0x06, 0x3d, 0x14, 0x96, 0x60, 0xbd, 0xb7, 0x6d, 0xa0, 0xbe,
  0xa6, 0xe3, 0x15, 0xbe, 0x8c, 0x5a, 0x5e, 0xbd, 0x31, 0x85, 0x1a, 0x3d,
  0xa3, 0x23, 0xd9, 0xbd, 0xd3, 0x4c, 0x19, 0xbe, 0x02, 0x93, 0xed, 0xbd,
  0x15, 0x54, 0x4c, 0xbc, 0x94, 0x54, 0x97, 0xbd, 0x83, 0x9f, 0xbf, 0x3d,
  0xc6, 0x25, 0xb6, 0xbd, 0x21, 0x46, 0x0f, 0x3e, 0x79, 0x62, 0xb9, 0x3d,
  0x60, 0x9a, 0xb3, 0x3d, 0x40, 0xca, 0x04, 0xbe, 0x87, 0xd4, 0x9f, 0x3d,
  0xb4, 0xe3, 0x14, 0xbe, 0x40, 0x2d, 0x3a, 0xbe, 0x13, 0xac, 0xf3, 0x3d,
  0x82, 0x3f, 0x3b, 0xbe, 0xb7, 0xc6, 0x82, 0xbd, 0x8a, 0xcd, 0xc9, 0xbb,
  0xd4, 0xb4, 0x87, 0x3d, 0x18, 0xd4, 0xdb, 0xbd, 0x0a, 0x3d, 0xa9, 0xbd,
  0x1f, 0xb3, 0xaa, 0x3d, 0x6f, 0x45, 0x6b, 0xbe, 0x4f, 0x1b, 0x4b, 0x3e,
  0x99, 0xba, 0x2a, 0xbe, 0x3d, 0x0e, 0x40, 0x3d, 0x3f, 0x1c, 0xb6, 0x3e,
  0xa8, 0x0d, 0x77, 0x3d, 0x85, 0x17, 0x28, 0xbe, 0x47, 0x4a, 0xf9, 0xbc,
  0xc9, 0x15, 0xeb, 0x3f, 0x52, 0x64, 0x8c, 0xbd, 0x8d, 0xe2, 0x44, 0x3e,
  0x7a, 0xd7, 0x22, 0x3e, 0x4b, 0x69, 0x19, 0xbf, 0x92, 0xf8, 0xbc, 0x3e,
  0x83, 0x9c, 0x06, 0xbe, 0xfc, 0xce, 0xb7, 0xbc, 0x12, 0xa8, 0x1e, 0xbe,
  0xe7, 0x6e, 0xd1, 0xbd, 0x1e, 0xea, 0xb5, 0x3c, 0xff, 0x28, 0x23, 0xbe,
  0x74, 0x60, 0x5d, 0x3e, 0x59, 0xab, 0xb2, 0xbb, 0x40, 0x50, 0xe1, 0xbd,
  0x23, 0x18, 0x4e, 0x3d, 0xa8, 0x6e, 0xe1, 0x3f, 0x21, 0x08, 0x02, 0xbe,
  0x06, 0x09, 0xb4, 0x3e, 0xe2, 0x24, 0x21, 0x3e, 0x50, 0x13, 0x2c, 0x3e,
  0x2d, 0x21, 0x63, 0x3e, 0xb3, 0x71, 0x0b, 0xbe, 0xef, 0x89, 0xe4, 0xbe,
  0x76, 0x90, 0x6d, 0x3c, 0xc0, 0x67, 0x56, 0xbe, 0x91, 0xd8, 0xaa, 0x3d,
  0x2f, 0xc0, 0x95, 0xbd, 0x64, 0xbe, 0x82, 0x3d, 0xe7, 0xde, 0xbe, 0x3d,
  0x8d, 0x45, 0xad, 0xbc, 0x46, 0x64, 0x44, 0xbe, 0x96, 0xd9, 0x12, 0x40,
  0x56, 0x46, 0x77, 0x3c, 0xc8, 0x6f, 0x6a, 0x3e, 0x6a, 0xae, 0x05, 0xbb,
  0x4a, 0xe0, 0x50, 0xbd, 0x69, 0xaa, 0x73, 0x3c, 0xbe, 0x38, 0x87, 0x3d,
  0x59, 0x50, 0x58, 0xbe, 0x5d, 0x8c, 0x42, 0x3e, 0x7e, 0xb2, 0x2d, 0xbe,
  0x59, 0x9c, 0xea, 0x3d, 0x5a, 0x61, 0xe0, 0x3d, 0x61, 0xdf, 0x6c, 0x3e,
  0xbd, 0xb1, 0xf8, 0x3c, 0x64, 0x3a, 0x50, 0xbd, 0xdf, 0xa6, 0x2f, 0xbd,
  0x69, 0xd5, 0xa0, 0x3f, 0x9c, 0x57, 0xa8, 0xbd, 0xb8, 0x78, 0x80, 0x3d,
  0x70, 0x5b, 0x04, 0xbe, 0x21, 0xb8, 0x5c, 0xbe, 0xf6, 0x28, 0x5f, 0x3e,
  0x92, 0xde, 0x9e, 0x3d, 0x27, 0x74, 0x20, 0xbe, 0xd9, 0x36, 0x11, 0xbd,
  0x6d, 0x26, 0x4b, 0x3d, 0x91, 0x92, 0xcc, 0x3d, 0xda, 0x3d, 0x61, 0x3e,
  0xba, 0xd1, 0x13, 0x3e, 0x72, 0xa8, 0x9f, 0x3e, 0xa8, 0xd7, 0xa1, 0xbd,
  0xc7, 0x84, 0x03, 0xbf, 0x77, 0xea, 0xb6, 0x3f, 0x64, 0x2f, 0x2f, 0xbf,
  0x53, 0x0c, 0x43, 0x3e, 0xbf, 0xde, 0xcd, 0xbd, 0xa4, 0x74, 0xf4, 0xbd,
  0xff, 0xd1, 0x96, 0x3e, 0x50, 0xf1, 0x85, 0xbd, 0x8b, 0x5d, 0x76, 0xbe,
  0x8a, 0xa3, 0xa6, 0xbe, 0x12, 0x69, 0xa2, 0xbe, 0x0b, 0x5b, 0xf0, 0x3d,
  0x87, 0x31, 0x41, 0x3c, 0xf0, 0x5a, 0x80, 0x3e, 0x45, 0xf7, 0x42, 0x3e,
  0x61, 0xe1, 0xac, 0xbd, 0xb9, 0x11, 0x2e, 0xbf, 0xec, 0x85, 0xba, 0x3f,
  0xf4, 0x20, 0x8f, 0xbe, 0x3b, 0xb8, 0xd6, 0x3d, 0xe3, 0x71, 0xa8, 0x3d,
  0x01, 0xd4, 0x00, 0xbf, 0x4d, 0x1f, 0x4a, 0x3e, 0x53, 0x22, 0x76, 0xbe,
  0x1c, 0x74, 0x7a, 0xbe, 0xb9, 0x63, 0x87, 0xbd, 0xa4, 0x79, 0x00, 0x3e,
  0x5a, 0xd5, 0x21, 0x3e, 0xd7, 0x50, 0x5c, 0x3e, 0x8a, 0x58, 0x21, 0xbd,
  0x7d, 0x31, 0x31, 0x3e, 0x5b, 0xd4, 0x55, 0x3d, 0x0f, 0xd4, 0x61, 0xbe,
  0x30, 0x98, 0x05, 0x3f, 0x97, 0x8e, 0xb0, 0x3d, 0x17, 0x02, 0x1c, 0xbd,
  0x5d, 0x01, 0x8d, 0x3e, 0x77, 0x16, 0x2f, 0xbd, 0x75, 0x67, 0xc2, 0x3c,
  0xe7, 0x5d, 0xb5, 0xbd, 0x13, 0xa0, 0xd2, 0x3d, 0x8d, 0xab, 0xad, 0xbe,
  0x0f, 0x1d, 0x4b, 0xbe, 0xc9, 0x0c, 0x5f, 0xbd, 0x01, 0x8b, 0x4b, 0xbd,
  0x15, 0x05, 0xd4, 0xbe, 0xd3, 0xa4, 0x9c, 0xbd, 0x81, 0xff, 0x48, 0xbc,
  0x90, 0x67, 0x73, 0x3d, 0x97, 0x28, 0x94, 0x3d, 0xab, 0x0f, 0xe2, 0xbc,
  0x3f, 0xd4, 0x7e, 0xbd, 0x4f, 0xcf, 0x98, 0xbe, 0x4c, 0xf9, 0x3d, 0xbd,
  0xa5, 0x54, 0x99, 0xbe, 0x7b, 0xcd, 0xdc, 0xbe, 0x48, 0x56, 0x17, 0xbf,
  0x3e, 0x6d, 0xb1, 0xbd, 0x9b, 0x8c, 0x83, 0xbc, 0x5e, 0x87, 0xfc, 0xbc,
  0x3d, 0x51, 0x04, 0xbe, 0x90, 0x20, 0xc6, 0xbe, 0x4e, 0xac, 0x63, 0xbd,
  0x1a, 0x29, 0x1c, 0x3d, 0x7f, 0x07, 0xf6, 0x3d, 0x4d, 0x1e, 0xcf, 0xbd,
  0xc4, 0xee, 0x55, 0xbe, 0xbf, 0xc9, 0x4f, 0xbf, 0x0d, 0x98, 0xc7, 0xbe,
  0x2c, 0x6a, 0x34, 0xbd, 0x37, 0x60, 0xd7, 0xbd, 0xef, 0x56, 0x1d, 0xbe,
  0x77, 0x5f, 0xae, 0xbb, 0x09, 0x06, 0x97, 0x3d, 0xc5, 0x45, 0x80, 0xbe,
  0x82, 0x9a, 0xc1, 0x3d, 0x21, 0xa4, 0x1a, 0xbe, 0xdc, 0xf7, 0x27, 0xbe,
  0x0c, 0xcd, 0x56, 0x3d, 0xba, 0xce, 0x0f, 0x3d, 0x2e, 0x8b, 0xd4, 0x3e,
  0x7a, 0x2c, 0x90, 0xbd, 0x5a, 0xb6, 0x83, 0x3b, 0xe7, 0xac, 0x46, 0xbe,
  0x44, 0xcb, 0x70, 0xbd, 0x61, 0xe9, 0xae, 0x3d, 0x33, 0xf0, 0xbe, 0xbc,
  0x6c, 0xac, 0xe9, 0xbb, 0x7d, 0x8c, 0x13, 0x3d, 0xe1, 0x47, 0x74, 0x3d,
  0xb6, 0x1a, 0xe5, 0xbd, 0xce, 0x5a, 0xf8, 0x3d, 0xd0, 0x85, 0x29, 0xbc,
  0x6b, 0x81, 0x84, 0xbe, 0xd9, 0xd5, 0x29, 0x3d, 0x2a, 0xbe, 0x32, 0x3d,
  0x9f, 0xeb, 0x73, 0xbd, 0xdb, 0x13, 0x4a, 0x3e, 0xf1, 0xf0, 0x08, 0x3e,
  0x04, 0x04, 0xc0, 0xbd, 0x15, 0x52, 0x73, 0x3d, 0xb1, 0x41, 0x82, 0xbc,
  0x38, 0x38, 0x62, 0xbe, 0x6b, 0xbf, 0x17, 0x3d, 0x84, 0xa9, 0x2d, 0xbe,
  0xc4, 0x68, 0x5b, 0x3d, 0xa8, 0x5d, 0x91, 0x3d, 0x1a, 0x56, 0xa6, 0x3c,
  0xcd, 0x96, 0x40, 0xbe, 0x8d, 0x2d, 0x82, 0xbe, 0xcd, 0xfc, 0x68, 0xbd,
  0x6a, 0xca, 0x0d, 0x3d, 0x38, 0x56, 0x03, 0x3f, 0x72, 0xf9, 0xb1, 0x3c,
  0xcc, 0x7a, 0x9f, 0x3e, 0xa7, 0xfd, 0x92, 0xbe, 0x98, 0x5d, 0x04, 0x3d,
  0xc3, 0x93, 0xa5, 0x3e, 0x47, 0x4d, 0x70, 0xbe, 0xe5, 0xc9, 0xc7, 0x3c,
  0x5f, 0x11, 0x4a, 0x3d, 0xe1, 0x81, 0x21, 0x3e, 0x9d, 0xb2, 0xe7, 0x3d,
  0xce, 0x47, 0xc5, 0x3b, 0xb8, 0xff, 0x19, 0xbe, 0x67, 0x33, 0x8a, 0xbe,
  0xf7, 0x53, 0x95, 0x3a, 0x52, 0x35, 0xc1, 0x3c, 0xa0, 0x89, 0x1a, 0x3f,
  0x45, 0xdd, 0x16, 0xbe, 0x06, 0x19, 0x7b, 0x3e, 0xfc, 0xbc, 0xe0, 0xbe,
  0xa9, 0xdd, 0x73, 0xbe, 0x4b, 0x45, 0x93, 0x3e, 0x83, 0xff, 0x86, 0xbe,
  0x1f, 0x0f, 0x0f, 0x3e, 0x3c, 0xf3, 0x04, 0x3d, 0xff, 0x52, 0xd2, 0x3d,
  0x2f, 0x3b, 0x2c, 0xbc, 0x2c, 0xf3, 0xac, 0x3c, 0xb8, 0xd3, 0xab, 0xbd,
  0x03, 0xfe, 0x85, 0x3c, 0xda, 0x2d, 0xd2, 0x3c, 0xfe, 0x05, 0x8b, 0x3c,
  0xe2, 0x6b, 0x87, 0x3e, 0xd2, 0x32, 0x6c, 0xbe, 0x69, 0x7d, 0xc8, 0x3e,
  0xa6, 0x32, 0xc6, 0xbc, 0xd5, 0x15, 0xb0, 0xbd, 0x09, 0xce, 0xca, 0x3d,
  0x9a, 0x8a, 0x9e, 0xbd, 0x3a, 0xa4, 0xa1, 0x3d, 0x1d, 0x27, 0x1b, 0x3d,
  0xe3, 0xfb, 0x5c, 0x3e, 0x20, 0x74, 0x8c, 0xbe, 0x2d, 0xfb, 0x05, 0x3e,
  0xff, 0x9d, 0x98, 0x3d, 0x8a, 0xa7, 0x10, 0x3b, 0x56, 0x2f, 0xd2, 0x3d,
  0xfb, 0x90, 0xc3, 0x3d, 0x9c, 0x6d, 0x80, 0x3e, 0x00, 0x05, 0x3d, 0x3f,
  0x9d, 0x9f, 0xc0, 0xbd, 0xd6, 0x58, 0x4a, 0xbc, 0x3d, 0x55, 0x70, 0xbe,
  0x27, 0x1e, 0x41, 0x3e, 0x94, 0x75, 0xc1, 0x3d, 0x86, 0xcd, 0x96, 0x3e,
  0xcb, 0x7e, 0xbd, 0x3b, 0x9d, 0x39, 0x01, 0xbd, 0x54, 0xc0, 0xe8, 0x3d,
  0xb8, 0x81, 0xc1, 0xbd, 0x65, 0x39, 0xe9, 0x3d, 0x6a, 0x4a, 0x66, 0x3d,
  0xe2, 0xb5, 0x05, 0xbe, 0xc5, 0x41, 0x9b, 0xbd, 0x8a, 0x60, 0x8f, 0x3d,
  0xc9, 0x82, 0xa8, 0x3f, 0x52, 0x66, 0x32, 0xbe, 0xb2, 0x4f, 0x64, 0x3d,
  0x01, 0x31, 0x1f, 0xbe, 0x84, 0x51, 0x93, 0x3d, 0x4a, 0x59, 0x1f, 0xbe,
  0x04, 0x78, 0x16, 0x3e, 0xb3, 0x85, 0xf0, 0xbd, 0xeb, 0xcf, 0x3d, 0xbe,
  0x57, 0xfe, 0xe6, 0x3d, 0xdd, 0x93, 0xeb, 0xbe, 0x25, 0x97, 0xf7, 0xbc,
  0x2f, 0x64, 0x68, 0x3d, 0xf6, 0xae, 0xd4, 0xbe, 0xc7, 0x27, 0xbf, 0xbd,
  0xae, 0x5a, 0x21, 0xbe, 0x8c, 0xde, 0x77, 0x3f, 0x21, 0xa1, 0xb5, 0xbe,
  0x7a, 0xc4, 0xf2, 0xbe, 0x07, 0x6e, 0xab, 0xbe, 0x7d, 0x66, 0x49, 0xbe,
  0x17, 0x33, 0x06, 0xbd, 0x70, 0x3d, 0xb3, 0xbd, 0x86, 0x40, 0x8b, 0x3c,
  0xd9, 0x85, 0x88, 0xbe, 0xba, 0x00, 0xed, 0xbd, 0x2e, 0xe4, 0x15, 0xbf,
  0xdb, 0x60, 0x31, 0x3e, 0x84, 0xc6, 0x82, 0xbe, 0xde, 0xd8, 0xed, 0xbe,
  0x6f, 0x33, 0x08, 0xbe, 0x32, 0x70, 0x16, 0xbd, 0x31, 0xd5, 0x8b, 0x3f,
  0xd1, 0xc1, 0x8e, 0x3d, 0x16, 0xcb, 0x74, 0xbe, 0x3d, 0xe1, 0xd1, 0xbb,
  0xfb, 0x49, 0x8c, 0x3c, 0xee, 0x03, 0xcb, 0xbd, 0x9c, 0xb8, 0x14, 0xbf,
  0x5e, 0xf7, 0x47, 0xbc, 0xc7, 0x2f, 0x0b, 0x3c, 0x5f, 0xdc, 0xf1, 0xbd,
  0x8e, 0x80, 0x4c, 0xbc, 0x7a, 0xf3, 0x25, 0xbe, 0x98, 0x0a, 0xe2, 0xbe,
  0xeb, 0xd9, 0x83, 0xbe, 0x85, 0xd3, 0xd4, 0xbd, 0x26, 0x18, 0x12, 0x3f,
  0x47, 0xa9, 0x9e, 0x3f, 0xa9, 0x07, 0xb4, 0x3e, 0x07, 0x2a, 0x5a, 0xbe,
  0x77, 0xcd, 0x63, 0x3b, 0xd4, 0x97, 0x98, 0x3e, 0xa5, 0x50, 0xe0, 0xbd,
  0xd8, 0xe7, 0x84, 0xbd, 0x42, 0xc0, 0x6b, 0xbe, 0x35, 0xeb, 0x4e, 0x3e,
  0xe4, 0x93, 0xc8, 0xbc, 0x47, 0xd1, 0xd0, 0x3d, 0x5d, 0x2c, 0x74, 0x3d,
  0x77, 0xab, 0x96, 0xbe, 0x06, 0x47, 0xda, 0x3d, 0x4d, 0x34, 0x30, 0xbd,
  0x8f, 0x9e, 0x00, 0x3f, 0xa4, 0x9a, 0x8d, 0x3f, 0x14, 0x21, 0xd8, 0x3e,
  0x17, 0x56, 0x01, 0xbe, 0xa5, 0x09, 0xce, 0xbd, 0x19, 0xdb, 0xac, 0x3e,
  0xd5, 0xcc, 0x2b, 0xbe, 0x17, 0xc1, 0x81, 0x3e, 0x21, 0xd9, 0xc9, 0x3d,
  0x9b, 0x7c, 0x25, 0xbc, 0x85, 0xc0, 0x99, 0x3d, 0x6a, 0x7f, 0xce, 0x3d,
  0x19, 0x7a, 0xf9, 0xbd, 0x09, 0xe3, 0x7a, 0xba, 0x4a, 0x0d, 0x18, 0x3e,
  0x67, 0x16, 0x93, 0xbd, 0x47, 0x1f, 0xb3, 0x3e, 0x5b, 0x83, 0x96, 0xbe,
  0xf1, 0x66, 0xaf, 0x3e, 0x56, 0xa0, 0x9b, 0xbd, 0x55, 0x10, 0x17, 0xbe,
  0xc1, 0xe4, 0x1a, 0x3e, 0x69, 0x94, 0x8b, 0xbc, 0xc2, 0x15, 0xd4, 0x3d,
  0x2a, 0xf9, 0x22, 0x3d, 0x4d, 0xf4, 0x10, 0xbe, 0x48, 0x7b, 0x60, 0xbd,
  0xf5, 0xcc, 0x54, 0x3d, 0xd8, 0x38, 0xfb, 0xbd, 0x37, 0xf1, 0x39, 0xbe,
  0xfd, 0x6e, 0x03, 0x3e, 0x75, 0x24, 0x0e, 0xbe, 0xb4, 0xa0, 0xcc, 0x3b,
  0xc2, 0x90, 0x37, 0x3f, 0xc5, 0x49, 0x20, 0xbe, 0x1b, 0x04, 0xde, 0x3d,
  0x3e, 0xfc, 0xba, 0xbe, 0x3c, 0x2b, 0x85, 0x3c, 0xc9, 0x07, 0x21, 0xbe,
  0xb2, 0x14, 0xe9, 0xbc, 0x26, 0x6a, 0x63, 0xbe, 0x98, 0x44, 0xd1, 0xbd,
  0x6a, 0x47, 0x8e, 0xbd, 0x92, 0xb2, 0x8e, 0x3e, 0xb2, 0x44, 0xe2, 0xbd,
  0xbe, 0x03, 0xcb, 0x3d, 0xc6, 0x26, 0x1b, 0x3e, 0x13, 0xfe, 0xae, 0xbe,
  0x26, 0x8e, 0xa1, 0x3d, 0x0e, 0x70, 0x5b, 0x3f, 0xe7, 0x0f, 0xdf, 0x3d,
  0x4f, 0xcc, 0x1a, 0xbd, 0x66, 0x64, 0xb5, 0x3c, 0x33, 0xa3, 0x8f, 0x3c,
  0x2c, 0xd3, 0xa3, 0x3d, 0x30, 0x69, 0x3e, 0xbe, 0xe2, 0x25, 0x13, 0xbe,
  0x80, 0xdc, 0x52, 0xbe, 0x0f, 0x02, 0x3b, 0x3a, 0x3f, 0x5e, 0xf7, 0x3e,
  0x17, 0x10, 0x9c, 0x3d, 0x7f, 0x63, 0x61, 0xbd, 0x86, 0x31, 0xd0, 0xbc,
  0x98, 0xa9, 0xb1, 0xbe, 0x05, 0x94, 0x5c, 0x3d, 0x7c, 0x90, 0x47, 0x3f,
  0xcc, 0x4e, 0xba, 0xbd, 0x6e, 0x4e, 0xa9, 0xbb, 0x90, 0xe2, 0xac, 0xbe,
  0xe9, 0x29, 0x2c, 0x3e, 0x77, 0x19, 0x58, 0x3d, 0xbb, 0x68, 0x73, 0xbe,
  0x11, 0x2c, 0x69, 0xbd, 0x9e, 0x87, 0xc9, 0xbd, 0x26, 0x91, 0x7a, 0x3e,
  0x62, 0xc5, 0xcb, 0x3e, 0x5c, 0x61, 0x14, 0x3e, 0xc6, 0x54, 0x6f, 0x3e,
  0x3f, 0xd0, 0x16, 0xba, 0xc4, 0xd6, 0x8a, 0xbe, 0x99, 0x2e, 0x27, 0xbe,
  0x34, 0xd7, 0x15, 0x3f, 0x7c, 0x63, 0x15, 0xbe, 0x34, 0x4a, 0x78, 0x3d,
  0x0f, 0xef, 0x55, 0xbe, 0x23, 0xbc, 0xa0, 0xbd, 0x40, 0x3f, 0xbc, 0x3d,
  0x5d, 0x59, 0x17, 0xbd, 0x93, 0x44, 0x8c, 0x3d, 0x4e, 0x59, 0x5c, 0xbd,
  0xc3, 0x51, 0x85, 0x3d, 0xe2, 0xe8, 0x4c, 0x3e, 0xcd, 0x0c, 0x31, 0xbc,
  0x33, 0xd9, 0xce, 0x3d, 0x3e, 0x75, 0x85, 0x3b, 0x69, 0xb7, 0x2c, 0xbe,
  0x5a, 0xa0, 0xb5, 0x3c, 0x9d, 0xc0, 0x68, 0x3f, 0xf7, 0x5a, 0x23, 0xbe,
  0x0b, 0x43, 0xa0, 0x3e, 0x5f, 0xb4, 0xb0, 0xbe, 0x1b, 0x8d, 0x4a, 0xbe,
  0x4d, 0x32, 0x37, 0x3e, 0x43, 0x09, 0x49, 0x3d, 0xaf, 0x39, 0x9a, 0xbc,
  0x88, 0xe7, 0xbe, 0x3d, 0x02, 0xef, 0x26, 0x3e, 0xf6, 0x06, 0x89, 0x3e,
  0x09, 0x76, 0xb1, 0x3c, 0xfd, 0xc0, 0x0e, 0xbe, 0x80, 0x14, 0x67, 0xbe,
  0x3d, 0x06, 0x88, 0xbe, 0x06, 0xbf, 0x51, 0xbe, 0x1d, 0x08, 0x49, 0x3f,
  0xc1, 0x2d, 0xde, 0xbd, 0x79, 0x02, 0x28, 0xbe, 0x3a, 0x4c, 0xea, 0xbc,
  0x52, 0x3b, 0xc3, 0xbd, 0xcc, 0xf3, 0x42, 0x3e, 0xb3, 0xde, 0x5f, 0xbd,
  0xf6, 0xf7, 0x9a, 0xbd, 0xf9, 0x02, 0x29, 0xbe, 0xfd, 0x12, 0x2e, 0xbe,
  0x62, 0x49, 0x7a, 0x3d, 0xe6, 0xa1, 0x16, 0x3d, 0x0e, 0xca, 0xde, 0xbc,
  0xde, 0x5f, 0xd0, 0x3d, 0x41, 0xaf, 0x22, 0xbe, 0xcb, 0xdc, 0x5b, 0xbd,
  0x12, 0x5f, 0xd0, 0x3e, 0xe2, 0x6d, 0x24, 0x3d, 0x13, 0x23, 0xda, 0xbe,
  0x16, 0x95, 0x1b, 0xbd, 0x32, 0xd2, 0x95, 0xbd, 0x0f, 0x2c, 0xbb, 0x3d,
  0x02, 0x9a, 0xa7, 0xbd, 0x87, 0xc8, 0x35, 0xbe, 0xed, 0x71, 0x86, 0xbe,
  0x83, 0xbd, 0xce, 0xb8, 0x8d, 0x40, 0x5f, 0xbe, 0xe6, 0x7a, 0x4f, 0xbe,
  0x3c, 0x57, 0xc8, 0xbd, 0xcb, 0x41, 0x07, 0xbe, 0x3e, 0x5c, 0xdb, 0xbd,
  0xe1, 0x78, 0xb1, 0x3c, 0x8e, 0x7e, 0x53, 0x3c, 0x38, 0xed, 0xb7, 0xbd,
  0x88, 0x50, 0x24, 0xbe, 0xff, 0x5e, 0x91, 0x3d, 0x06, 0x10, 0x96, 0x3c,
  0x18, 0xa9, 0x6b, 0x3c, 0x5a, 0x94, 0x78, 0x3d, 0x93, 0xf6, 0x6e, 0xbd,
  0xfa, 0x76, 0x4a, 0xbd, 0x1b, 0x1e, 0x61, 0xbb, 0x34, 0x02, 0x86, 0xbd,
  0xf8, 0xbc, 0x79, 0xbd, 0x6e, 0x75, 0xcd, 0x3c, 0x05, 0x77, 0x49, 0xbd,
  0x68, 0xff, 0x2a, 0xbe, 0xf5, 0x3e, 0x91, 0xbd, 0x8c, 0x47, 0x54, 0xbd,
  0x37, 0xe5, 0xf8, 0x3d, 0x5e, 0xdc, 0xfe, 0x3d, 0x4e, 0x13, 0x7a, 0xbc,
  0xc1, 0xd6, 0xb8, 0x3d, 0xa5, 0x20, 0xb6, 0x3d, 0x6f, 0xa5, 0x27, 0xbe,
  0xff, 0x77, 0xec, 0xbd, 0xb1, 0x31, 0x4d, 0x3d, 0xff, 0x4d, 0x61, 0x3c,
  0x1d, 0x9a, 0x01, 0x3e, 0x21, 0x48, 0x5c, 0xbe, 0x52, 0x5f, 0x35, 0xbe,
  0xbc, 0xce, 0x26, 0x3e, 0x50, 0x96, 0x3f, 0xbe, 0xb1, 0x42, 0x29, 0x3d,
  0x6b, 0x40, 0x33, 0x3e, 0x95, 0x08, 0x2c, 0xbd, 0x22, 0x9b, 0x1c, 0xbe,
  0x44, 0x31, 0xf7, 0xbd, 0x97, 0x15, 0x6f, 0x3e, 0xc6, 0x53, 0x28, 0xbe,
  0xad, 0x54, 0x28, 0x3d, 0x59, 0x6a, 0x89, 0xbe, 0x76, 0xbc, 0x13, 0x3c,
  0x00, 0xad, 0x12, 0x3b, 0xe3, 0x7e, 0x78, 0x3c, 0x6a, 0x61, 0x12, 0x3d,
  0xdf, 0x5d, 0x38, 0xbe, 0x99, 0x0f, 0x45, 0x3d, 0x4f, 0x44, 0x52, 0xbe,
  0x4c, 0x05, 0xe8, 0xbc, 0xb1, 0x46, 0x35, 0xbe, 0x0f, 0xa4, 0x9e, 0x3d,
  0xda, 0xe9, 0xfc, 0xbd, 0x96, 0xbb, 0x10, 0x3e, 0x57, 0x83, 0x92, 0xbd,
  0xfe, 0x54, 0x06, 0x3e, 0xb0, 0x6e, 0x6d, 0x3e, 0x3d, 0x00, 0x44, 0xbe,
  0x70, 0x47, 0xf6, 0x3d, 0x6e, 0x54, 0x42, 0x3d, 0xbf, 0xf5, 0xe5, 0xbd,
  0xee, 0x90, 0x37, 0x3e, 0x3e, 0xda, 0x05, 0xbe, 0x31, 0x59, 0x27, 0xbe,
  0xed, 0x74, 0x7b, 0xbe, 0xbc, 0x62, 0xb7, 0xbd, 0xe6, 0xd0, 0x5b, 0x3d,
  0x2e, 0x06, 0x7e, 0xbe, 0x0c, 0xb5, 0xed, 0x3d, 0xce, 0x18, 0x9e, 0x3c,
  0x2b, 0x73, 0x05, 0xbe, 0x44, 0x09, 0x44, 0x3c, 0x72, 0x37, 0x1b, 0xbe,
  0x60, 0xa2, 0x31, 0x3d, 0x24, 0xad, 0x1c, 0xbe, 0x7a, 0x82, 0x25, 0x3d,
  0xdd, 0x78, 0x14, 0xbe, 0x17, 0x8b, 0x2d, 0x3e, 0x9c, 0x6b, 0x3a, 0x3e,
  0x2b, 0xc7, 0x16, 0xbe, 0x48, 0x9d, 0x5e, 0xbe, 0x54, 0xd3, 0x4c, 0xbe,
  0xb3, 0x19, 0x1a, 0xbe, 0x13, 0x3e, 0xb5, 0x3b, 0x0c, 0xf8, 0x5a, 0xbd,
  0xdc, 0x8a, 0xd6, 0xbd, 0x90, 0xfa, 0xa8, 0x3d, 0x55, 0x16, 0x05, 0x3e,
  0x0a, 0xc8, 0x69, 0xbe, 0x68, 0xdd, 0x35, 0xbe, 0x62, 0x13, 0x11, 0xbe,
  0x4c, 0x9e, 0x1c, 0x3d, 0xed, 0x28, 0x3d, 0xbe, 0x4c, 0x11, 0xe9, 0x3d,
  0x4f, 0xaf, 0x96, 0xbd, 0xfd, 0x5c, 0xa9, 0x3c, 0xf7, 0xe1, 0x92, 0xbe,
  0x30, 0x08, 0x43, 0xbe, 0x81, 0xc2, 0xe1, 0xbd, 0xb0, 0xd1, 0xc0, 0xbd,
  0xbe, 0x13, 0x36, 0xbe, 0xee, 0x58, 0x83, 0x3d, 0x9d, 0x5b, 0x7a, 0xbd,
  0x06, 0xe2, 0x22, 0x3d, 0x28, 0x3c, 0x18, 0xbd, 0x0c, 0x08, 0x36, 0x3d,
  0x46, 0xfe, 0xff, 0xff, 0x10, 0x00, 0x00, 0x00, 0x05, 0x00, 0x00, 0x00,
  0x14, 0x00, 0x00, 0x00, 0x2c, 0x00, 0x00, 0x00, 0x02, 0x00, 0x00, 0x00,
  0x10, 0x00, 0x00, 0x00, 0x70, 0x00, 0x00, 0x00, 0x17, 0x00, 0x00, 0x00,
  0x73, 0x65, 0x71, 0x75, 0x65, 0x6e, 0x74, 0x69, 0x61, 0x6c, 0x2f, 0x64,
  0x65, 0x6e, 0x73, 0x65, 0x2f, 0x4d, 0x61, 0x74, 0x4d, 0x75, 0x6c, 0x00,
  0x34, 0xfe, 0xff, 0xff, 0x2a, 0xff, 0xff, 0xff, 0x04, 0x00, 0x00, 0x00,
  0x08, 0x00, 0x00, 0x00, 0xff, 0xff, 0xff, 0xff, 0x70, 0x00, 0x00, 0x00,
  0x00, 0x00, 0x0e, 0x00, 0x18, 0x00, 0x08, 0x00, 0x07, 0x00, 0x0c, 0x00,
  0x10, 0x00, 0x14, 0x00, 0x0e, 0x00, 0x00, 0x00, 0x00, 0x00, 0x00, 0x02,
  0x10, 0x00, 0x00, 0x00, 0x04, 0x00, 0x00, 0x00, 0x10, 0x00, 0x00, 0x00,
  0x2c, 0x00, 0x00, 0x00, 0x01, 0x00, 0x00, 0x00, 0x02, 0x00, 0x00, 0x00,
  0x18, 0x00, 0x00, 0x00, 0x73, 0x65, 0x71, 0x75, 0x65, 0x6e, 0x74, 0x69,
  0x61, 0x6c, 0x2f, 0x66, 0x6c, 0x61, 0x74, 0x74, 0x65, 0x6e, 0x2f, 0x43,
  0x6f, 0x6e, 0x73, 0x74, 0x00, 0x00, 0x00, 0x00, 0x9c, 0xfe, 0xff, 0xff,
  0x92, 0xff, 0xff, 0xff, 0x04, 0x00, 0x00, 0x00, 0x10, 0x00, 0x00, 0x00,
  0x24, 0xdd, 0xb4, 0xc0, 0x79, 0x38, 0xbc, 0xc0, 0x22, 0xed, 0x02, 0x40,
  0xe8, 0x25, 0x74, 0x3f, 0x0a, 0xff, 0xff, 0xff, 0x10, 0x00, 0x00, 0x00,
  0x03, 0x00, 0x00, 0x00, 0x10, 0x00, 0x00, 0x00, 0x3c, 0x00, 0x00, 0x00,
  0x01, 0x00, 0x00, 0x00, 0x04, 0x00, 0x00, 0x00, 0x29, 0x00, 0x00, 0x00,
  0x73, 0x65, 0x71, 0x75, 0x65, 0x6e, 0x74, 0x69, 0x61, 0x6c, 0x2f, 0x64,
  0x65, 0x6e, 0x73, 0x65, 0x5f, 0x31, 0x2f, 0x42, 0x69, 0x61, 0x73, 0x41,
  0x64, 0x64, 0x2f, 0x52, 0x65, 0x61, 0x64, 0x56, 0x61, 0x72, 0x69, 0x61,
  0x62, 0x6c, 0x65, 0x4f, 0x70, 0x00, 0x00, 0x00, 0x60, 0xff, 0xff, 0xff,
  0x00, 0x00, 0x06, 0x00, 0x08, 0x00, 0x04, 0x00, 0x06, 0x00, 0x00, 0x00,
  0x04, 0x00, 0x00, 0x00, 0x40, 0x00, 0x00, 0x00, 0x6d, 0xc9, 0x75, 0xbe,
  0x13, 0x93, 0xca, 0xbe, 0x5d, 0x06, 0xd5, 0x3e, 0xda, 0x5e, 0x6e, 0x40,
  0x9d, 0x3e, 0x7e, 0xbe, 0x58, 0xd5, 0xc5, 0x3f, 0x57, 0xd7, 0x59, 0xbe,
  0x94, 0x74, 0x26, 0xbf, 0x43, 0xc4, 0x5c, 0x3e, 0x3b, 0x7a, 0x4c, 0x3d,
  0x85, 0x4e, 0x0a, 0xbf, 0x79, 0x9c, 0x07, 0x3d, 0xf5, 0xb2, 0x1a, 0x3f,
  0x9b, 0x64, 0xb2, 0xbe, 0x76, 0xed, 0x0f, 0xbf, 0x42, 0xee, 0x8c, 0xbe,
  0xae, 0xff, 0xff, 0xff, 0x10, 0x00, 0x00, 0x00, 0x02, 0x00, 0x00, 0x00,
  0x10, 0x00, 0x00, 0x00, 0x3c, 0x00, 0x00, 0x00, 0x01, 0x00, 0x00, 0x00,
  0x10, 0x00, 0x00, 0x00, 0x27, 0x00, 0x00, 0x00, 0x73, 0x65, 0x71, 0x75,
  0x65, 0x6e, 0x74, 0x69, 0x61, 0x6c, 0x2f, 0x64, 0x65, 0x6e, 0x73, 0x65,
  0x2f, 0x42, 0x69, 0x61, 0x73, 0x41, 0x64, 0x64, 0x2f, 0x52, 0x65, 0x61,
  0x64, 0x56, 0x61, 0x72, 0x69, 0x61, 0x62, 0x6c, 0x65, 0x4f, 0x70, 0x00,
  0x04, 0x00, 0x06, 0x00, 0x04, 0x00, 0x00, 0x00, 0x00, 0x00, 0x0e, 0x00,
  0x14, 0x00, 0x04, 0x00, 0x00, 0x00, 0x08, 0x00, 0x0c, 0x00, 0x10, 0x00,
  0x0e, 0x00, 0x00, 0x00, 0x10, 0x00, 0x00, 0x00, 0x01, 0x00, 0x00, 0x00,
  0x1c, 0x00, 0x00, 0x00, 0x2c, 0x00, 0x00, 0x00, 0x04, 0x00, 0x00, 0x00,
  0x01, 0x00, 0x00, 0x00, 0x40, 0x00, 0x00, 0x00, 0x03, 0x00, 0x00, 0x00,
  0x01, 0x00, 0x00, 0x00, 0x0c, 0x00, 0x00, 0x00, 0x63, 0x6f, 0x6e, 0x76,
  0x32, 0x64, 0x5f, 0x69, 0x6e, 0x70, 0x75, 0x74, 0x00, 0x00, 0x00, 0x00,
  0xfc, 0xff, 0xff, 0xff, 0x04, 0x00, 0x04, 0x00, 0x04, 0x00, 0x00, 0x00
};


unsigned int model_tflite_len = 12384;// Fill the int in `src/model.cc` here