#include "magic_wand_model_data.h"


// We need to keep the data array aligned on some architectures.

#ifdef __has_attribute

#define HAVE_ATTRIBUTE(x) __has_attribute(x)

#else

#define HAVE_ATTRIBUTE(x) 0

#endif

#if HAVE_ATTRIBUTE(aligned) || (defined(__GNUC__) && !defined(__clang__))

#define DATA_ALIGN_ATTRIBUTE __attribute__((aligned(4)))

#else

#define DATA_ALIGN_ATTRIBUTE

#endif


const unsigned char g_magic_wand_model_data[] DATA_ALIGN_ATTRIBUTE = {

  // Paste the data of the char array in `src/model.cc` here
  0x08, 0x00, 0x00, 0x00, 0x54, 0x46, 0x4c, 0x33, 0x62, 0xff, 0xff, 0xff,
  0x03, 0x00, 0x00, 0x00, 0x10, 0x00, 0x00, 0x00, 0x24, 0x00, 0x00, 0x00,
  0x78, 0x00, 0x00, 0x00, 0x24, 0x00, 0x00, 0x00, 0x05, 0x00, 0x00, 0x00,
  0x78, 0x05, 0x00, 0x00, 0xb0, 0x04, 0x00, 0x00, 0xe0, 0x02, 0x00, 0x00,
  0x60, 0x02, 0x00, 0x00, 0x54, 0x01, 0x00, 0x00, 0x01, 0x00, 0x00, 0x00,
  0x78, 0x00, 0x00, 0x00, 0x13, 0x00, 0x00, 0x00, 0xd4, 0x2f, 0x00, 0x00,
  0xd0, 0x2f, 0x00, 0x00, 0xdc, 0x2e, 0x00, 0x00, 0x68, 0x2e, 0x00, 0x00,
  0xfc, 0x2d, 0x00, 0x00, 0xac, 0x11, 0x00, 0x00, 0x98, 0x10, 0x00, 0x00,
  0xbc, 0x0e, 0x00, 0x00, 0x60, 0x06, 0x00, 0x00, 0xfc, 0x05, 0x00, 0x00,
  0x78, 0x05, 0x00, 0x00, 0xa8, 0x2f, 0x00, 0x00, 0xa4, 0x2f, 0x00, 0x00,
  0xa0, 0x2f, 0x00, 0x00, 0x9c, 0x2f, 0x00, 0x00, 0x98, 0x2f, 0x00, 0x00,
  0x94, 0x2f, 0x00, 0x00, 0x90, 0x2f, 0x00, 0x00, 0x8c, 0x2f, 0x00, 0x00,
  0x0f, 0x00, 0x00, 0x00, 0x4d, 0x4c, 0x49, 0x52, 0x20, 0x43, 0x6f, 0x6e,
  0x76, 0x65, 0x72, 0x74, 0x65, 0x64, 0x2e, 0x00, 0x00, 0x00, 0x0e, 0x00,
  0x18, 0x00, 0x04, 0x00, 0x08, 0x00, 0x0c, 0x00, 0x10, 0x00, 0x14, 0x00,
  0x0e, 0x00, 0x00, 0x00, 0x14, 0x00, 0x00, 0x00, 0x5c, 0x00, 0x00, 0x00,
  0x60, 0x00, 0x00, 0x00, 0x64, 0x00, 0x00, 0x00, 0x84, 0x00, 0x00, 0x00,
  0x12, 0x00, 0x00, 0x00, 0x04, 0x2f, 0x00, 0x00, 0xa0, 0x2e, 0x00, 0x00,
  0xf8, 0x2d, 0x00, 0x00, 0x98, 0x2d, 0x00, 0x00, 0x30, 0x2d, 0x00, 0x00,
  0xdc, 0x10, 0x00, 0x00, 0xc0, 0x0f, 0x00, 0x00, 0xe4, 0x0d, 0x00, 0x00,
  0xa0, 0x05, 0x00, 0x00, 0x3c, 0x05, 0x00, 0x00, 0xb0, 0x04, 0x00, 0x00,
  0xe8, 0x03, 0x00, 0x00, 0x38, 0x03, 0x00, 0x00, 0xa4, 0x02, 0x00, 0x00,
  0x10, 0x02, 0x00, 0x00, 0x90, 0x01, 0x00, 0x00, 0xfc, 0x00, 0x00, 0x00,
  0x80, 0x00, 0x00, 0x00, 0x01, 0x00, 0x00, 0x00, 0x00, 0x00, 0x00, 0x00,
  0x01, 0x00, 0x00, 0x00, 0x11, 0x00, 0x00, 0x00, 0x08, 0x00, 0x00, 0x00,
  0x1c, 0x04, 0x00, 0x00, 0x58, 0x03, 0x00, 0x00, 0xc8, 0x02, 0x00, 0x00,
  0x24, 0x02, 0x00, 0x00, 0xac, 0x01, 0x00, 0x00, 0x10, 0x01, 0x00, 0x00,
  0x94, 0x00, 0x00, 0x00, 0x10, 0x00, 0x00, 0x00, 0x04, 0x00, 0x00, 0x00,
  0x6d, 0x61, 0x69, 0x6e, 0x00, 0x00, 0x00, 0x00, 0x8e, 0xff, 0xff, 0xff,
  0x00, 0x00, 0x00, 0x09, 0x04, 0x00, 0x00, 0x00, 0x1c, 0x00, 0x00, 0x00,
  0x10, 0x00, 0x00, 0x00, 0x04, 0x00, 0x00, 0x00, 0x4e, 0xd2, 0xff, 0xff,
  0x00, 0x00, 0x80, 0x3f, 0x01, 0x00, 0x00, 0x00, 0x11, 0x00, 0x00, 0x00,
  0x01, 0x00, 0x00, 0x00, 0x10, 0x00, 0x00, 0x00, 0xf6, 0xfb, 0xff, 0xff,
  0x00, 0x00, 0x00, 0x19, 0x01, 0x00, 0x00, 0x00, 0xce, 0xd1, 0xff, 0xff,
  0x10, 0x00, 0x00, 0x00, 0x12, 0x00, 0x00, 0x00, 0x14, 0x00, 0x00, 0x00,
  0x20, 0x00, 0x00, 0x00, 0x02, 0x00, 0x00, 0x00, 0x01, 0x00, 0x00, 0x00,
  0x03, 0x00, 0x00, 0x00, 0x08, 0x00, 0x00, 0x00, 0x49, 0x64, 0x65, 0x6e,
  0x74, 0x69, 0x74, 0x79, 0x00, 0x00, 0x00, 0x00, 0x08, 0xd2, 0xff, 0xff,
  0x00, 0x00, 0x0e, 0x00, 0x18, 0x00, 0x08, 0x00, 0x0c, 0x00, 0x10, 0x00,
  0x07, 0x00, 0x14, 0x00, 0x0e, 0x00, 0x00, 0x00, 0x00, 0x00, 0x00, 0x08,
  0x03, 0x00, 0x00, 0x00, 0x18, 0x00, 0x00, 0x00, 0x0c, 0x00, 0x00, 0x00,
  0x04, 0x00, 0x00, 0x00, 0xdc, 0xd1, 0xff, 0xff, 0x01, 0x00, 0x00, 0x00,
  0x10, 0x00, 0x00, 0x00, 0x03, 0x00, 0x00, 0x00, 0x0f, 0x00, 0x00, 0x00,
  0x05, 0x00, 0x00, 0x00, 0x02, 0x00, 0x00, 0x00, 0x46, 0xd2, 0xff, 0xff,
  0x10, 0x00, 0x00, 0x00, 0x11, 0x00, 0x00, 0x00, 0x14, 0x00, 0x00, 0x00,
  0x30, 0x00, 0x00, 0x00, 0x02, 0x00, 0x00, 0x00, 0x01, 0x00, 0x00, 0x00,
  0x03, 0x00, 0x00, 0x00, 0x1a, 0x00, 0x00, 0x00, 0x73, 0x65, 0x71, 0x75,
  0x65, 0x6e, 0x74, 0x69, 0x61, 0x6c, 0x2f, 0x64, 0x65, 0x6e, 0x73, 0x65,
  0x5f, 0x31, 0x2f, 0x42, 0x69, 0x61, 0x73, 0x41, 0x64, 0x64, 0x00, 0x00,
  0x38, 0xd2, 0xff, 0xff, 0xd6, 0xfd, 0xff, 0xff, 0x00, 0x00, 0x00, 0x08,
  0x03, 0x00, 0x00, 0x00, 0x24, 0x00, 0x00, 0x00, 0x18, 0x00, 0x00, 0x00,
  0x0c, 0x00, 0x00, 0x00, 0x00, 0x00, 0x06, 0x00, 0x08, 0x00, 0x07, 0x00,
  0x06, 0x00, 0x00, 0x00, 0x00, 0x00, 0x00, 0x01, 0x01, 0x00, 0x00, 0x00,
  0x0f, 0x00, 0x00, 0x00, 0x03, 0x00, 0x00, 0x00, 0x0e, 0x00, 0x00, 0x00,
  0x04, 0x00, 0x00, 0x00, 0x01, 0x00, 0x00, 0x00, 0xfe, 0xfc, 0xff, 0xff,
  0x00, 0x00, 0x00, 0x09, 0x01, 0x00, 0x00, 0x00, 0xd6, 0xd2, 0xff, 0xff,
  0x10, 0x00, 0x00, 0x00, 0x10, 0x00, 0x00, 0x00, 0x14, 0x00, 0x00, 0x00,
  0x2c, 0x00, 0x00, 0x00, 0x02, 0x00, 0x00, 0x00, 0x01, 0x00, 0x00, 0x00,
  0x10, 0x00, 0x00, 0x00, 0x15, 0x00, 0x00, 0x00, 0x73, 0x65, 0x71, 0x75,
  0x65, 0x6e, 0x74, 0x69, 0x61, 0x6c, 0x2f, 0x64, 0x65, 0x6e, 0x73, 0x65,
  0x2f, 0x52, 0x65, 0x6c, 0x75, 0x00, 0x00, 0x00, 0x1c, 0xd3, 0xff, 0xff,
  0x00, 0x00, 0x0a, 0x00, 0x10, 0x00, 0x04, 0x00, 0x08, 0x00, 0x0c, 0x00,
  0x0a, 0x00, 0x00, 0x00, 0x02, 0x00, 0x00, 0x00, 0x10, 0x00, 0x00, 0x00,
  0x04, 0x00, 0x00, 0x00, 0x01, 0x00, 0x00, 0x00, 0x0e, 0x00, 0x00, 0x00,
  0x02, 0x00, 0x00, 0x00, 0x0d, 0x00, 0x00, 0x00, 0x03, 0x00, 0x00, 0x00,
  0x7a, 0xfd, 0xff, 0xff, 0x00, 0x00, 0x00, 0x16, 0x01, 0x00, 0x00, 0x00,
  0x52, 0xd3, 0xff, 0xff, 0x10, 0x00, 0x00, 0x00, 0x0f, 0x00, 0x00, 0x00,
  0x14, 0x00, 0x00, 0x00, 0x30, 0x00, 0x00, 0x00, 0x02, 0x00, 0x00, 0x00,
  0x01, 0x00, 0x00, 0x00, 0x70, 0x00, 0x00, 0x00, 0x1a, 0x00, 0x00, 0x00,
  0x73, 0x65, 0x71, 0x75, 0x65, 0x6e, 0x74, 0x69, 0x61, 0x6c, 0x2f, 0x66,
  0x6c, 0x61, 0x74, 0x74, 0x65, 0x6e, 0x2f, 0x52, 0x65, 0x73, 0x68, 0x61,
  0x70, 0x65, 0x00, 0x00, 0x44, 0xd3, 0xff, 0xff, 0xe2, 0xfe, 0xff, 0xff,
  0x00, 0x00, 0x00, 0x05, 0x01, 0x00, 0x00, 0x00, 0x38, 0x00, 0x00, 0x00,
  0x2c, 0x00, 0x00, 0x00, 0x14, 0x00, 0x00, 0x00, 0x00, 0x00, 0x0e, 0x00,
  0x14, 0x00, 0x00, 0x00, 0x10, 0x00, 0x0c, 0x00, 0x08, 0x00, 0x04, 0x00,
  0x0e, 0x00, 0x00, 0x00, 0x03, 0x00, 0x00, 0x00, 0x01, 0x00, 0x00, 0x00,
  0x03, 0x00, 0x00, 0x00, 0x01, 0x00, 0x00, 0x00, 0x01, 0x00, 0x00, 0x00,
  0x0d, 0x00, 0x00, 0x00, 0x01, 0x00, 0x00, 0x00, 0x0c, 0x00, 0x00, 0x00,
  0xe2, 0xd3, 0xff, 0xff, 0x10, 0x00, 0x00, 0x00, 0x0e, 0x00, 0x00, 0x00,
  0x1c, 0x00, 0x00, 0x00, 0x40, 0x00, 0x00, 0x00, 0x04, 0x00, 0x00, 0x00,
  0x01, 0x00, 0x00, 0x00, 0x07, 0x00, 0x00, 0x00, 0x01, 0x00, 0x00, 0x00,
  0x10, 0x00, 0x00, 0x00, 0x22, 0x00, 0x00, 0x00, 0x73, 0x65, 0x71, 0x75,
  0x65, 0x6e, 0x74, 0x69, 0x61, 0x6c, 0x2f, 0x6d, 0x61, 0x78, 0x5f, 0x70,
  0x6f, 0x6f, 0x6c, 0x69, 0x6e, 0x67, 0x32, 0x64, 0x5f, 0x31, 0x2f, 0x4d,
  0x61, 0x78, 0x50, 0x6f, 0x6f, 0x6c, 0x00, 0x00, 0xe4, 0xd3, 0xff, 0xff,
  0xc2, 0xfe, 0xff, 0xff, 0x00, 0x00, 0x00, 0x01, 0x24, 0x00, 0x00, 0x00,
  0x18, 0x00, 0x00, 0x00, 0x04, 0x00, 0x00, 0x00, 0xb4, 0xfe, 0xff, 0xff,
  0x01, 0x00, 0x00, 0x00, 0x01, 0x00, 0x00, 0x00, 0x00, 0x00, 0x00, 0x01,
  0x01, 0x00, 0x00, 0x00, 0x0c, 0x00, 0x00, 0x00, 0x03, 0x00, 0x00, 0x00,
  0x0b, 0x00, 0x00, 0x00, 0x07, 0x00, 0x00, 0x00, 0x09, 0x00, 0x00, 0x00,
  0x72, 0xd4, 0xff, 0xff, 0x10, 0x00, 0x00, 0x00, 0x0d, 0x00, 0x00, 0x00,
  0x1c, 0x00, 0x00, 0x00, 0x2c, 0x00, 0x00, 0x00, 0x04, 0x00, 0x00, 0x00,
  0x01, 0x00, 0x00, 0x00, 0x15, 0x00, 0x00, 0x00, 0x01, 0x00, 0x00, 0x00,
  0x10, 0x00, 0x00, 0x00, 0x0c, 0x00, 0x00, 0x00, 0x74, 0x66, 0x6c, 0x2e,
  0x63, 0x6f, 0x6e, 0x76, 0x5f, 0x32, 0x64, 0x31, 0x00, 0x00, 0x00, 0x00,
  0xb8, 0xd4, 0xff, 0xff, 0x00, 0x00, 0x0e, 0x00, 0x1a, 0x00, 0x08, 0x00,
  0x0c, 0x00, 0x10, 0x00, 0x07, 0x00, 0x14, 0x00, 0x0e, 0x00, 0x00, 0x00,
  0x00, 0x00, 0x00, 0x05, 0x01, 0x00, 0x00, 0x00, 0x3c, 0x00, 0x00, 0x00,
  0x30, 0x00, 0x00, 0x00, 0x14, 0x00, 0x00, 0x00, 0x00, 0x00, 0x0e, 0x00,
  0x18, 0x00, 0x17, 0x00, 0x10, 0x00, 0x0c, 0x00, 0x08, 0x00, 0x04, 0x00,
  0x0e, 0x00, 0x00, 0x00, 0x03, 0x00, 0x00, 0x00, 0x03, 0x00, 0x00, 0x00,
  0x03, 0x00, 0x00, 0x00, 0x03, 0x00, 0x00, 0x00, 0x00, 0x00, 0x00, 0x01,
  0x01, 0x00, 0x00, 0x00, 0x0b, 0x00, 0x00, 0x00, 0x01, 0x00, 0x00, 0x00,
  0x0a, 0x00, 0x00, 0x00, 0x46, 0xff, 0xff, 0xff, 0x00, 0x00, 0x00, 0x11,
  0x01, 0x00, 0x00, 0x00, 0x1e, 0xd5, 0xff, 0xff, 0x10, 0x00, 0x00, 0x00,
  0x0c, 0x00, 0x00, 0x00, 0x1c, 0x00, 0x00, 0x00, 0x40, 0x00, 0x00, 0x00,
  0x04, 0x00, 0x00, 0x00, 0x01, 0x00, 0x00, 0x00, 0x15, 0x00, 0x00, 0x00,
  0x01, 0x00, 0x00, 0x00, 0x08, 0x00, 0x00, 0x00, 0x20, 0x00, 0x00, 0x00,
  0x73, 0x65, 0x71, 0x75, 0x65, 0x6e, 0x74, 0x69, 0x61, 0x6c, 0x2f, 0x6d,
  0x61, 0x78, 0x5f, 0x70, 0x6f, 0x6f, 0x6c, 0x69, 0x6e, 0x67, 0x32, 0x64,
  0x2f, 0x4d, 0x61, 0x78, 0x50, 0x6f, 0x6f, 0x6c, 0x00, 0x00, 0x00, 0x00,
  0x78, 0xd5, 0xff, 0xff, 0x00, 0x00, 0x0e, 0x00, 0x14, 0x00, 0x00, 0x00,
  0x08, 0x00, 0x0c, 0x00, 0x07, 0x00, 0x10, 0x00, 0x0e, 0x00, 0x00, 0x00,
  0x00, 0x00, 0x00, 0x01, 0x30, 0x00, 0x00, 0x00, 0x24, 0x00, 0x00, 0x00,
  0x10, 0x00, 0x00, 0x00, 0x0c, 0x00, 0x10, 0x00, 0x00, 0x00, 0x04, 0x00,
  0x08, 0x00, 0x0f, 0x00, 0x0c, 0x00, 0x00, 0x00, 0x01, 0x00, 0x00, 0x00,
  0x01, 0x00, 0x00, 0x00, 0x00, 0x00, 0x00, 0x01, 0x01, 0x00, 0x00, 0x00,
  0x0a, 0x00, 0x00, 0x00, 0x03, 0x00, 0x00, 0x00, 0x00, 0x00, 0x00, 0x00,
  0x06, 0x00, 0x00, 0x00, 0x08, 0x00, 0x00, 0x00, 0x00, 0x00, 0x0a, 0x00,
  0x0c, 0x00, 0x07, 0x00, 0x00, 0x00, 0x08, 0x00, 0x0a, 0x00, 0x00, 0x00,
  0x00, 0x00, 0x00, 0x03, 0x01, 0x00, 0x00, 0x00, 0xe2, 0xd5, 0xff, 0xff,
  0x10, 0x00, 0x00, 0x00, 0x0b, 0x00, 0x00, 0x00, 0x1c, 0x00, 0x00, 0x00,
  0x28, 0x00, 0x00, 0x00, 0x04, 0x00, 0x00, 0x00, 0x01, 0x00, 0x00, 0x00,
  0x40, 0x00, 0x00, 0x00, 0x03, 0x00, 0x00, 0x00, 0x08, 0x00, 0x00, 0x00,
  0x0b, 0x00, 0x00, 0x00, 0x74, 0x66, 0x6c, 0x2e, 0x63, 0x6f, 0x6e, 0x76,
  0x5f, 0x32, 0x64, 0x00, 0xcc, 0xd5, 0xff, 0xff, 0xc2, 0xd6, 0xff, 0xff,
  0x04, 0x00, 0x00, 0x00, 0x40, 0x00, 0x00, 0x00, 0x92, 0x48, 0xea, 0xbf,
  0x9c, 0x87, 0x93, 0xbc, 0xac, 0x0d, 0xb7, 0xbc, 0xa4, 0x75, 0x20, 0xc0,
  0x80, 0x5d, 0x98, 0xb7, 0x70, 0x4b, 0xb1, 0xbe, 0xa6, 0x18, 0xa1, 0x3c,
  0x24, 0xdd, 0x42, 0xc0, 0xed, 0x39, 0xb2, 0xbf, 0xab, 0xb1, 0xc7, 0xbf,
  0x27, 0xad, 0x1e, 0xbc, 0xd6, 0xcd, 0x62, 0xbc, 0x5a, 0x15, 0xa7, 0xbf,
  0xf8, 0xbf, 0x10, 0xc0, 0x63, 0x54, 0xfe, 0xbf, 0x04, 0x05, 0x20, 0xc0,
  0x6a, 0xd6, 0xff, 0xff, 0x10, 0x00, 0x00, 0x00, 0x0a, 0x00, 0x00, 0x00,
  0x10, 0x00, 0x00, 0x00, 0x20, 0x00, 0x00, 0x00, 0x01, 0x00, 0x00, 0x00,
  0x10, 0x00, 0x00, 0x00, 0x0d, 0x00, 0x00, 0x00, 0x73, 0x74, 0x64, 0x2e,
  0x63, 0x6f, 0x6e, 0x73, 0x74, 0x61, 0x6e, 0x74, 0x31, 0x00, 0x00, 0x00,
  0x4c, 0xd6, 0xff, 0xff, 0x42, 0xd7, 0xff, 0xff, 0x04, 0x00, 0x00, 0x00,
  0x20, 0x00, 0x00, 0x00, 0x9e, 0xc4, 0x9c, 0xbf, 0x52, 0xff, 0x8d, 0xbe,
  0x7b, 0x51, 0x33, 0xc0, 0xb9, 0x69, 0x54, 0xbf, 0xa9, 0x22, 0xdd, 0xbf,
  0x87, 0x4f, 0x4e, 0xc0, 0x15, 0x2c, 0xda, 0xbf, 0x15, 0xa1, 0xa9, 0x3b,
  0xca, 0xd6, 0xff, 0xff, 0x10, 0x00, 0x00, 0x00, 0x09, 0x00, 0x00, 0x00,
  0x10, 0x00, 0x00, 0x00, 0x20, 0x00, 0x00, 0x00, 0x01, 0x00, 0x00, 0x00,
  0x08, 0x00, 0x00, 0x00, 0x0c, 0x00, 0x00, 0x00, 0x73, 0x74, 0x64, 0x2e,
  0x63, 0x6f, 0x6e, 0x73, 0x74, 0x61, 0x6e, 0x74, 0x00, 0x00, 0x00, 0x00,
  0xac, 0xd6, 0xff, 0xff, 0xa2, 0xd7, 0xff, 0xff, 0x04, 0x00, 0x00, 0x00,
  0x00, 0x08, 0x00, 0x00, 0x14, 0x31, 0xb5, 0xbe, 0x5f, 0x30, 0x05, 0xbe,
  0xce, 0xeb, 0x08, 0xbe, 0x5d, 0x10, 0x41, 0xbe, 0x18, 0x8c, 0x46, 0x3c,
  0x78, 0xa4, 0x02, 0xbe, 0xc2, 0x6b, 0xfb, 0xbe, 0xc5, 0x2b, 0xc5, 0x3c,
  0x0e, 0xff, 0xb1, 0xbe, 0x22, 0xd1, 0xa6, 0xbe, 0x2a, 0x7f, 0xd2, 0xbd,
  0xfd, 0xd2, 0xa1, 0x3d, 0x0e, 0x57, 0xee, 0xbc, 0x43, 0x0f, 0x90, 0xbe,
  0x83, 0xa9, 0xd4, 0x3c, 0xd6, 0x26, 0x7d, 0x3e, 0x3b, 0x0f, 0x0c, 0x3d,
  0x6c, 0xf7, 0x72, 0x3e, 0x21, 0xcf, 0x98, 0xbe, 0x0e, 0xae, 0x01, 0x3f,
  0x7a, 0x80, 0x93, 0xbd, 0x33, 0x9f, 0xb2, 0xbe, 0x1f, 0xf4, 0xd3, 0x3c,
  0x2d, 0x7a, 0x15, 0x3e, 0xbf, 0x2f, 0xc5, 0x3d, 0x1f, 0x55, 0xe6, 0x3d,
  0x7e, 0x98, 0xdf, 0xbd, 0x4c, 0x5c, 0xf9, 0xbe, 0x3d, 0x58, 0xb4, 0xbd,
  0xbe, 0x09, 0x9f, 0x3d, 0x49, 0x65, 0x08, 0xbe, 0x60, 0x7d, 0xe0, 0xbe,
  0x28, 0x7b, 0x84, 0x3e, 0xb9, 0x66, 0x74, 0x3e, 0x4b, 0x37, 0xe2, 0xbd,
  0xbf, 0x21, 0x70, 0x3e, 0xc6, 0x6f, 0x37, 0xbe, 0x7f, 0x7a, 0x39, 0xbe,
  0x73, 0x4b, 0x3b, 0xbe, 0x13, 0x59, 0x39, 0x3d, 0x90, 0xdd, 0x10, 0x3f,
  0xe5, 0xeb, 0x27, 0xbe, 0x25, 0x35, 0xf0, 0xbd, 0xd7, 0xe1, 0x0c, 0x3e,
  0xa7, 0x45, 0x72, 0xbe, 0xfc, 0xeb, 0x0b, 0xbe, 0x4d, 0xa5, 0x59, 0xbe,
  0xce, 0x16, 0x5e, 0x3e, 0x31, 0xfd, 0x35, 0xbe, 0xae, 0x81, 0x97, 0xbe,
  0x8a, 0x78, 0x3d, 0x3e, 0x4a, 0xcd, 0x8e, 0x3d, 0x02, 0xc7, 0xe9, 0xbd,
  0x61, 0x6c, 0x30, 0xbd, 0x49, 0xaa, 0x1c, 0xbd, 0x16, 0xe6, 0x1e, 0xbd,
  0x51, 0xfb, 0xe9, 0xbd, 0xde, 0xc2, 0xb6, 0x3e, 0xc3, 0x27, 0xdf, 0x3c,
  0x4a, 0x3d, 0xbe, 0xba, 0x24, 0xd8, 0x68, 0xbe, 0x6b, 0x99, 0x16, 0xbd,
  0x91, 0x01, 0x67, 0xbd, 0x63, 0x68, 0x3f, 0x3e, 0x30, 0xc9, 0x33, 0x3f,
  0x97, 0x3b, 0xb0, 0xbd, 0xb7, 0x03, 0xd2, 0xbd, 0xc5, 0x59, 0x25, 0x3d,
  0x4e, 0x4a, 0x41, 0xbd, 0xdf, 0xd4, 0x88, 0xbe, 0x57, 0xc7, 0xc0, 0xbd,
  0x3f, 0x6c, 0xf6, 0x3d, 0xd9, 0xb3, 0x45, 0xbe, 0xe4, 0x68, 0x28, 0x3d,
  0x6b, 0x5c, 0x47, 0xbd, 0xe4, 0xf8, 0xf4, 0xbd, 0xfc, 0xef, 0xaf, 0x3c,
  0xbd, 0x17, 0x66, 0xbe, 0x00, 0xe8, 0xde, 0xbd, 0xf6, 0x94, 0x3b, 0x3c,
  0x6f, 0xbb, 0xef, 0xbc, 0x1a, 0xa0, 0x6a, 0x3b, 0x96, 0xff, 0xa7, 0x3d,
  0x9d, 0x7d, 0xa6, 0xbd, 0xa0, 0x50, 0x7a, 0x3d, 0x6c, 0x41, 0x64, 0xbd,
  0x84, 0x38, 0x75, 0xbd, 0x68, 0xd2, 0x1f, 0xbc, 0x05, 0xbe, 0x14, 0xbe,
  0xe3, 0x53, 0x91, 0xbe, 0xd1, 0x8d, 0xc3, 0x3d, 0xde, 0x60, 0x86, 0x3e,
  0x2d, 0x62, 0x8f, 0xbc, 0x34, 0x02, 0xbe, 0xbd, 0x74, 0x9c, 0xb9, 0x3d,
  0x2e, 0xda, 0xa5, 0x3e, 0xeb, 0x55, 0x92, 0xbe, 0xf2, 0x69, 0xa8, 0xbe,
  0x0f, 0x94, 0x60, 0xbe, 0x4f, 0x85, 0x77, 0xbd, 0xd8, 0x84, 0x13, 0xbe,
  0x19, 0xbb, 0x31, 0xbe, 0xd8, 0x91, 0x96, 0xbd, 0x8d, 0xfc, 0x40, 0x3d,
  0xc2, 0xc3, 0x9d, 0xbd, 0x62, 0xa6, 0x5d, 0xbe, 0xeb, 0x32, 0x2f, 0xbe,
  0xcf, 0x3d, 0x80, 0xbc, 0x2c, 0x82, 0xc9, 0xbd, 0x8c, 0x39, 0x0c, 0xbe,
  0x6b, 0x2d, 0x12, 0xbe, 0x99, 0x10, 0x20, 0xbe, 0x07, 0x19, 0xff, 0x3d,
  0x1d, 0x3e, 0xb7, 0x3e, 0x09, 0xf5, 0x27, 0xbe, 0xf5, 0x9e, 0xad, 0xbd,
  0xbc, 0x99, 0x2f, 0xbd, 0x61, 0xcf, 0xd2, 0xbd, 0x0f, 0x5c, 0x99, 0xbd,
  0xc7, 0x7f, 0x41, 0xbe, 0xf6, 0x32, 0x23, 0x3e, 0x59, 0xce, 0x6a, 0x3e,
  0x3f, 0x2b, 0xd3, 0x3e, 0x4d, 0x91, 0x08, 0x3d, 0x3f, 0xf0, 0x7c, 0x3e,
  0x83, 0x6b, 0x98, 0x3e, 0xd6, 0x3a, 0x1f, 0x3d, 0x72, 0x6d, 0xde, 0xbd,
  0x33, 0xd0, 0x90, 0xbe, 0x84, 0x2c, 0xb5, 0xbd, 0x02, 0x7e, 0xcb, 0x3d,
  0xec, 0xcf, 0x92, 0xbe, 0x2d, 0x6d, 0x19, 0x3e, 0xe2, 0xfb, 0x03, 0xbc,
  0xaf, 0x4e, 0x8e, 0xbe, 0xb5, 0xb1, 0xd8, 0xbb, 0x28, 0x6a, 0xa9, 0xbd,
  0x45, 0x50, 0x06, 0xbe, 0x54, 0xb4, 0xe0, 0xbc, 0xd9, 0xde, 0x4f, 0xbe,
  0xd3, 0x55, 0xc9, 0x3e, 0xe7, 0x96, 0xe2, 0x3c, 0x1d, 0x41, 0x7d, 0xbe,
  0x92, 0xd5, 0x39, 0x3d, 0xed, 0x99, 0x70, 0xbb, 0xed, 0x90, 0xdb, 0xbd,
  0xa6, 0x8d, 0xf9, 0x3d, 0xa2, 0x52, 0x0a, 0xbd, 0x7d, 0x1c, 0x82, 0xbe,
  0xe7, 0x6b, 0x87, 0xbc, 0x2f, 0x09, 0xaa, 0xbe, 0xf1, 0x4e, 0xe9, 0x3d,
  0x68, 0xdb, 0x4e, 0x3e, 0xb0, 0x70, 0x18, 0xbd, 0x80, 0xca, 0xa8, 0xbd,
  0x69, 0x85, 0x25, 0xbe, 0xf9, 0x43, 0xe1, 0xbd, 0xb6, 0xee, 0x5e, 0xbe,
  0x9e, 0x15, 0xf6, 0xbe, 0x57, 0x9e, 0x59, 0xbe, 0xdb, 0xb5, 0x10, 0xbe,
  0x3f, 0x95, 0xd8, 0xbc, 0x4e, 0xcc, 0x08, 0xbd, 0x6b, 0x48, 0x3a, 0xbd,
  0xaf, 0x6f, 0x18, 0x3d, 0x1b, 0x2c, 0x9c, 0xbd, 0x8f, 0xf0, 0x50, 0xbd,
  0xa8, 0x46, 0xfa, 0xbd, 0x8d, 0x3c, 0x7d, 0x3e, 0x59, 0x34, 0xa1, 0xbd,
  0xad, 0x8c, 0x1c, 0x3d, 0x96, 0xb2, 0x5a, 0xbe, 0x58, 0x21, 0xcc, 0x3c,
  0x57, 0xf3, 0x35, 0xbd, 0xfe, 0x55, 0x66, 0xbd, 0xd6, 0xda, 0x1c, 0xbe,
  0x29, 0x81, 0x8f, 0x3d, 0x8d, 0x0d, 0x6a, 0x3e, 0x4b, 0x41, 0x01, 0x3e,
  0x68, 0x5f, 0xf0, 0xbd, 0xe7, 0x5f, 0x21, 0x3d, 0x44, 0x40, 0x59, 0x3d,
  0x0f, 0xfd, 0x86, 0x3e, 0x47, 0x1e, 0xd8, 0xbc, 0x60, 0x24, 0xa0, 0x3d,
  0xec, 0xab, 0x5b, 0xbe, 0xef, 0xe4, 0x3a, 0xbd, 0x32, 0x46, 0xc9, 0x3e,
  0x9c, 0xe0, 0x6e, 0xbc, 0xfb, 0x6c, 0xf3, 0xbc, 0xda, 0xbe, 0x05, 0x3c,
  0x6d, 0x4f, 0xbb, 0x3c, 0x58, 0x99, 0x34, 0xbe, 0x11, 0xf1, 0x4d, 0x3d,
  0x03, 0xe6, 0x2b, 0xbe, 0x73, 0x4a, 0x78, 0x3c, 0xb8, 0x5e, 0x21, 0x3e,
  0x4d, 0x36, 0x2d, 0xbe, 0x1d, 0x0c, 0x77, 0xbd, 0xc1, 0x9f, 0x42, 0x3e,
  0xb5, 0xa2, 0xef, 0x3d, 0x62, 0xb0, 0x8d, 0xbd, 0xf2, 0x37, 0xd0, 0x3d,
  0x56, 0x26, 0xdc, 0xbd, 0x39, 0xbd, 0x26, 0xbd, 0x2c, 0x22, 0x27, 0xbd,
  0xfd, 0xd2, 0x02, 0x3e, 0xb1, 0x88, 0x0a, 0x3e, 0x62, 0xc9, 0xc7, 0x3c,
  0x33, 0x45, 0xa2, 0xbc, 0xc7, 0x08, 0xc1, 0xbd, 0x56, 0x44, 0x82, 0x3e,
  0xd5, 0xcf, 0x3b, 0x3d, 0xb5, 0xd8, 0x36, 0x3e, 0x4b, 0xd5, 0xa1, 0x3c,
  0xd2, 0x77, 0xbe, 0xbc, 0x03, 0x60, 0x30, 0x3e, 0x0f, 0xd2, 0xa4, 0x3d,
  0xa9, 0x11, 0x44, 0x3e, 0xc2, 0xb4, 0xde, 0x3d, 0x4d, 0xc8, 0x4b, 0xbb,
  0x3d, 0xc2, 0xc1, 0xbd, 0x42, 0xa1, 0x70, 0x3e, 0x11, 0xa1, 0xf0, 0xbd,
  0x1e, 0xb4, 0xa7, 0x3e, 0x3e, 0x41, 0x2b, 0x3d, 0x17, 0x0d, 0x01, 0x3f,
  0x7d, 0xaa, 0x90, 0x3b, 0x9b, 0xbf, 0xa8, 0x3e, 0x89, 0x92, 0x0f, 0x3e,
  0xc2, 0x7d, 0xbc, 0x3d, 0xb4, 0x17, 0x3b, 0xbe, 0xc0, 0x8b, 0x6d, 0xbd,
  0x05, 0x37, 0x5e, 0x3e, 0xa4, 0xb8, 0x8b, 0xbd, 0x8c, 0xd1, 0x32, 0x3d,
  0xeb, 0x23, 0x21, 0xbe, 0x45, 0x71, 0x2d, 0xbd, 0x07, 0x4c, 0x10, 0x3e,
  0x5e, 0x66, 0x4d, 0xbe, 0x1d, 0x64, 0x56, 0xbe, 0x4f, 0xe4, 0xa1, 0xbe,
  0x41, 0x21, 0x4d, 0xbe, 0xa4, 0x4d, 0x7f, 0xbd, 0xd3, 0xa2, 0x64, 0xbe,
  0x70, 0xe5, 0x09, 0xbd, 0xa2, 0xaa, 0x8a, 0xbd, 0x25, 0xc2, 0xa3, 0xbd,
  0xaf, 0x3e, 0xfd, 0xbd, 0x20, 0xe2, 0xc5, 0xbe, 0x9c, 0x3f, 0x81, 0xbe,
  0x84, 0xab, 0x04, 0xbe, 0x9d, 0xbe, 0x64, 0xbe, 0xed, 0x77, 0x00, 0xbe,
  0x43, 0x5e, 0x14, 0xbe, 0x50, 0x81, 0x2c, 0x3d, 0xed, 0xd0, 0x38, 0xbe,
  0xdb, 0xd9, 0x20, 0xbf, 0xd9, 0x2e, 0x23, 0xbd, 0x47, 0x45, 0x1d, 0x3e,
  0x1a, 0x69, 0xa4, 0xba, 0x3f, 0x42, 0xdb, 0xbe, 0xa2, 0xa0, 0x0d, 0x3e,
  0x9b, 0x5e, 0x8a, 0x3e, 0x4e, 0xa1, 0x9d, 0x3d, 0xfd, 0x58, 0x7f, 0xbd,
  0x77, 0xc2, 0x3e, 0xbf, 0xfa, 0x3f, 0xcc, 0x3e, 0x20, 0x02, 0xeb, 0xbe,
  0x53, 0x1c, 0x6c, 0xbf, 0x99, 0x75, 0x15, 0x3e, 0xda, 0x25, 0xab, 0xbd,
  0x00, 0x89, 0xcf, 0x3d, 0x93, 0x37, 0x7f, 0x3e, 0xb7, 0x48, 0xa9, 0xbd,
  0x86, 0x75, 0x7f, 0xbe, 0xf2, 0x50, 0x22, 0xbe, 0x54, 0x35, 0x8b, 0x3d,
  0x94, 0x99, 0xed, 0xbd, 0x60, 0x16, 0x78, 0xbe, 0x71, 0x88, 0x31, 0x3d,
  0xf2, 0xf5, 0x4e, 0x3e, 0x09, 0xb4, 0x23, 0xbc, 0x7b, 0x68, 0x3e, 0xbe,
  0x99, 0x0c, 0x5f, 0x3d, 0x7e, 0x45, 0xd6, 0x3d, 0x16, 0xde, 0xe2, 0xbd,
  0x8f, 0xa3, 0x74, 0x3e, 0xd9, 0xd5, 0xa1, 0xbe, 0xa6, 0xf3, 0xe7, 0xbe,
  0x45, 0x44, 0xb2, 0xbe, 0xb8, 0xf1, 0x97, 0x3e, 0x2f, 0xcc, 0x89, 0xbd,
  0xa7, 0x89, 0x2e, 0xbf, 0x6d, 0x8d, 0x9d, 0x3d, 0xc3, 0x29, 0xc6, 0x3e,
  0x28, 0x07, 0x78, 0x3e, 0x1f, 0x11, 0x82, 0x3e, 0x4c, 0xef, 0xe3, 0xbe,
  0x90, 0x35, 0x83, 0x3e, 0xe4, 0xa5, 0xb2, 0xbe, 0x36, 0x88, 0xa5, 0xbe,
  0xe9, 0x80, 0xd6, 0xbd, 0x0a, 0x56, 0xac, 0xbe, 0xdd, 0x41, 0x6f, 0x3e,
  0xf9, 0xd6, 0x2c, 0x3e, 0x57, 0xf2, 0xe7, 0xbd, 0x27, 0x7a, 0x14, 0xbf,
  0x78, 0x47, 0x62, 0xbd, 0xb4, 0xf1, 0x2e, 0xbd, 0xf7, 0xa4, 0x1f, 0xbe,
  0x40, 0x8b, 0xae, 0x3e, 0xd9, 0xf8, 0x9e, 0xbe, 0x86, 0x75, 0x50, 0x3d,
  0x66, 0x6f, 0x0d, 0x3e, 0x7f, 0x03, 0x44, 0xbe, 0x18, 0x9f, 0x81, 0x3c,
  0xbd, 0x76, 0x82, 0x3e, 0x09, 0x0a, 0x89, 0xbd, 0xe9, 0xad, 0x05, 0xbe,
  0x39, 0x45, 0xab, 0xbd, 0x1e, 0x8b, 0x58, 0x3d, 0x91, 0x47, 0x14, 0x3c,
  0xc3, 0xea, 0x4c, 0x3e, 0xe2, 0xc2, 0xce, 0xbd, 0x09, 0xab, 0x2c, 0xbd,
  0x7d, 0xb7, 0xa5, 0x3e, 0x07, 0x02, 0xa8, 0xbe, 0x5a, 0x9b, 0x73, 0xbe,
  0xf2, 0x3f, 0x45, 0xbe, 0xe5, 0xa4, 0x21, 0xbe, 0xbf, 0xa9, 0x3a, 0xbe,
  0x41, 0x0f, 0x3f, 0xbe, 0xe6, 0xe2, 0x01, 0x3e, 0x54, 0xda, 0x98, 0x3e,
  0x5d, 0xb4, 0x44, 0xbe, 0x54, 0x72, 0x3a, 0xbe, 0x9a, 0x0d, 0xb8, 0xbd,
  0x06, 0xd9, 0x6e, 0xbe, 0xdf, 0xfa, 0xf1, 0xbd, 0xa7, 0x94, 0x91, 0xbd,
  0xda, 0x87, 0x34, 0x3e, 0x2e, 0x74, 0xac, 0xbd, 0xa9, 0xa0, 0xfa, 0xbc,
  0xd6, 0x31, 0x04, 0xbc, 0x37, 0xdd, 0xcc, 0xbc, 0x25, 0xb3, 0x2d, 0xbd,
  0x63, 0x01, 0x3c, 0xba, 0xdf, 0x5c, 0x8a, 0xbd, 0x34, 0x97, 0x92, 0x3d,
  0xb9, 0xc0, 0x30, 0x3d, 0x72, 0xd0, 0xff, 0xbd, 0x2a, 0xf2, 0xa3, 0xbd,
  0x3e, 0x47, 0x74, 0xbc, 0xff, 0xcb, 0x4d, 0xbe, 0xe2, 0x43, 0xd0, 0x3c,
  0xf2, 0xdf, 0x03, 0xbe, 0x02, 0xd9, 0xbf, 0x3d, 0xb8, 0x70, 0xa0, 0x3c,
  0xf0, 0xd1, 0xac, 0x3e, 0xb4, 0x03, 0x67, 0x3e, 0x4b, 0x19, 0x2d, 0xbb,
  0x2e, 0x38, 0x26, 0xbe, 0x79, 0x68, 0xd0, 0x3d, 0xf9, 0x72, 0x59, 0xbe,
  0xa9, 0x9a, 0x21, 0xbd, 0x74, 0xc8, 0x45, 0x3e, 0x4c, 0xbf, 0xd4, 0x3e,
  0x8b, 0x16, 0xf7, 0xbc, 0x6a, 0x6b, 0xd0, 0x3e, 0x89, 0x4b, 0x9e, 0xbe,
  0x0f, 0x27, 0xea, 0x3d, 0x0c, 0x7f, 0x91, 0xbe, 0x0a, 0xfa, 0xf2, 0xbd,
  0xa7, 0xe1, 0xc7, 0xbc, 0x8c, 0xc6, 0x97, 0x3d, 0x77, 0xa9, 0xa2, 0x3d,
  0x82, 0x68, 0x3e, 0x3d, 0x74, 0x60, 0x5e, 0xbe, 0xc2, 0xcb, 0xad, 0x3d,
  0x15, 0x11, 0x9c, 0xbe, 0x09, 0x07, 0x55, 0x3e, 0x5a, 0x51, 0x45, 0xbd,
  0x39, 0x59, 0x83, 0x3d, 0x88, 0x81, 0x73, 0xbe, 0x67, 0x01, 0xf0, 0xbd,
  0x06, 0xfe, 0x8b, 0xbd, 0x96, 0x69, 0xb0, 0xbe, 0x87, 0xd7, 0x74, 0x3d,
  0x3b, 0x3f, 0x13, 0xbe, 0x56, 0x3e, 0xb0, 0xbe, 0x1a, 0x85, 0x33, 0x3c,
  0x20, 0x32, 0xeb, 0xbe, 0x38, 0xdc, 0x05, 0xbe, 0x05, 0x11, 0xe4, 0xbd,
  0xde, 0x32, 0x20, 0xbe, 0x6e, 0x5e, 0x27, 0x3d, 0x35, 0x1c, 0x26, 0xbe,
  0xf8, 0x10, 0x11, 0xbe, 0x70, 0x57, 0x06, 0x3e, 0xcc, 0x07, 0x70, 0xbe,
  0x80, 0xbe, 0x72, 0xbd, 0x6c, 0xc3, 0x07, 0xbd, 0xe1, 0x62, 0x18, 0x3f,
  0x4a, 0x9a, 0xa3, 0x3c, 0x28, 0xfb, 0x24, 0xbe, 0x87, 0x60, 0x47, 0x3d,
  0xb5, 0x56, 0xb2, 0x3c, 0x54, 0x5f, 0x62, 0x3e, 0xea, 0x1a, 0x09, 0xbf,
  0x18, 0x05, 0x42, 0xbd, 0x87, 0x44, 0xe3, 0x3d, 0xd8, 0x5e, 0xb3, 0x3a,
  0x0c, 0x06, 0x95, 0xbd, 0x53, 0x90, 0x9e, 0x3d, 0x96, 0x90, 0x83, 0x3e,
  0xcc, 0xf7, 0x93, 0xbe, 0x69, 0x06, 0x9a, 0xbe, 0x4f, 0x43, 0xb1, 0xbd,
  0xea, 0x5e, 0x60, 0xbe, 0x72, 0x08, 0xaa, 0xbd, 0x87, 0xdd, 0xba, 0xbd,
  0x3e, 0x17, 0x47, 0xbe, 0xe3, 0xd7, 0x3b, 0xbd, 0xb4, 0xad, 0x5d, 0x3e,
  0xea, 0xd5, 0x80, 0xbe, 0x14, 0xdd, 0xc5, 0xbd, 0xf8, 0xd4, 0x4e, 0xbe,
  0xb3, 0xfd, 0xee, 0xbc, 0xea, 0xf0, 0xaa, 0xbd, 0xf8, 0xaf, 0x3b, 0xbe,
  0x42, 0xe1, 0xfe, 0xbd, 0x82, 0x1e, 0xe2, 0x3d, 0x30, 0x2f, 0xdd, 0x3c,
  0x5a, 0x6d, 0x0d, 0x3d, 0xe0, 0x10, 0x09, 0xbe, 0x43, 0xcc, 0x94, 0x3d,
  0x8e, 0x47, 0x2d, 0xbd, 0x57, 0xc5, 0xf2, 0xbd, 0xf3, 0x8e, 0x81, 0xbd,
  0xa5, 0xf1, 0xb3, 0xbd, 0x05, 0x94, 0x2a, 0x3f, 0x0b, 0x25, 0x21, 0x3e,
  0x73, 0xab, 0x80, 0x3e, 0x5b, 0x84, 0x12, 0x3c, 0xd0, 0xd9, 0x81, 0x3e,
  0xd7, 0xdd, 0x54, 0x3e, 0x45, 0x80, 0x70, 0xbd, 0x2c, 0x7b, 0xc4, 0xbe,
  0xda, 0xef, 0xef, 0xbd, 0x3a, 0x78, 0xbf, 0x3e, 0x52, 0x65, 0xa4, 0x3d,
  0xc5, 0xe0, 0x7d, 0x3d, 0x5f, 0x11, 0x8f, 0x3e, 0xc1, 0x1b, 0xd1, 0x3e,
  0x4c, 0xbe, 0x55, 0x3d, 0x96, 0xde, 0x5d, 0xbe, 0x77, 0x47, 0x28, 0xbf,
  0x70, 0x35, 0xbe, 0xbe, 0x28, 0x43, 0x42, 0xbe, 0x90, 0x39, 0x91, 0xbe,
  0x76, 0x56, 0x34, 0xbe, 0x52, 0x0c, 0xed, 0xbd, 0x72, 0xa5, 0x4e, 0x3c,
  0x8c, 0xae, 0x26, 0xbc, 0xc2, 0x4c, 0x96, 0xbe, 0xda, 0x5d, 0xc5, 0xbe,
  0x03, 0x23, 0xd7, 0xbd, 0x08, 0xe2, 0x75, 0xbe, 0xfc, 0xe0, 0x5c, 0xbe,
  0x46, 0xdf, 0xa9, 0xbd, 0x77, 0xf4, 0x9a, 0x3e, 0xdb, 0x20, 0x40, 0xbd,
  0xcd, 0x2e, 0xbc, 0xbc, 0xf1, 0xf4, 0xae, 0xbe, 0x84, 0xc3, 0x73, 0x3e,
  0xe6, 0x06, 0x2c, 0xbc, 0x7a, 0x5e, 0x66, 0xbe, 0xea, 0x64, 0x35, 0xbe,
  0x1d, 0x08, 0xc2, 0x3e, 0xd2, 0xb3, 0x44, 0x3e, 0xa2, 0xc7, 0xc5, 0x3c,
  0x0b, 0x4b, 0x32, 0x3e, 0xeb, 0xd4, 0xba, 0x3b, 0x19, 0xbe, 0xab, 0x3e,
  0x28, 0x83, 0xbb, 0x3e, 0x6e, 0xcc, 0xfd, 0x3e, 0xb1, 0xd6, 0x45, 0xbe,
  0x1b, 0xe2, 0xcd, 0xbe, 0x08, 0x1d, 0x2d, 0xbe, 0xa9, 0xd5, 0x9b, 0x3d,
  0xc3, 0xc7, 0x40, 0x3d, 0x61, 0x2a, 0x1a, 0xbe, 0xfb, 0x6b, 0xcc, 0xbc,
  0x3c, 0xfc, 0x49, 0xbd, 0xb0, 0xa9, 0x59, 0x3d, 0x53, 0xa8, 0x80, 0xbe,
  0x7d, 0xe8, 0xd4, 0xbe, 0xe6, 0x9e, 0x76, 0xbe, 0x78, 0xb5, 0x03, 0xbd,
  0x49, 0x47, 0x95, 0xbe, 0x3f, 0xbb, 0xbd, 0xbd, 0xe9, 0x02, 0xea, 0xbd,
  0x8a, 0x32, 0x81, 0x3e, 0x91, 0x72, 0x4c, 0x3d, 0x20, 0x86, 0x93, 0xbe,
  0x55, 0x61, 0x7e, 0xbe, 0x21, 0xc2, 0x3e, 0xbe, 0xf9, 0x2c, 0x8e, 0xbe,
  0x70, 0xec, 0x69, 0xbe, 0xac, 0xf9, 0x5e, 0xbe, 0x12, 0x4a, 0xe6, 0x3d,
  0x0a, 0xdf, 0xff, 0xff, 0x10, 0x00, 0x00, 0x00, 0x08, 0x00, 0x00, 0x00,
  0x1c, 0x00, 0x00, 0x00, 0x38, 0x00, 0x00, 0x00, 0x04, 0x00, 0x00, 0x00,
  0x10, 0x00, 0x00, 0x00, 0x04, 0x00, 0x00, 0x00, 0x01, 0x00, 0x00, 0x00,
  0x08, 0x00, 0x00, 0x00, 0x1a, 0x00, 0x00, 0x00, 0x73, 0x65, 0x71, 0x75,
  0x65, 0x6e, 0x74, 0x69, 0x61, 0x6c, 0x2f, 0x63, 0x6f, 0x6e, 0x76, 0x32,
  0x64, 0x5f, 0x31, 0x2f, 0x43, 0x6f, 0x6e, 0x76, 0x32, 0x44, 0x00, 0x00,
  0x04, 0xdf, 0xff, 0xff, 0xfa, 0xdf, 0xff, 0xff, 0x04, 0x00, 0x00, 0x00,
  0x80, 0x01, 0x00, 0x00, 0x06, 0x2f, 0x23, 0x3e, 0xa2, 0x27, 0x6a, 0x3c,
  0xf2, 0x91, 0xab, 0xbd, 0x4a, 0xc8, 0xdb, 0x3e, 0xe3, 0x01, 0x34, 0x3e,
  0xf4, 0xd6, 0x9a, 0x3e, 0x83, 0x74, 0x5c, 0xbe, 0xb6, 0xb1, 0x49, 0x3e,
  0x98, 0xb1, 0xe2, 0xbd, 0x58, 0x5a, 0x75, 0xbe, 0x33, 0x13, 0xa1, 0xbe,
  0xac, 0x60, 0x29, 0xbe, 0x4c, 0x1e, 0xdc, 0x3e, 0x32, 0xd1, 0x82, 0x3e,
  0x96, 0xe1, 0x2d, 0x3e, 0xd9, 0xcd, 0x9e, 0x3d, 0xc4, 0x76, 0x0a, 0x3d,
  0xf8, 0xca, 0x0c, 0xbd, 0x35, 0x5b, 0xcc, 0xbe, 0xdb, 0x01, 0x9a, 0xbe,
  0xcc, 0x47, 0x95, 0xbd, 0x41, 0xb5, 0x18, 0xbe, 0xbb, 0xfb, 0xd0, 0xbd,
  0x6a, 0xeb, 0x4a, 0xbb, 0x3e, 0x57, 0x90, 0x3d, 0xeb, 0x9c, 0x24, 0x3e,
  0xc2, 0x22, 0x4a, 0xbe, 0x99, 0x7f, 0xb6, 0x3c, 0xe1, 0x4f, 0x56, 0x3d,
  0xb6, 0xe4, 0x14, 0xbe, 0x9f, 0xf5, 0x05, 0x3d, 0xc0, 0x8a, 0x3f, 0xbe,
  0x29, 0x8a, 0x1c, 0xbc, 0x4e, 0xf3, 0x64, 0x3d, 0xc9, 0x01, 0xe3, 0xbd,
  0xc9, 0xc6, 0x37, 0x3d, 0x1c, 0x7f, 0x88, 0xbc, 0x83, 0x7d, 0x0c, 0xbe,
  0xa2, 0x1b, 0xb3, 0xbe, 0x90, 0x7f, 0x98, 0xbd, 0xe3, 0xfb, 0xf4, 0x3d,
  0x74, 0x22, 0x9b, 0xbe, 0x54, 0x37, 0x12, 0x3e, 0xc7, 0xfa, 0xda, 0x3d,
  0x27, 0x58, 0xee, 0x3e, 0x43, 0x02, 0x04, 0xbd, 0x02, 0x89, 0x52, 0x3d,
  0xfe, 0x22, 0xd1, 0x3d, 0xd4, 0xbb, 0x70, 0x3c, 0x67, 0xf4, 0xcd, 0x3d,
  0xca, 0xc3, 0x5f, 0xbe, 0x01, 0x70, 0x4f, 0xbd, 0xa0, 0xef, 0x19, 0x3e,
  0x98, 0x0f, 0xfc, 0xbd, 0x1c, 0xd7, 0xd5, 0xbc, 0xca, 0x5c, 0x9b, 0xbc,
  0x50, 0x97, 0x05, 0xbe, 0x4c, 0xda, 0xe7, 0x3d, 0xbb, 0x45, 0xff, 0xbd,
  0x7b, 0x69, 0xbf, 0x3d, 0xa4, 0x31, 0x02, 0x3d, 0x81, 0x06, 0x9c, 0xbd,
  0xb2, 0x67, 0x5c, 0xbd, 0x46, 0xef, 0x80, 0x3b, 0x44, 0xc3, 0x3d, 0xbe,
  0x2f, 0xb5, 0x59, 0x3e, 0x83, 0xed, 0xe5, 0xbd, 0xa6, 0xcf, 0xb0, 0x3c,
  0x0a, 0x87, 0x4a, 0xbd, 0x7e, 0x1f, 0x18, 0xbe, 0x99, 0xa2, 0xfd, 0x3b,
  0x9c, 0xd8, 0xbc, 0x3d, 0x94, 0xaa, 0x37, 0x3d, 0x5b, 0xb0, 0x52, 0xbe,
  0xd7, 0x28, 0x08, 0x3e, 0x77, 0xe7, 0xf1, 0x3d, 0x34, 0x82, 0xa6, 0xbe,
  0xee, 0x08, 0xc4, 0x3a, 0x8c, 0x3a, 0x56, 0xbe, 0xa5, 0x5f, 0xc3, 0x3e,
  0x30, 0xc7, 0x88, 0x3d, 0xd3, 0xb4, 0x31, 0xbd, 0x10, 0x7b, 0x05, 0x3e,
  0xdf, 0xfd, 0xbb, 0x3d, 0x03, 0x7b, 0x83, 0xbe, 0x2f, 0x8c, 0x02, 0x3d,
  0x1d, 0x66, 0x57, 0x3e, 0x92, 0x53, 0x20, 0xbd, 0xe5, 0x7a, 0xc8, 0xbe,
  0xb6, 0x53, 0x3b, 0xbe, 0x86, 0x0e, 0xfe, 0x3d, 0x87, 0x97, 0xda, 0xbd,
  0xc6, 0xad, 0x1a, 0xbb, 0x2a, 0xd6, 0x2d, 0x3e, 0x66, 0xad, 0xa4, 0x3e,
  0x93, 0xa7, 0xb0, 0xbd, 0xe2, 0xe0, 0xff, 0xff, 0x10, 0x00, 0x00, 0x00,
  0x07, 0x00, 0x00, 0x00, 0x1c, 0x00, 0x00, 0x00, 0x38, 0x00, 0x00, 0x00,
  0x04, 0x00, 0x00, 0x00, 0x08, 0x00, 0x00, 0x00, 0x04, 0x00, 0x00, 0x00,
  0x03, 0x00, 0x00, 0x00, 0x01, 0x00, 0x00, 0x00, 0x18, 0x00, 0x00, 0x00,
  0x73, 0x65, 0x71, 0x75, 0x65, 0x6e, 0x74, 0x69, 0x61, 0x6c, 0x2f, 0x63,
  0x6f, 0x6e, 0x76, 0x32, 0x64, 0x2f, 0x43, 0x6f, 0x6e, 0x76, 0x32, 0x44,
  0x00, 0x00, 0x00, 0x00, 0xdc, 0xe0, 0xff, 0xff, 0xd2, 0xe1, 0xff, 0xff,
  0x04, 0x00, 0x00, 0x00, 0xc0, 0x00, 0x00, 0x00, 0x9e, 0x89, 0x7a, 0xbd,
  0x3d, 0x90, 0xd6, 0xbd, 0xd6, 0xd5, 0xe0, 0x3c, 0x32, 0x09, 0x32, 0x3e,
  0xba, 0x8b, 0xb7, 0x3e, 0x7e, 0x1a, 0x7d, 0xbc, 0x45, 0x65, 0x54, 0x3d,
  0x4e, 0x68, 0x49, 0xbe, 0x7e, 0xf1, 0xd6, 0xbe, 0x78, 0x1b, 0x86, 0x3e,
  0x65, 0x77, 0x65, 0x3d, 0x55, 0xac, 0xf7, 0xbd, 0x74, 0xc2, 0xc6, 0x3e,
  0x9c, 0x94, 0x84, 0x3e, 0x08, 0xdb, 0x94, 0xbe, 0x4a, 0x87, 0x5d, 0xbe,
  0xbe, 0x13, 0xa2, 0xbc, 0x26, 0xa7, 0x6f, 0x3d, 0x81, 0x96, 0xd1, 0x3d,
  0x2f, 0x75, 0x66, 0x3e, 0x8d, 0x20, 0xc5, 0xbe, 0x75, 0x7e, 0x1f, 0x3d,
  0xe2, 0x20, 0xde, 0x3d, 0xa2, 0xa5, 0x3c, 0xbe, 0x08, 0x8c, 0xe0, 0xbe,
  0xeb, 0xda, 0x8f, 0x3e, 0xc8, 0x55, 0x94, 0x3e, 0x81, 0xda, 0x77, 0x3e,
  0xda, 0x67, 0xbc, 0x3e, 0x41, 0x29, 0x96, 0x3e, 0x8c, 0x95, 0x0e, 0xbe,
  0x8c, 0x83, 0xb0, 0x3e, 0x91, 0x6d, 0x36, 0x3c, 0x60, 0x8f, 0xe2, 0x3b,
  0xc0, 0x6f, 0x0b, 0x3e, 0xd7, 0x5d, 0x34, 0x3e, 0x59, 0xe0, 0x0a, 0xbf,
  0x4c, 0xfd, 0x6f, 0xbd, 0xce, 0x3d, 0xa1, 0x3d, 0x4a, 0x4d, 0x00, 0xbe,
  0x85, 0x18, 0xed, 0xbe, 0xe5, 0xd7, 0xae, 0x3e, 0xd0, 0xa7, 0xde, 0x3e,
  0xc3, 0x20, 0x1b, 0xbe, 0x50, 0x0f, 0xa7, 0x3e, 0xa2, 0x4d, 0x52, 0x3e,
  0xfb, 0x28, 0x1a, 0xbe, 0x59, 0xbb, 0x72, 0x3e, 0xfa, 0xe1, 0xff, 0xff,
  0x10, 0x00, 0x00, 0x00, 0x06, 0x00, 0x00, 0x00, 0x14, 0x00, 0x00, 0x00,
  0x30, 0x00, 0x00, 0x00, 0x02, 0x00, 0x00, 0x00, 0x03, 0x00, 0x00, 0x00,
  0x10, 0x00, 0x00, 0x00, 0x19, 0x00, 0x00, 0x00, 0x73, 0x65, 0x71, 0x75,
  0x65, 0x6e, 0x74, 0x69, 0x61, 0x6c, 0x2f, 0x64, 0x65, 0x6e, 0x73, 0x65,
  0x5f, 0x31, 0x2f, 0x4d, 0x61, 0x74, 0x4d, 0x75, 0x6c, 0x00, 0x00, 0x00,
  0xec, 0xe1, 0xff, 0xff, 0xe2, 0xe2, 0xff, 0xff, 0x04, 0x00, 0x00, 0x00,
  0x00, 0x1c, 0x00, 0x00, 0x7b, 0x4c, 0xf2, 0xbd, 0x65, 0x7c, 0x52, 0xbd,
  0xff, 0xbe, 0x66, 0xbd, 0x46, 0xd7, 0xbd, 0xbd, 0x80, 0x92, 0x2f, 0x3e,
  0x2b, 0x21, 0x53, 0xbe, 0x87, 0x01, 0xf4, 0x3d, 0xc9, 0x49, 0x46, 0xbf,
  0x17, 0x87, 0x6c, 0xbe, 0x40, 0x36, 0x6a, 0xbe, 0x66, 0xd1, 0x04, 0xbf,
  0x47, 0x2a, 0x1e, 0x3c, 0x07, 0x6d, 0xd3, 0xbd, 0xb2, 0x45, 0xab, 0x3d,
  0x7e, 0xd8, 0x90, 0xbe, 0x68, 0x05, 0x22, 0xbf, 0xba, 0x47, 0x41, 0x3e,
  0xf1, 0x00, 0x46, 0x3e, 0x91, 0x7a, 0x81, 0x3d, 0xfd, 0x54, 0x8f, 0xbe,
  0x80, 0x5d, 0xa3, 0x3e, 0xcb, 0xf1, 0xc3, 0x3d, 0xab, 0xce, 0xb2, 0x3c,
  0x5f, 0xc1, 0x7c, 0xbe, 0x96, 0xf4, 0x6c, 0xbe, 0x53, 0x3f, 0xbc, 0x3d,
  0x89, 0x58, 0xea, 0x3d, 0x20, 0x79, 0xb3, 0x3d, 0xec, 0x14, 0x16, 0x3e,
  0xb3, 0x22, 0xec, 0xbd, 0xc0, 0x51, 0x00, 0xbf, 0x9f, 0xfd, 0xfc, 0xbe,
  0x87, 0xa3, 0xf7, 0x3d, 0x6f, 0xec, 0x91, 0x3e, 0xb2, 0xc8, 0x7e, 0x3e,
  0xf5, 0x46, 0xbf, 0xbd, 0x38, 0xe3, 0x6a, 0x3e, 0x3a, 0x6b, 0x6e, 0x3d,
  0x37, 0xbd, 0x9e, 0x3d, 0x1b, 0x07, 0xb1, 0xbd, 0xe9, 0x45, 0x26, 0xbe,
  0xd4, 0x46, 0x6a, 0x3d, 0x37, 0xea, 0xbc, 0x3d, 0x03, 0xcf, 0x8a, 0x3e,
  0xea, 0x8f, 0xf2, 0x3c, 0xe2, 0x43, 0xfa, 0x3b, 0x03, 0x9b, 0x76, 0xbe,
  0xe6, 0x79, 0x6d, 0xbe, 0x58, 0x20, 0x6f, 0x3e, 0x90, 0xea, 0x6e, 0x3e,
  0x9c, 0xf0, 0x6f, 0x3e, 0xc9, 0x78, 0x0a, 0xbd, 0x32, 0xb3, 0x10, 0x3e,
  0x64, 0x78, 0x8d, 0xbd, 0x4d, 0xbf, 0x88, 0x3d, 0x1e, 0xe7, 0x13, 0xbc,
  0xce, 0x4a, 0xf4, 0xbd, 0x7e, 0xbb, 0xdc, 0x3e, 0xde, 0xb1, 0x25, 0xbd,
  0xe4, 0x78, 0x08, 0x3e, 0xf2, 0xfe, 0xb8, 0x3d, 0x91, 0x61, 0x5c, 0x3b,
  0x4a, 0x1f, 0x90, 0x3d, 0x10, 0x0c, 0x22, 0xbe, 0x76, 0xfb, 0xad, 0xbd,
  0xa2, 0x60, 0x1b, 0x3e, 0x52, 0x84, 0xf5, 0x3c, 0xa5, 0x4c, 0x1e, 0xbe,
  0x3f, 0x30, 0x35, 0x3e, 0x59, 0x03, 0x68, 0x3d, 0xe6, 0x4a, 0xdd, 0x3c,
  0xa4, 0x65, 0x94, 0xbd, 0x55, 0xc7, 0xb4, 0xbd, 0x3d, 0xb7, 0x24, 0xbe,
  0xa8, 0x51, 0x8f, 0xbe, 0xe1, 0x86, 0x52, 0xbd, 0xeb, 0x1e, 0xd7, 0x3d,
  0x3e, 0x2a, 0xe3, 0xbd, 0x55, 0x15, 0xa3, 0xbe, 0x81, 0xea, 0x8e, 0xbe,
  0xce, 0xac, 0x26, 0xbd, 0x33, 0x5a, 0xe3, 0x3d, 0x9a, 0xe9, 0x67, 0xbb,
  0xec, 0x5f, 0x11, 0xbe, 0xc7, 0x5d, 0x99, 0x3e, 0x36, 0x65, 0x17, 0xbe,
  0x0a, 0x1c, 0x0a, 0x3c, 0x6c, 0x57, 0xf5, 0xbd, 0xe0, 0x6e, 0x92, 0xbe,
  0xf1, 0xba, 0x49, 0x3d, 0x78, 0x48, 0xb1, 0x3d, 0x84, 0x25, 0x11, 0x3e,
  0xab, 0x51, 0x9a, 0x3c, 0x12, 0x5b, 0x97, 0xbe, 0x0b, 0x92, 0x2f, 0xbe,
  0x54, 0x7a, 0x53, 0xbe, 0x64, 0xb2, 0x91, 0xbe, 0xe7, 0xe1, 0x7e, 0xbd,
  0x6c, 0xef, 0xca, 0xbc, 0x8d, 0xbd, 0x38, 0xbe, 0xab, 0x48, 0x97, 0x3d,
  0xc9, 0x74, 0x22, 0xbe, 0x5f, 0x95, 0x7c, 0xbc, 0x27, 0xd9, 0xa6, 0xbb,
  0x79, 0xd7, 0x7c, 0xbe, 0xd0, 0xeb, 0x92, 0xbe, 0x59, 0x58, 0x58, 0xbe,
  0x06, 0x90, 0xcb, 0xbc, 0x47, 0xff, 0x96, 0xbe, 0x2c, 0x26, 0xbb, 0xbe,
  0xec, 0x62, 0xa2, 0xbe, 0xab, 0xe3, 0x41, 0xbc, 0x48, 0xac, 0x1c, 0x3e,
  0xef, 0x46, 0x56, 0x3e, 0x95, 0xb8, 0x82, 0x3e, 0x9f, 0xca, 0x5f, 0x3e,
  0xed, 0xc1, 0xc2, 0x3c, 0x3f, 0x03, 0x00, 0x3e, 0xd0, 0x2d, 0x37, 0xbe,
  0x23, 0xfc, 0x77, 0x3c, 0xee, 0xff, 0xca, 0x3e, 0xe2, 0x6a, 0x92, 0x3e,
  0x45, 0xfb, 0x90, 0xbe, 0x19, 0xbf, 0x64, 0x3d, 0x7f, 0x7d, 0x97, 0xbe,
  0xa1, 0x22, 0x63, 0xbd, 0xa2, 0xa5, 0x12, 0xbe, 0x1e, 0x70, 0xa3, 0xbd,
  0x8a, 0xe5, 0xad, 0x3c, 0xae, 0x6d, 0x0b, 0x3e, 0x27, 0x1f, 0xa6, 0xbd,
  0x32, 0x35, 0x70, 0xbd, 0x7c, 0x1e, 0x99, 0xbd, 0xde, 0xf3, 0x60, 0xbe,
  0x9c, 0x6f, 0xa4, 0xbd, 0x20, 0x63, 0x86, 0xbc, 0x45, 0x50, 0x3e, 0xbe,
  0x72, 0x25, 0xf2, 0xbd, 0xb9, 0x8f, 0x11, 0xbe, 0x6d, 0xad, 0x50, 0xbe,
  0x14, 0xf0, 0x9c, 0x3c, 0x9a, 0x00, 0xd7, 0x3c, 0x84, 0xc7, 0x39, 0xbe,
  0x9c, 0xd5, 0x2b, 0xbd, 0x53, 0xc8, 0x2f, 0xbe, 0x36, 0xd0, 0x7c, 0xbe,
  0x2f, 0x4c, 0x64, 0xbe, 0xf7, 0x4b, 0xa5, 0xbe, 0x29, 0xe0, 0xfa, 0x3c,
  0x45, 0xa6, 0xa8, 0xbd, 0x4b, 0x89, 0x43, 0xbe, 0x73, 0xbd, 0xa8, 0xbd,
  0x8f, 0xea, 0x15, 0xbe, 0xf3, 0x7a, 0x3c, 0x3d, 0xb4, 0x5f, 0x28, 0xbc,
  0xa0, 0x9a, 0x97, 0xbe, 0x22, 0xb4, 0x9d, 0xbd, 0x03, 0x58, 0xab, 0xbd,
  0xa0, 0x80, 0x6a, 0xbe, 0x27, 0x52, 0xb8, 0xbe, 0xc5, 0x41, 0x5c, 0x3e,
  0xab, 0x58, 0x25, 0xbe, 0x7a, 0x62, 0xe9, 0x3c, 0xc4, 0x7a, 0x8a, 0xbe,
  0xc8, 0x24, 0x2d, 0xbe, 0xd1, 0xe9, 0x3a, 0x3a, 0x5d, 0x39, 0x2e, 0xbe,
  0xd6, 0xc0, 0x1e, 0xbe, 0xe9, 0xec, 0xa2, 0xbd, 0x82, 0x02, 0x3c, 0x3e,
  0x66, 0xc3, 0xab, 0xbd, 0x64, 0xad, 0xb0, 0xbe, 0x09, 0xf0, 0x05, 0x3e,
  0xac, 0x4d, 0xfd, 0xbd, 0x0a, 0x5c, 0x68, 0x3e, 0xbb, 0x96, 0x65, 0xbe,
  0x61, 0xdd, 0x6d, 0x3d, 0x57, 0x24, 0xbd, 0xbd, 0x64, 0xf9, 0x34, 0xbe,
  0xb7, 0x1f, 0x56, 0xbc, 0x42, 0xe5, 0x23, 0xbe, 0x21, 0xaf, 0x84, 0xbc,
  0xfc, 0x42, 0x74, 0xbd, 0x85, 0xba, 0xad, 0xbd, 0x97, 0x85, 0x91, 0x3e,
  0x7e, 0x56, 0x13, 0x3e, 0xe2, 0x45, 0x90, 0xbc, 0xe6, 0x64, 0x12, 0x3e,
  0xad, 0x6f, 0x9e, 0xbd, 0x41, 0xb0, 0xec, 0x3d, 0x96, 0x73, 0x0c, 0x3e,
  0xde, 0x8b, 0x10, 0xbd, 0x70, 0xac, 0x15, 0x3e, 0x42, 0x9b, 0x9b, 0x3d,
  0x94, 0x91, 0x94, 0x3c, 0xa8, 0x7f, 0xf6, 0xbc, 0xd0, 0xec, 0xb8, 0x3d,
  0x0a, 0x60, 0xa8, 0xbb, 0xc7, 0xe0, 0x59, 0xbd, 0x39, 0x25, 0xd1, 0xbd,
  0xa0, 0x5d, 0x34, 0x3e, 0x88, 0x9c, 0x0a, 0x3e, 0x82, 0x8d, 0xa9, 0xbb,
  0xcf, 0x44, 0x3b, 0xbd, 0xe8, 0xbe, 0x36, 0x3e, 0x63, 0xec, 0xa4, 0xbd,
  0xf9, 0x5a, 0x84, 0xbb, 0x0d, 0x9e, 0xe6, 0xbd, 0x7c, 0xa7, 0x35, 0xbd,
  0xa1, 0xe0, 0xf1, 0xbe, 0xf6, 0xed, 0x3b, 0xbe, 0x0c, 0x3d, 0xa1, 0xbc,
  0x10, 0xdc, 0xad, 0xbe, 0x48, 0xc5, 0x2d, 0xbe, 0x70, 0x07, 0xfc, 0xbd,
  0xe0, 0xb8, 0x2a, 0x3d, 0x2e, 0xf9, 0xcd, 0xbd, 0x14, 0x66, 0xcd, 0x3d,
  0x30, 0xf3, 0xe2, 0xbc, 0x22, 0xb2, 0xf8, 0xbd, 0x29, 0x6f, 0x57, 0x3e,
  0x1c, 0x23, 0x6e, 0xbd, 0xe3, 0x7a, 0xea, 0x3d, 0xcd, 0x09, 0x9d, 0x3d,
  0x1e, 0x4f, 0xab, 0xbe, 0x77, 0x5d, 0x39, 0x3d, 0x45, 0xcf, 0x45, 0xbd,
  0x96, 0x80, 0x16, 0x3a, 0x2e, 0x3b, 0xc8, 0x3e, 0x17, 0x72, 0x46, 0xbe,
  0x8e, 0x48, 0x64, 0x3d, 0x38, 0x6b, 0xc7, 0xbe, 0x1b, 0x9b, 0xb6, 0xbc,
  0xeb, 0x78, 0x5f, 0xbd, 0xde, 0xd1, 0x90, 0x3d, 0x11, 0x06, 0x3d, 0xbc,
  0x6c, 0x36, 0xc6, 0xbd, 0x43, 0xdd, 0xa4, 0x3b, 0xf0, 0xbc, 0xae, 0xbe,
  0x95, 0x37, 0xee, 0xbe, 0xdc, 0xba, 0xbc, 0xbd, 0x48, 0x99, 0x0b, 0x3d,
  0x5e, 0xa5, 0x11, 0x3e, 0x83, 0xa4, 0x7c, 0xbe, 0x48, 0x3e, 0x9a, 0x3d,
  0xc2, 0x38, 0x8f, 0x3e, 0x4b, 0x28, 0xa4, 0x3d, 0x05, 0xf6, 0x06, 0xbe,
  0x70, 0x62, 0x43, 0xbd, 0x26, 0xa4, 0x79, 0xbd, 0x6d, 0x2e, 0xaf, 0x3d,
  0xad, 0xbd, 0xce, 0x3c, 0xb8, 0x17, 0x91, 0xbb, 0x84, 0x2c, 0x45, 0xbe,
  0x59, 0xdf, 0xa3, 0xbe, 0xe7, 0xf6, 0xbe, 0xbe, 0x9d, 0x62, 0xff, 0x3d,
  0x1d, 0x2f, 0x65, 0x3d, 0xfc, 0xfa, 0x3a, 0x3e, 0xb0, 0xb5, 0x73, 0xbe,
  0x66, 0xcb, 0x3b, 0x3e, 0x43, 0x02, 0x06, 0x3e, 0x20, 0x4c, 0x00, 0x3d,
  0xa6, 0xae, 0x5b, 0xbb, 0xf3, 0xda, 0x04, 0x3d, 0x5a, 0xfc, 0xb2, 0x3d,
  0x46, 0x84, 0xad, 0x3d, 0xee, 0xe4, 0x8a, 0x3d, 0x94, 0x6b, 0xe1, 0xbd,
  0xe4, 0xc6, 0xb7, 0xbd, 0x65, 0x16, 0xaf, 0xbe, 0xdf, 0xe3, 0x48, 0xbe,
  0x1c, 0x2e, 0x02, 0x3e, 0x96, 0xe9, 0xbb, 0x3c, 0x3a, 0x2b, 0xff, 0x3d,
  0x4a, 0xf4, 0x6a, 0xbd, 0x4c, 0xd5, 0x18, 0x3d, 0x45, 0x4b, 0x3d, 0x3d,
  0x2e, 0x3a, 0x70, 0x3d, 0x40, 0x44, 0x1f, 0xbd, 0x67, 0xb8, 0x21, 0x3e,
  0x08, 0x5f, 0xd1, 0x3e, 0x0e, 0x18, 0xfc, 0x3c, 0x95, 0x7c, 0x8b, 0x3d,
  0xc3, 0x46, 0x8c, 0xbd, 0xbf, 0xc0, 0xca, 0xbd, 0x82, 0xa2, 0xdd, 0xbc,
  0x1a, 0x7f, 0x56, 0xbe, 0x62, 0x5e, 0xba, 0xbd, 0x9f, 0x82, 0xab, 0x3d,
  0x55, 0x5d, 0xab, 0x3d, 0x06, 0xa5, 0x3e, 0xbe, 0xc7, 0xfb, 0x3a, 0x3e,
  0xff, 0x59, 0x10, 0x3e, 0x3a, 0x4b, 0x84, 0x3d, 0x2f, 0x79, 0xc7, 0xbd,
  0xb9, 0x3b, 0x68, 0x3e, 0xda, 0x0f, 0x0a, 0x3e, 0x3d, 0x47, 0x33, 0x3d,
  0xd7, 0xd3, 0xd6, 0x3c, 0x30, 0x77, 0xbe, 0xbd, 0x8c, 0x9e, 0x54, 0xbe,
  0xf7, 0x73, 0xa6, 0xbe, 0x11, 0xa8, 0x62, 0xbe, 0x94, 0x03, 0x32, 0x3c,
  0xb9, 0xc3, 0xb0, 0x3d, 0x06, 0x1f, 0xba, 0xbb, 0xcd, 0xf2, 0xae, 0xbe,
  0xb9, 0x26, 0x46, 0x3e, 0xbe, 0xcc, 0xbf, 0xbd, 0xc3, 0x37, 0xc2, 0x3c,
  0x7e, 0x7f, 0x9e, 0xbd, 0xe7, 0x23, 0xd1, 0x3d, 0xe5, 0x56, 0xfc, 0x3d,
  0xa5, 0x31, 0xfa, 0x3c, 0x23, 0xac, 0x42, 0x3d, 0xbf, 0x6c, 0x1d, 0xbe,
  0xf3, 0x7a, 0xa1, 0xbe, 0x98, 0x37, 0xb1, 0xbe, 0x06, 0xad, 0x2b, 0xbe,
  0x43, 0x0f, 0x7f, 0xbd, 0x35, 0x36, 0xae, 0x3c, 0xb6, 0xe8, 0x2a, 0x3c,
  0xce, 0xa0, 0x0c, 0xbe, 0x2f, 0x0e, 0xf4, 0x3d, 0x01, 0x5a, 0x00, 0xbd,
  0xf2, 0x93, 0xba, 0x3b, 0x93, 0x15, 0x51, 0x3c, 0xa6, 0x44, 0xb4, 0x3c,
  0x51, 0xee, 0xb9, 0x3d, 0x46, 0xb2, 0x4b, 0xbd, 0xba, 0xe5, 0x26, 0x3d,
  0x2e, 0xad, 0xa1, 0x3b, 0x7b, 0x7e, 0x45, 0xbe, 0xf3, 0x27, 0x03, 0xbe,
  0xb3, 0x15, 0x0c, 0xbd, 0xed, 0xb7, 0x81, 0x3e, 0x7c, 0xcb, 0x55, 0x3e,
  0x18, 0x0e, 0xb3, 0x3e, 0xa4, 0x99, 0x03, 0x3e, 0xad, 0xef, 0xa0, 0xbd,
  0xe9, 0x43, 0x85, 0xbc, 0x40, 0x52, 0xa4, 0xbc, 0x1e, 0xe6, 0x05, 0x3d,
  0x16, 0xdd, 0x8d, 0x3e, 0xf7, 0xa8, 0x82, 0x3e, 0xb3, 0x20, 0x39, 0xbd,
  0xac, 0x52, 0x1d, 0x3e, 0xd6, 0x6e, 0xbf, 0x3e, 0x95, 0x1b, 0xca, 0x3c,
  0xa1, 0x68, 0x03, 0x3e, 0x24, 0xd9, 0x07, 0xbe, 0x69, 0xac, 0x09, 0xbe,
  0x0e, 0xd6, 0x12, 0xbe, 0x72, 0x6c, 0x6f, 0xbd, 0x63, 0xc7, 0xd5, 0xbe,
  0xcb, 0x66, 0x0d, 0x3e, 0xa6, 0x06, 0x4d, 0x3c, 0xd9, 0x64, 0x9d, 0xbd,
  0x21, 0xbe, 0x4b, 0xbd, 0xcf, 0x13, 0xcd, 0xbc, 0x76, 0x24, 0x8e, 0xbd,
  0xc7, 0x00, 0x21, 0xbe, 0x0f, 0x60, 0xa3, 0xbe, 0x36, 0x29, 0xb3, 0xbe,
  0xfb, 0x03, 0xb2, 0xbe, 0xe0, 0x49, 0x76, 0xbe, 0x96, 0xec, 0x28, 0xbd,
  0xd6, 0x5b, 0x99, 0xbe, 0xdb, 0x47, 0x89, 0xbe, 0xc3, 0xba, 0xd6, 0xbe,
  0xb5, 0xc9, 0xfa, 0xbe, 0xb7, 0xfd, 0xad, 0xbe, 0xba, 0x0f, 0x10, 0xbe,
  0x5e, 0x59, 0xe0, 0xbd, 0x59, 0xe0, 0xe6, 0xbb, 0x22, 0x31, 0x31, 0x3d,
  0x16, 0xe9, 0x73, 0xbe, 0xea, 0x44, 0x16, 0x3e, 0xe6, 0xa2, 0x73, 0xbe,
  0x68, 0xef, 0x5b, 0xbe, 0xeb, 0x01, 0x0c, 0xbf, 0x75, 0xcf, 0x1f, 0xbe,
  0xf8, 0x32, 0xb3, 0xbd, 0xa1, 0xb1, 0x25, 0xbe, 0xdc, 0x53, 0xc2, 0xbe,
  0x61, 0x65, 0xe7, 0xbe, 0x48, 0x58, 0x26, 0xbf, 0x88, 0x8a, 0x9a, 0xbe,
  0xad, 0xc2, 0xe7, 0xbd, 0x1a, 0x6f, 0x0d, 0xbd, 0x12, 0xab, 0x07, 0xbe,
  0x45, 0x92, 0x09, 0xbd, 0x6c, 0x18, 0xa3, 0xbe, 0x74, 0x51, 0xb5, 0x3c,
  0x74, 0xf0, 0x92, 0xbe, 0x5c, 0x52, 0xe7, 0x3c, 0xb5, 0xf8, 0x03, 0xbf,
  0xb8, 0xec, 0x64, 0xbe, 0xbd, 0x57, 0x91, 0xbe, 0xdd, 0xee, 0xd9, 0x3e,
  0xf9, 0x08, 0x0b, 0x3d, 0xf1, 0x67, 0x23, 0xbe, 0xe3, 0xaa, 0xa8, 0xbb,
  0x79, 0x80, 0x1c, 0xbe, 0xad, 0xb2, 0xa7, 0x3c, 0xbe, 0xcd, 0xab, 0xbd,
  0x0d, 0xfb, 0xad, 0xbe, 0xe1, 0x98, 0x8a, 0x3e, 0x0d, 0xf3, 0xe3, 0x3e,
  0x4b, 0xdf, 0x37, 0x3d, 0xce, 0x72, 0x49, 0xbd, 0x21, 0x71, 0xc6, 0x3e,
  0xd6, 0x95, 0x24, 0x3e, 0x68, 0xb3, 0x38, 0x3e, 0xef, 0xcf, 0xde, 0xbe,
  0x98, 0x08, 0xdc, 0x3e, 0xce, 0x5b, 0x0f, 0x3e, 0x81, 0x94, 0x01, 0xbc,
  0xee, 0xea, 0xf0, 0x3c, 0x9f, 0xa8, 0xc7, 0xbd, 0x4e, 0x1e, 0xfc, 0x3c,
  0xad, 0xe0, 0x10, 0xbd, 0x58, 0x8c, 0x24, 0xbe, 0xb6, 0xb2, 0x9f, 0x3e,
  0x4d, 0x60, 0x01, 0x3f, 0xeb, 0xe2, 0x9c, 0x3d, 0xe1, 0x4c, 0x75, 0x3d,
  0x35, 0xc1, 0xc7, 0x3e, 0x6b, 0xdf, 0xc8, 0xbc, 0x66, 0x9b, 0x2f, 0x3d,
  0x27, 0x62, 0x01, 0xbe, 0x86, 0x90, 0xf3, 0xbc, 0xa1, 0xdc, 0x44, 0xbd,
  0x98, 0x76, 0xc0, 0x3d, 0xfa, 0x23, 0xb6, 0x3b, 0xa7, 0x0e, 0xc9, 0xbd,
  0x29, 0x15, 0x92, 0xbd, 0xdc, 0x1d, 0x08, 0x3d, 0xbe, 0x60, 0x77, 0xbd,
  0x3a, 0x27, 0x20, 0x3e, 0x73, 0x83, 0x9e, 0xbc, 0x63, 0x10, 0x2e, 0xbe,
  0xfd, 0x36, 0x55, 0xbe, 0x05, 0x43, 0x8e, 0xbe, 0xd6, 0x4c, 0x3a, 0xbc,
  0xc3, 0x21, 0x6f, 0x3d, 0x33, 0xc0, 0xd6, 0x3d, 0x76, 0x60, 0x5a, 0x3d,
  0xf3, 0x79, 0x89, 0xbe, 0x7f, 0x79, 0x30, 0xbe, 0x01, 0x53, 0x42, 0xbe,
  0x0a, 0x9e, 0x67, 0x3d, 0x99, 0xd5, 0xd5, 0xbd, 0x82, 0x59, 0xc5, 0xbe,
  0xbc, 0x4e, 0x0f, 0x3e, 0x73, 0x93, 0xd6, 0x3c, 0x14, 0xaf, 0x6e, 0x3b,
  0xf1, 0x7f, 0xfc, 0xbc, 0xec, 0xce, 0x97, 0xbe, 0x9e, 0x3a, 0x93, 0x3d,
  0x3a, 0xf1, 0x62, 0x3d, 0xeb, 0xb5, 0x14, 0xbe, 0xa3, 0x18, 0x21, 0xbd,
  0x5a, 0xe0, 0x71, 0x3d, 0x94, 0x19, 0xba, 0x3c, 0x99, 0xd8, 0x51, 0xbe,
  0x63, 0xbf, 0x7f, 0xbd, 0xe9, 0xa7, 0xe0, 0x3d, 0x6b, 0x16, 0x43, 0xbe,
  0x5f, 0xf8, 0xe3, 0xba, 0xf6, 0xf9, 0x8f, 0xbd, 0xb7, 0x18, 0x87, 0xbe,
  0xaf, 0x7b, 0x87, 0xbb, 0x58, 0x42, 0xd2, 0xbd, 0x48, 0x3c, 0x70, 0x3d,
  0xa5, 0x4b, 0x13, 0xbd, 0x71, 0xa8, 0x8a, 0x3d, 0x26, 0xea, 0xba, 0x3d,
  0x1d, 0xe6, 0x74, 0x39, 0xbf, 0x04, 0x14, 0x3e, 0x90, 0x93, 0x58, 0xbe,
  0xe6, 0x1f, 0xf7, 0xbd, 0x34, 0x99, 0xed, 0xbb, 0x17, 0xaf, 0x22, 0xbd,
  0x5e, 0xb0, 0x1d, 0x3d, 0x3c, 0x9a, 0x65, 0xbe, 0x98, 0x82, 0x5e, 0x3c,
  0xb4, 0xe7, 0x20, 0xbe, 0x20, 0x6e, 0x00, 0x3e, 0xa9, 0xfe, 0x23, 0xbe,
  0x24, 0x73, 0x1f, 0x3d, 0x82, 0xf4, 0x6b, 0xbd, 0x8c, 0x53, 0xf0, 0xbc,
  0x85, 0xda, 0xb8, 0x3d, 0x4a, 0x7c, 0x4c, 0xbe, 0x29, 0x7d, 0x2d, 0x3d,
  0xf1, 0x7d, 0x20, 0x3c, 0xf0, 0xb9, 0x54, 0xbb, 0xf4, 0xcb, 0x18, 0xbd,
  0x63, 0xe2, 0x3f, 0xbd, 0x26, 0xa6, 0x29, 0xbe, 0x4d, 0x88, 0x87, 0xbe,
  0x7a, 0x53, 0x1c, 0xbe, 0xb1, 0x87, 0x73, 0xbe, 0x9c, 0xc6, 0x36, 0x3e,
  0xc8, 0x02, 0x06, 0xbe, 0xf4, 0x16, 0xde, 0xbc, 0x95, 0x81, 0x3a, 0x3e,
  0xdc, 0x35, 0x23, 0x3e, 0x8b, 0xc6, 0xac, 0x3d, 0x13, 0x0b, 0x85, 0xbe,
  0xc8, 0x80, 0x27, 0xbe, 0xfd, 0x0c, 0x3e, 0xbe, 0xca, 0x89, 0xf9, 0x3d,
  0x41, 0xf1, 0x0e, 0x3e, 0xc7, 0xfa, 0x50, 0xbe, 0x2c, 0x20, 0xa6, 0xbe,
  0xa7, 0xba, 0xbb, 0xbe, 0x8f, 0x5c, 0xc4, 0xbc, 0x56, 0x4a, 0x43, 0x3d,
  0xaa, 0x93, 0x00, 0x3e, 0xe0, 0x39, 0x40, 0xbe, 0xa4, 0x2d, 0x95, 0xbe,
  0x0c, 0xd1, 0xa9, 0x3c, 0x64, 0x8e, 0x2f, 0xbe, 0x46, 0xb6, 0xcf, 0x3d,
  0x09, 0x62, 0xe8, 0xbd, 0xd4, 0xcc, 0xee, 0x3d, 0x0b, 0x0c, 0x00, 0x3e,
  0x27, 0x61, 0x08, 0xbe, 0xeb, 0x97, 0xa2, 0x3d, 0xd7, 0xdd, 0x4f, 0xbe,
  0x11, 0x78, 0x82, 0x3b, 0x8b, 0xf0, 0x95, 0xbe, 0x78, 0xd0, 0x6c, 0xbd,
  0x2d, 0xbe, 0x00, 0xbe, 0x49, 0x58, 0x15, 0x3e, 0x6b, 0x81, 0x96, 0xbd,
  0xd5, 0x03, 0x82, 0xbe, 0x36, 0x42, 0xd2, 0xbd, 0x7f, 0x28, 0x1f, 0xbe,
  0x09, 0x52, 0xfb, 0x3d, 0x3b, 0xa0, 0x01, 0xbe, 0x1c, 0x8e, 0x48, 0xbe,
  0x35, 0x8c, 0x8e, 0x3d, 0x16, 0x34, 0x79, 0xbe, 0x85, 0xc1, 0x9d, 0x3c,
  0xcd, 0x2a, 0xcd, 0xbc, 0x8c, 0x30, 0x92, 0x3d, 0x84, 0xfe, 0x30, 0xbe,
  0xfb, 0x31, 0x88, 0xbe, 0xc7, 0x2a, 0x67, 0xbe, 0xd1, 0x04, 0x06, 0xbe,
  0x28, 0xe3, 0x3c, 0x3d, 0x5a, 0x4e, 0x2c, 0xbe, 0xa5, 0xd4, 0xaf, 0x3d,
  0x44, 0x17, 0x9b, 0x3d, 0x84, 0xf4, 0x9d, 0xbd, 0x1d, 0x38, 0xf8, 0xbc,
  0xd9, 0x0e, 0x80, 0xbe, 0xce, 0x23, 0x2a, 0xbe, 0x85, 0x25, 0x67, 0xbe,
  0xca, 0xdd, 0x32, 0xbe, 0xf9, 0x94, 0x57, 0x3d, 0xf8, 0xa3, 0x29, 0xbe,
  0x76, 0xdf, 0x69, 0xbe, 0x6a, 0xfb, 0xcc, 0xbd, 0x2c, 0xbb, 0x25, 0xbe,
  0xa6, 0xab, 0xb3, 0xbd, 0x38, 0xc2, 0x04, 0xbf, 0xd3, 0x21, 0x1f, 0xbe,
  0xaa, 0x6e, 0x88, 0x3c, 0xba, 0x98, 0x89, 0xbe, 0xc9, 0x04, 0xb6, 0x3c,
  0x5f, 0xd5, 0x54, 0xbe, 0x40, 0x1e, 0x15, 0x3e, 0x40, 0x68, 0xfd, 0x3b,
  0x58, 0x41, 0x50, 0xbe, 0xd9, 0xc9, 0xdb, 0x3b, 0x6d, 0xee, 0x7f, 0xbc,
  0xed, 0x3e, 0xa5, 0xbd, 0xb7, 0x62, 0x2e, 0xbe, 0x7b, 0x83, 0xec, 0x3d,
  0xa1, 0x8c, 0x8c, 0xbd, 0x9c, 0xe6, 0xaa, 0xbc, 0x1b, 0xf7, 0xbd, 0xbe,
  0xb2, 0x02, 0x23, 0xbe, 0xb9, 0x9b, 0x43, 0xbe, 0x67, 0x40, 0x6e, 0xbe,
  0xd2, 0xe8, 0xb9, 0x3d, 0xd1, 0x2d, 0x12, 0x3e, 0x7c, 0xbf, 0xdc, 0xbc,
  0x4c, 0xc3, 0x3e, 0xbe, 0xab, 0x4c, 0xb3, 0xbb, 0x3c, 0x19, 0xb2, 0xbd,
  0xb8, 0x48, 0xdf, 0xbd, 0xd0, 0xec, 0x4f, 0xbe, 0xce, 0x4b, 0x8d, 0xbe,
  0x91, 0x4f, 0x28, 0xbe, 0x78, 0x64, 0xde, 0xbd, 0xe3, 0xe8, 0x15, 0xbd,
  0x5f, 0x36, 0x67, 0xbe, 0x6c, 0x55, 0xee, 0xbd, 0x3c, 0xd0, 0x2c, 0xbe,
  0xc4, 0x45, 0x27, 0xbe, 0x45, 0xaa, 0x66, 0x3e, 0xb1, 0x52, 0xa5, 0xbd,
  0x86, 0xac, 0xc1, 0xbe, 0x8a, 0xb1, 0x82, 0xbe, 0x76, 0x4c, 0x95, 0x3d,
  0xd2, 0x1e, 0x86, 0xbe, 0xda, 0x29, 0x03, 0xbd, 0xc1, 0x1f, 0x62, 0xbe,
  0xfd, 0x22, 0x55, 0xbe, 0x6d, 0x45, 0x0e, 0xbe, 0xab, 0xba, 0x4d, 0xbd,
  0xbf, 0x9a, 0xce, 0x3c, 0x4e, 0x23, 0x18, 0xbe, 0xdd, 0xb3, 0x25, 0xbe,
  0x01, 0xa5, 0x50, 0xbe, 0x1a, 0x2c, 0xa4, 0xbe, 0xb0, 0xd2, 0xea, 0xbc,
  0xe2, 0xf5, 0x7e, 0x3c, 0x22, 0xd4, 0xa4, 0x3e, 0x2a, 0x8b, 0x4f, 0xbd,
  0x54, 0x15, 0xaa, 0x3d, 0x7b, 0x7d, 0xe6, 0x3d, 0x27, 0x02, 0xf9, 0x3d,
  0xa7, 0xd1, 0xce, 0xbc, 0x5d, 0x11, 0x38, 0xbe, 0x29, 0x3b, 0xe1, 0xbe,
  0xc4, 0xf7, 0x2b, 0xbe, 0x2e, 0x54, 0x4e, 0x3d, 0xdd, 0x7e, 0x32, 0xbe,
  0x74, 0x9d, 0x3e, 0xbe, 0x6e, 0xad, 0xe0, 0x3e, 0x10, 0x7d, 0xfc, 0x3d,
  0xb1, 0xb2, 0x5b, 0x3d, 0x94, 0xd8, 0xc0, 0xbe, 0x5b, 0x24, 0xb8, 0x3e,
  0xc6, 0x44, 0x05, 0xbd, 0x41, 0xab, 0x18, 0x3e, 0xf0, 0xeb, 0x63, 0x3d,
  0xe5, 0x7f, 0xbe, 0xbc, 0xaa, 0x7f, 0x05, 0x3c, 0x52, 0x40, 0xf9, 0xbb,
  0x7c, 0x86, 0xb4, 0xbe, 0xf0, 0x38, 0x9c, 0x3e, 0x1f, 0xc6, 0xbb, 0x3e,
  0x56, 0x7b, 0x93, 0xbe, 0x92, 0xd7, 0xf6, 0x3c, 0xd3, 0x71, 0x68, 0x3e,
  0x27, 0x2e, 0xef, 0x3d, 0x11, 0x1f, 0x86, 0x3d, 0x3a, 0x5d, 0x5f, 0xbe,
  0x9f, 0x4a, 0x85, 0x3e, 0x82, 0x4a, 0x91, 0x3d, 0x1c, 0x8c, 0x7b, 0x3e,
  0xf7, 0xfd, 0x4b, 0x3d, 0x1b, 0xfd, 0x0a, 0xbd, 0xd7, 0x9e, 0x95, 0x3c,
  0xc3, 0x51, 0x2d, 0x3d, 0xf2, 0x60, 0x61, 0xbd, 0x19, 0x37, 0x90, 0x3d,
  0x5a, 0x89, 0x08, 0x3e, 0x3a, 0x4d, 0x83, 0xbe, 0x97, 0xd4, 0x93, 0x3d,
  0x74, 0xd5, 0xed, 0x3d, 0xb0, 0x3d, 0x35, 0x3e, 0x32, 0x22, 0x32, 0x3d,
  0x43, 0xb0, 0x3f, 0xbd, 0x43, 0x65, 0x99, 0x3e, 0x0f, 0x06, 0x3f, 0x3e,
  0xae, 0x9a, 0xa7, 0x3e, 0x0c, 0x06, 0x9d, 0xbd, 0x94, 0xe1, 0x10, 0x3e,
  0x62, 0xa0, 0x9f, 0x3a, 0x7e, 0x27, 0x29, 0x3d, 0xb6, 0x7a, 0xa8, 0xbd,
  0xea, 0x13, 0x4d, 0x3e, 0x23, 0x3e, 0xa4, 0x3e, 0xab, 0x17, 0xbe, 0xbc,
  0x09, 0x1b, 0x43, 0x3e, 0xfd, 0x6d, 0x9b, 0x3e, 0xcf, 0xa5, 0x09, 0x3e,
  0xd0, 0xa7, 0xb6, 0xbd, 0xa7, 0x53, 0x7b, 0xbe, 0x91, 0xb5, 0x9b, 0xbc,
  0x9e, 0x6f, 0xe0, 0x3d, 0xf1, 0x39, 0x53, 0x3d, 0x75, 0xa4, 0x79, 0xbd,
  0x01, 0x9b, 0xe8, 0x3d, 0x2b, 0x91, 0x43, 0x3d, 0xa0, 0x5c, 0xe2, 0x3c,
  0xbd, 0xa5, 0x9f, 0xbd, 0x1b, 0x55, 0x81, 0xbd, 0xe2, 0x09, 0x31, 0x3e,
  0x4c, 0xee, 0x66, 0xbe, 0x94, 0x3d, 0x35, 0xbe, 0x06, 0x44, 0x47, 0xbe,
  0xe3, 0x91, 0x60, 0xbd, 0xbb, 0x2c, 0x98, 0xbe, 0xc1, 0x32, 0xaf, 0xbc,
  0xa4, 0x31, 0x68, 0xbe, 0x7f, 0xde, 0x7c, 0xbe, 0x9a, 0x8c, 0xa9, 0xbe,
  0x81, 0x75, 0x06, 0xbf, 0x0d, 0x26, 0xc1, 0xbc, 0x03, 0x44, 0x85, 0xbc,
  0x8c, 0x2d, 0xcd, 0x3b, 0x38, 0x56, 0xae, 0x3d, 0x36, 0xa2, 0xfe, 0x3c,
  0x2d, 0x8e, 0x2c, 0xbd, 0x6e, 0x15, 0x0d, 0x3e, 0xde, 0xdd, 0x04, 0xbe,
  0x62, 0x1a, 0x50, 0xbe, 0x58, 0xf5, 0x9c, 0xbe, 0x7e, 0xe2, 0xfd, 0xbc,
  0x23, 0xb4, 0xab, 0xbb, 0x78, 0x79, 0xee, 0xbe, 0x0f, 0x59, 0x34, 0xbe,
  0xf2, 0x62, 0x74, 0xbe, 0xfc, 0xb7, 0xfe, 0xbe, 0x2f, 0xf2, 0x3d, 0x3d,
  0x3d, 0x16, 0x6b, 0x3d, 0xeb, 0xa5, 0xaf, 0xbc, 0x86, 0x40, 0xc7, 0xbe,
  0x0a, 0xf7, 0x09, 0x3e, 0x75, 0xbc, 0x9d, 0xbe, 0x83, 0xd6, 0xf4, 0x3d,
  0xbe, 0x7a, 0xa5, 0xbd, 0x3a, 0xbb, 0xa0, 0xbd, 0x52, 0x18, 0xcf, 0xbe,
  0x6d, 0xc7, 0x4f, 0xbf, 0x1f, 0x1b, 0x2b, 0xbf, 0x11, 0x05, 0xfb, 0xbe,
  0xb5, 0x59, 0xd2, 0xbd, 0x9f, 0x6a, 0x5b, 0xbe, 0xa5, 0x20, 0x8a, 0xbe,
  0x79, 0x57, 0x37, 0xbd, 0x57, 0x40, 0xea, 0xbc, 0xb0, 0x14, 0x99, 0xbb,
  0x84, 0x60, 0x71, 0xbd, 0x01, 0x18, 0x0d, 0xbd, 0xd7, 0x7d, 0x88, 0xbd,
  0x5d, 0x00, 0xc4, 0x3c, 0x6d, 0x99, 0xcb, 0xbd, 0x37, 0xcc, 0x94, 0xbe,
  0x98, 0xd3, 0xbf, 0xbe, 0x26, 0x41, 0x9e, 0xbe, 0x68, 0xb8, 0x24, 0x3d,
  0xf5, 0xb4, 0x09, 0xbf, 0xa2, 0x58, 0x2e, 0xbe, 0x6a, 0x99, 0x80, 0xbd,
  0xc5, 0x37, 0x0c, 0xbe, 0xaa, 0x91, 0x82, 0xbe, 0x0d, 0x28, 0x89, 0xbd,
  0xb2, 0x07, 0xd7, 0xbd, 0xeb, 0x08, 0x39, 0xbe, 0xde, 0x8c, 0x09, 0xbe,
  0x4f, 0xce, 0xfa, 0xbe, 0x80, 0x20, 0x6a, 0xbc, 0x5a, 0x35, 0x32, 0xbe,
  0x4f, 0xb0, 0xd7, 0x3d, 0xc7, 0xe7, 0x41, 0xbe, 0x1c, 0xbc, 0xeb, 0x3d,
  0x9b, 0x9a, 0xa8, 0xbe, 0x23, 0xe0, 0xe2, 0x3e, 0x58, 0x38, 0xd8, 0x3b,
  0x5a, 0xd1, 0xf3, 0x3d, 0x48, 0x0d, 0x33, 0xbd, 0x54, 0x6a, 0x6d, 0xbe,
  0x8c, 0xf0, 0x86, 0xbc, 0x3d, 0xb8, 0x7c, 0xbd, 0x60, 0x00, 0x6b, 0xbd,
  0xdb, 0x57, 0x88, 0x3d, 0xfb, 0x68, 0xb4, 0x3d, 0x86, 0x58, 0xa2, 0xbd,
  0x36, 0x8f, 0x03, 0x3e, 0x18, 0xd6, 0x8a, 0x3e, 0x4c, 0x6d, 0x05, 0x3e,
  0x52, 0xca, 0x21, 0x3d, 0xf6, 0xe7, 0x76, 0x3a, 0x33, 0x3d, 0xd3, 0xbe,
  0x1b, 0xf3, 0xd6, 0xbd, 0x90, 0x68, 0x93, 0xbc, 0xfd, 0x4f, 0x73, 0xbe,
  0x2b, 0xef, 0xd0, 0x3e, 0x58, 0x1b, 0x8f, 0xbe, 0xc0, 0xea, 0x8c, 0x3c,
  0xef, 0xa3, 0xb4, 0xbe, 0xd5, 0x3a, 0x89, 0xbe, 0x65, 0x69, 0xc2, 0xbe,
  0xc2, 0x5b, 0x02, 0x3c, 0x67, 0x01, 0xe6, 0xbc, 0x66, 0xca, 0x5e, 0xbe,
  0xdd, 0x27, 0xd5, 0xbd, 0x04, 0xd1, 0x0e, 0xbf, 0x64, 0x35, 0xa0, 0xbe,
  0x41, 0x1c, 0x2e, 0xbe, 0xd1, 0x4b, 0x51, 0x3e, 0x8e, 0x27, 0x69, 0x3d,
  0xef, 0xa2, 0x75, 0xbe, 0x2e, 0x13, 0x21, 0x3e, 0x09, 0xfc, 0x73, 0x3e,
  0x4f, 0xfb, 0xb6, 0x3d, 0xf4, 0x61, 0xfa, 0xbd, 0x5a, 0xc5, 0x4f, 0xbd,
  0xa1, 0xff, 0x6c, 0xbc, 0x22, 0xff, 0xd7, 0x3d, 0xe0, 0xfb, 0x97, 0x3d,
  0x53, 0xd2, 0xf8, 0xbc, 0xe4, 0x1b, 0x40, 0xbe, 0x78, 0x16, 0x06, 0xbf,
  0x0d, 0x55, 0x15, 0xbe, 0xde, 0xe9, 0x08, 0xbd, 0xfd, 0xcb, 0xfc, 0x3d,
  0xf5, 0x03, 0xfb, 0x3d, 0x94, 0x59, 0xa6, 0xbe, 0x33, 0x48, 0x68, 0x3e,
  0xe2, 0x48, 0x32, 0x3e, 0x03, 0xaa, 0x02, 0x3b, 0x07, 0x31, 0x5f, 0xbe,
  0xf3, 0xa7, 0x8f, 0x3d, 0x65, 0x03, 0xb4, 0x3e, 0xc3, 0x5b, 0x09, 0x3e,
  0x8c, 0x58, 0x2d, 0x3e, 0x43, 0x1d, 0xd0, 0xbd, 0x01, 0xec, 0x75, 0xbe,
  0x1a, 0x5c, 0x1f, 0xbf, 0x1c, 0x92, 0x02, 0xbe, 0xec, 0x42, 0x6c, 0xbe,
  0x0f, 0xf1, 0x81, 0x3e, 0xae, 0x94, 0x08, 0x3e, 0xd1, 0x4b, 0x94, 0xbe,
  0x83, 0x54, 0x3a, 0x3e, 0x9a, 0x8a, 0x8f, 0x3d, 0x3b, 0xe7, 0xde, 0x3b,
  0x55, 0x77, 0xe5, 0xbd, 0xd1, 0x3e, 0x5c, 0xbe, 0x52, 0xa3, 0xfc, 0x3e,
  0xfa, 0x37, 0x9f, 0x3d, 0xad, 0x72, 0xa1, 0x3d, 0xcf, 0x8f, 0xf7, 0x3d,
  0xf6, 0xd1, 0x57, 0xbe, 0x51, 0xce, 0x9a, 0xbe, 0xab, 0x1d, 0x3e, 0xbd,
  0xca, 0x84, 0x2c, 0xbe, 0xae, 0xcd, 0x99, 0x3e, 0x6c, 0x41, 0xa3, 0x3e,
  0xfb, 0x81, 0xbd, 0xbe, 0xde, 0x7e, 0x89, 0x3e, 0x75, 0x53, 0x2c, 0x3d,
  0xe6, 0x1b, 0xa2, 0x3d, 0xc9, 0x6e, 0xc4, 0xba, 0x65, 0xb2, 0xd5, 0xbd,
  0xe2, 0xd1, 0x71, 0x3c, 0x7d, 0x30, 0xb7, 0x3d, 0xd4, 0x27, 0x87, 0x3e,
  0x90, 0xe8, 0x41, 0xbd, 0x04, 0x5a, 0x89, 0xbe, 0x8a, 0xb7, 0xc3, 0xbe,
  0x90, 0xe1, 0xc3, 0xbc, 0x48, 0x14, 0xc8, 0xbe, 0x6a, 0x8f, 0xed, 0x3d,
  0x0e, 0x56, 0x12, 0xbe, 0xe9, 0x5f, 0x2e, 0xbf, 0x20, 0x63, 0x9c, 0x3e,
  0xb9, 0x8c, 0x42, 0xbe, 0x1c, 0xe2, 0x39, 0xbc, 0xfb, 0xbb, 0x38, 0xbe,
  0x12, 0x9c, 0x0a, 0x3d, 0x0d, 0x9c, 0x9b, 0x3d, 0x44, 0x05, 0xd9, 0x3d,
  0xbe, 0x4d, 0x3f, 0x3e, 0x4f, 0xa9, 0x83, 0xbe, 0x2b, 0xad, 0x28, 0xbf,
  0x02, 0x42, 0x02, 0xbf, 0x26, 0xcc, 0x9e, 0xbd, 0x1a, 0x17, 0x8f, 0xbe,
  0xd1, 0x3d, 0x29, 0x3d, 0x85, 0xd3, 0x30, 0x3c, 0x84, 0xd7, 0x41, 0xbe,
  0xc3, 0x31, 0x51, 0x3e, 0xd1, 0x36, 0xa9, 0xbd, 0xd8, 0x41, 0x1f, 0x3c,
  0x13, 0xea, 0x4f, 0x3d, 0x29, 0x9c, 0x88, 0xbe, 0xfe, 0x92, 0xb4, 0xbd,
  0xb8, 0xf2, 0xdf, 0xbc, 0x0f, 0x8f, 0x84, 0x3d, 0x20, 0xdf, 0xb5, 0xbe,
  0x60, 0x73, 0xf6, 0xbe, 0xaa, 0xa6, 0x09, 0xbe, 0x5e, 0x48, 0x41, 0x3c,
  0x7a, 0x30, 0xb0, 0x3d, 0x7a, 0x47, 0x7e, 0xbe, 0x4d, 0x8b, 0x97, 0xbe,
  0x5b, 0xd9, 0xea, 0x3c, 0x2d, 0x40, 0x22, 0xbe, 0x09, 0xf2, 0x27, 0xbd,
  0x31, 0xe4, 0x5e, 0xbd, 0xa3, 0xf3, 0x87, 0x3e, 0x66, 0x5c, 0x8b, 0xbe,
  0xfa, 0x31, 0xa5, 0xbe, 0x98, 0x5d, 0x2c, 0xbd, 0x9d, 0x89, 0x8d, 0xbe,
  0xc5, 0x56, 0xc1, 0x3d, 0x2f, 0x93, 0x6a, 0xbc, 0x54, 0x84, 0x24, 0x3f,
  0xfd, 0x55, 0xd7, 0x3d, 0x3b, 0xd0, 0x36, 0x3e, 0x38, 0x89, 0x97, 0xbe,
  0xd6, 0xbb, 0xf6, 0xbd, 0x4c, 0xd6, 0x9e, 0x3e, 0xcf, 0x43, 0x1a, 0xbe,
  0x9d, 0xdd, 0x09, 0xbc, 0xef, 0x03, 0x83, 0xbd, 0xf6, 0xf7, 0x77, 0x3d,
  0xdb, 0xdd, 0x99, 0x3d, 0x18, 0x58, 0x0e, 0xbd, 0xa2, 0xb7, 0x8b, 0xbd,
  0x2a, 0x74, 0x0b, 0x3e, 0xf8, 0xbb, 0xf9, 0x3c, 0x48, 0x86, 0x9d, 0x3e,
  0x4d, 0x1f, 0xbb, 0x3e, 0xd9, 0xd1, 0xec, 0x3d, 0x47, 0xf5, 0x6c, 0x3e,
  0xa6, 0xb4, 0x6d, 0xbe, 0xf4, 0x71, 0x96, 0xbd, 0x57, 0x93, 0xa0, 0x3e,
  0x2b, 0xfa, 0x70, 0xbe, 0xec, 0x45, 0x14, 0x3e, 0x3b, 0x64, 0xa2, 0xbd,
  0x72, 0x2b, 0x4a, 0x3e, 0xe8, 0xd8, 0x9e, 0x3e, 0x91, 0x94, 0xb0, 0x3e,
  0xeb, 0x8e, 0x07, 0xbe, 0xc5, 0xc6, 0x80, 0xbd, 0xa9, 0x2f, 0x6b, 0xbd,
  0x9b, 0xc7, 0x48, 0x3e, 0x98, 0x3a, 0x3d, 0x3f, 0xef, 0x20, 0x98, 0xbd,
  0x3a, 0x32, 0x9a, 0x3e, 0x39, 0x65, 0x0b, 0xbe, 0x61, 0x04, 0xea, 0xbd,
  0x04, 0xfb, 0xce, 0x3e, 0xab, 0xea, 0x21, 0x3d, 0xba, 0x44, 0xde, 0x3c,
  0x8c, 0x3b, 0x8f, 0xbd, 0x48, 0x67, 0xa8, 0x3e, 0x07, 0xdc, 0xd4, 0xbe,
  0x4d, 0xeb, 0x50, 0x3e, 0xc4, 0x93, 0xfa, 0x3c, 0x27, 0xa2, 0x5d, 0x3d,
  0x41, 0xf9, 0x86, 0x3d, 0xb1, 0xce, 0xc5, 0x3e, 0xc6, 0x39, 0x29, 0x3f,
  0x3c, 0x1f, 0x08, 0x3e, 0x45, 0xae, 0x2c, 0xbd, 0xfa, 0xc5, 0xee, 0xbe,
  0x34, 0x8a, 0x86, 0xbe, 0x43, 0xda, 0x57, 0x3e, 0x32, 0x99, 0x98, 0xbd,
  0x8c, 0x0f, 0x06, 0xbe, 0x2a, 0xce, 0xac, 0xbd, 0xd6, 0x74, 0x1f, 0x3e,
  0x68, 0x31, 0x69, 0xbf, 0x71, 0x23, 0xa6, 0xbe, 0x98, 0x03, 0x4f, 0xbd,
  0x6f, 0x8b, 0xf8, 0xbc, 0xbd, 0xc7, 0x49, 0xbe, 0x05, 0xc6, 0x4c, 0x3e,
  0xf1, 0x7c, 0x9c, 0x3e, 0x9c, 0xd7, 0x1b, 0x3e, 0x70, 0x1d, 0x95, 0xbe,
  0x5c, 0xf1, 0x00, 0xbf, 0x06, 0x33, 0x80, 0xbe, 0xa1, 0xc4, 0x99, 0x3d,
  0xdf, 0x5f, 0x46, 0xbe, 0xc0, 0xb3, 0x08, 0x3e, 0xdd, 0x2e, 0x02, 0x3b,
  0x2f, 0x39, 0x82, 0x3e, 0xe8, 0x66, 0xba, 0xbe, 0xca, 0x06, 0xd7, 0xbe,
  0x4b, 0x4d, 0x0a, 0xbd, 0xfa, 0xc2, 0xbb, 0xbe, 0xa3, 0xad, 0xe0, 0xbc,
  0xad, 0x1e, 0xc9, 0x3d, 0x64, 0x8d, 0xe5, 0x3e, 0xeb, 0x36, 0x19, 0x3e,
  0x03, 0x27, 0x66, 0xbe, 0x7e, 0xc1, 0x71, 0xbe, 0x6c, 0x0f, 0x13, 0xbe,
  0x60, 0xc1, 0x6e, 0x3e, 0x5d, 0x88, 0x16, 0xbe, 0x82, 0xed, 0x93, 0xbc,
  0x28, 0x60, 0x3f, 0xbd, 0x43, 0xff, 0x05, 0x3c, 0x4f, 0xf3, 0x69, 0xbd,
  0x3d, 0x9b, 0xa7, 0xbe, 0x29, 0xa8, 0xd1, 0x3d, 0x5c, 0x8c, 0xbc, 0xbd,
  0x90, 0x33, 0x8c, 0xbd, 0xaa, 0x80, 0x4f, 0x3e, 0x69, 0xfd, 0x93, 0x3e,
  0x72, 0x78, 0x8a, 0xbc, 0xc7, 0x5f, 0x25, 0xbf, 0x4b, 0x54, 0xbe, 0x3c,
  0x8b, 0xf2, 0x93, 0xbe, 0x69, 0x62, 0x78, 0xbe, 0x33, 0x24, 0xd5, 0xbd,
  0xbf, 0x82, 0x57, 0xbe, 0xb3, 0xfb, 0x99, 0xbd, 0x7a, 0x2a, 0x97, 0xbe,
  0x94, 0xfc, 0xdb, 0xbd, 0x8b, 0xfa, 0x69, 0xbe, 0xd9, 0x96, 0x8e, 0x3d,
  0xe1, 0x39, 0xc0, 0xbd, 0x0e, 0x26, 0x90, 0xbe, 0x01, 0x0c, 0xec, 0xbc,
  0x1b, 0x91, 0x2a, 0xbe, 0x4c, 0x49, 0x89, 0xbe, 0xf8, 0x98, 0xde, 0x3d,
  0xab, 0x05, 0x48, 0x3e, 0xa1, 0x0e, 0x73, 0x3d, 0x6c, 0x63, 0xbc, 0xbe,
  0x8a, 0x43, 0x8e, 0x3e, 0x1c, 0x0c, 0x75, 0x3e, 0xe2, 0x5e, 0xb3, 0x3d,
  0xe0, 0x94, 0x09, 0xbe, 0xbd, 0xeb, 0x29, 0xbe, 0x2a, 0x39, 0xfa, 0x3d,
  0x7f, 0x11, 0xb7, 0x3d, 0xfd, 0x75, 0xe1, 0x3d, 0x29, 0x1e, 0xc7, 0x3d,
  0xd4, 0x6d, 0x60, 0xbe, 0xfe, 0xe4, 0x6b, 0xbd, 0x0e, 0x27, 0x5a, 0xbe,
  0xa7, 0xbd, 0x20, 0x3e, 0xe7, 0xe2, 0x03, 0x3e, 0xad, 0xa1, 0x06, 0x3e,
  0x1b, 0x5b, 0xe9, 0xbe, 0xb5, 0x7d, 0x08, 0xbd, 0x4e, 0x7d, 0xd0, 0x3d,
  0x87, 0x1f, 0xb2, 0x3c, 0x8b, 0xf6, 0x43, 0xbe, 0x13, 0xb4, 0xc5, 0x3d,
  0x23, 0x75, 0x80, 0x3e, 0x3c, 0x2c, 0x16, 0x3e, 0xbe, 0xbc, 0x43, 0x3e,
  0x9f, 0x2e, 0x73, 0xbe, 0x2d, 0xa0, 0xdd, 0xbd, 0x81, 0x98, 0x24, 0x3c,
  0xf5, 0x88, 0x04, 0xbe, 0x12, 0xcd, 0x6d, 0xbe, 0xd8, 0xa7, 0x2d, 0xbd,
  0xe0, 0x34, 0x87, 0x3e, 0xf0, 0x9f, 0x81, 0xbe, 0x05, 0x68, 0x41, 0x3e,
  0x7c, 0xa9, 0xb5, 0x3c, 0xcc, 0x38, 0xb4, 0x3d, 0xcc, 0x84, 0xf3, 0xbd,
  0x62, 0xe8, 0x4c, 0xbe, 0xc1, 0x7a, 0x2b, 0x3e, 0xc1, 0xbc, 0xda, 0x3d,
  0x4b, 0x38, 0x2f, 0x3e, 0x80, 0x32, 0x92, 0xbe, 0x92, 0x39, 0x28, 0xbe,
  0xd5, 0xdb, 0xff, 0x3c, 0xf7, 0xee, 0x96, 0xbd, 0xbf, 0xc4, 0xbb, 0xbd,
  0x7b, 0x36, 0xef, 0xbd, 0x45, 0xca, 0x52, 0x3d, 0xcd, 0x9b, 0xf9, 0xbe,
  0xb5, 0xa1, 0xc5, 0x3e, 0x0d, 0x12, 0xf8, 0x3d, 0xed, 0x17, 0xc7, 0x3d,
  0xfb, 0xa1, 0x76, 0xbd, 0xad, 0x4d, 0xeb, 0x3d, 0x99, 0xd5, 0x5c, 0x3e,
  0xb2, 0xe6, 0x72, 0x3d, 0x0c, 0x28, 0xa3, 0x3d, 0x85, 0x50, 0x75, 0xbe,
  0x51, 0xd4, 0x68, 0xbe, 0xe8, 0x09, 0xbc, 0xbd, 0xbc, 0x5f, 0x51, 0xbe,
  0xc5, 0xc4, 0x3c, 0x38, 0xc6, 0xad, 0xbd, 0x3b, 0x28, 0x2c, 0xc2, 0x3c,
  0x35, 0x14, 0xcc, 0xbe, 0x5c, 0x0a, 0x93, 0x3e, 0x92, 0x26, 0x38, 0xbd,
  0xa3, 0x38, 0x36, 0xbd, 0xc9, 0x60, 0x55, 0xbd, 0xb3, 0x04, 0xec, 0xbd,
  0xef, 0x26, 0x1c, 0x3e, 0x94, 0xc6, 0xfc, 0x3c, 0x8c, 0x51, 0x0d, 0x3d,
  0x57, 0xd7, 0x03, 0xbe, 0x0e, 0xd7, 0xb1, 0xbe, 0x53, 0x55, 0xb3, 0xbd,
  0x87, 0x17, 0xbb, 0xbd, 0x02, 0x5d, 0x29, 0xbd, 0x03, 0x3d, 0xf7, 0x3d,
  0x8e, 0x06, 0x83, 0xbd, 0x3c, 0x50, 0xb0, 0xbd, 0x37, 0x1c, 0x73, 0x3e,
  0x42, 0xe9, 0xaf, 0xbc, 0x24, 0x1a, 0x90, 0xbc, 0x64, 0x62, 0xe5, 0xbc,
  0xfb, 0x81, 0x12, 0xbd, 0x48, 0x80, 0x68, 0x3d, 0x2d, 0x44, 0x60, 0x3b,
  0xed, 0xb5, 0x89, 0x3d, 0xed, 0x93, 0xd4, 0xbd, 0x58, 0x73, 0x09, 0xbe,
  0xd6, 0x51, 0xc2, 0xbd, 0x35, 0xe8, 0xae, 0x3c, 0x80, 0x10, 0x13, 0xbd,
  0x01, 0x62, 0xbd, 0x3d, 0x45, 0xa0, 0xa8, 0x3d, 0x80, 0x64, 0x49, 0xbe,
  0x31, 0xf3, 0x48, 0x3d, 0x3f, 0xf3, 0x63, 0xbe, 0x8a, 0xe8, 0xda, 0xbd,
  0x3d, 0x00, 0x56, 0xbe, 0x28, 0xf4, 0xa0, 0xbd, 0x04, 0x64, 0x59, 0x3c,
  0x51, 0x0d, 0xbb, 0xbc, 0xef, 0xf7, 0x83, 0x3d, 0x8b, 0xf1, 0xa5, 0x3d,
  0x39, 0x7a, 0xe7, 0xbd, 0x63, 0x63, 0xf7, 0x3d, 0xba, 0xf9, 0xcb, 0xbd,
  0x6e, 0xf8, 0x2b, 0xbe, 0xa2, 0x9e, 0x54, 0xbe, 0xbf, 0xfa, 0xab, 0x3c,
  0x4d, 0xb7, 0x25, 0xbd, 0xb9, 0xfb, 0x34, 0x3d, 0x48, 0x51, 0x61, 0xbd,
  0xfd, 0xaf, 0x01, 0xbe, 0x16, 0x0b, 0x4a, 0xbd, 0x1a, 0x3e, 0xa0, 0x3d,
  0x24, 0x71, 0xb6, 0x3c, 0x7e, 0x47, 0x86, 0x3d, 0x55, 0x4e, 0x82, 0xbe,
  0x93, 0xd0, 0x18, 0x3e, 0xf9, 0x76, 0x31, 0xbd, 0xd0, 0x7c, 0x4c, 0x3d,
  0x4a, 0x30, 0x99, 0xbd, 0x43, 0x31, 0x95, 0x3d, 0xd2, 0xff, 0xa4, 0x3c,
  0x39, 0x47, 0x96, 0x3d, 0x02, 0xf7, 0x0c, 0xbe, 0x41, 0x83, 0x85, 0xbe,
  0x64, 0xec, 0xe3, 0x3d, 0x45, 0x87, 0xa4, 0xbe, 0x99, 0x26, 0x85, 0x3d,
  0x3a, 0xec, 0x09, 0xbe, 0xb7, 0x7d, 0x10, 0x3e, 0xbf, 0x99, 0x04, 0xbe,
  0x89, 0x48, 0x07, 0xbd, 0x28, 0xa5, 0x90, 0x3c, 0x45, 0xeb, 0x0c, 0xbe,
  0xcf, 0xa6, 0x3d, 0xbe, 0x50, 0xee, 0x1e, 0x3e, 0x62, 0x46, 0x62, 0xbd,
  0xd5, 0x7b, 0xd7, 0x3d, 0xea, 0x1e, 0x12, 0xbe, 0xa5, 0xf6, 0x01, 0xbe,
  0xa0, 0x03, 0x68, 0x3c, 0x86, 0xc9, 0x41, 0xbe, 0xbe, 0x58, 0x46, 0xbd,
  0x80, 0x41, 0x1d, 0xbd, 0x75, 0x0a, 0x4e, 0xbe, 0x90, 0x02, 0x59, 0xbd,
  0x0d, 0x1c, 0x8a, 0xbe, 0xcb, 0x6a, 0x74, 0x3d, 0x3a, 0xa8, 0x05, 0x3e,
  0xa4, 0xbf, 0x4e, 0xbe, 0x81, 0x7a, 0x7c, 0xbd, 0xdd, 0x28, 0x84, 0xbd,
  0x51, 0x1e, 0x30, 0xbe, 0xf9, 0xdd, 0xd7, 0x3d, 0xf6, 0x92, 0x85, 0xbc,
  0xaa, 0x3e, 0x13, 0xbe, 0x1f, 0x9b, 0x45, 0x3e, 0x8f, 0xa8, 0x6a, 0x3d,
  0x34, 0xa8, 0x72, 0xbe, 0x21, 0xde, 0xfc, 0xbd, 0xbe, 0x4f, 0x96, 0xbe,
  0x06, 0xb1, 0x22, 0x3d, 0x40, 0xac, 0x87, 0xbe, 0xe0, 0x0e, 0x02, 0xbe,
  0x02, 0x0b, 0x00, 0x3e, 0xb1, 0x3b, 0x76, 0xb9, 0xbb, 0x91, 0x3b, 0x3e,
  0xf5, 0x92, 0x81, 0xbe, 0x80, 0x08, 0xf9, 0xbb, 0x0b, 0xb9, 0x44, 0xbd,
  0x0c, 0x68, 0x4c, 0xbe, 0xb8, 0x65, 0xe6, 0x3d, 0x24, 0xb9, 0x23, 0xbe,
  0x1a, 0x86, 0x3b, 0xbe, 0x47, 0x4e, 0x56, 0xbe, 0xea, 0x2e, 0xcf, 0xbd,
  0x8c, 0x65, 0x33, 0xbe, 0xee, 0xd5, 0x07, 0xbe, 0x43, 0x2e, 0x26, 0xbe,
  0x5b, 0x29, 0x9e, 0x3d, 0xd7, 0x3d, 0x24, 0x3d, 0x0a, 0x14, 0xa4, 0x3d,
  0xff, 0x65, 0x20, 0xbd, 0x7a, 0x14, 0xa8, 0x3c, 0x19, 0x70, 0x09, 0xbe,
  0xaf, 0x5f, 0xb0, 0xbc, 0x22, 0x77, 0x17, 0xbe, 0x81, 0x44, 0x2d, 0x3e,
  0x8f, 0x82, 0xdb, 0x3c, 0x5a, 0x2a, 0x4a, 0xbd, 0xd7, 0x51, 0xe2, 0x3c,
  0xd0, 0x74, 0x2e, 0xbe, 0x08, 0x27, 0x6c, 0xbd, 0x2c, 0x32, 0x52, 0xbd,
  0x83, 0xfb, 0xd0, 0xbb, 0x91, 0x3f, 0x69, 0x3d, 0x29, 0xa6, 0x1b, 0x3d,
  0x30, 0x66, 0x2e, 0xbe, 0x5d, 0x08, 0x60, 0xbe, 0x2c, 0xc6, 0x34, 0xbe,
  0xa1, 0xd3, 0x66, 0xbe, 0x08, 0x23, 0x6f, 0xbe, 0x2e, 0xb0, 0x5e, 0xbe,
  0x94, 0xe2, 0x2c, 0x3e, 0xf3, 0x45, 0xea, 0x3c, 0xc0, 0xae, 0xd1, 0xbd,
  0x4f, 0x3e, 0x23, 0xbe, 0x50, 0xa6, 0xa1, 0x3d, 0xea, 0x37, 0x7b, 0xbe,
  0xad, 0xf7, 0x65, 0x3e, 0x74, 0x3e, 0x07, 0x3d, 0x1a, 0x2b, 0x79, 0x3d,
  0xfe, 0x61, 0xbc, 0x3d, 0x20, 0x54, 0x59, 0x3c, 0x31, 0x7d, 0x8f, 0x3d,
  0xbe, 0xce, 0xf1, 0xbd, 0x81, 0x74, 0x45, 0xbe, 0x8b, 0x59, 0x62, 0xbb,
  0x79, 0x91, 0x23, 0x3e, 0x98, 0xec, 0x86, 0x3d, 0x85, 0x71, 0xb4, 0xbd,
  0xc6, 0x98, 0xce, 0x3d, 0x01, 0xc2, 0xb9, 0xbe, 0x1b, 0x1f, 0x0e, 0xbe,
  0x67, 0x85, 0x07, 0xbe, 0x79, 0xdc, 0x6c, 0xbc, 0x22, 0xa5, 0x13, 0xbe,
  0xbe, 0xcd, 0x57, 0xbb, 0xf6, 0x31, 0x3d, 0xbe, 0xb5, 0xa9, 0x8a, 0xbe,
  0x74, 0x08, 0x24, 0xbe, 0x83, 0x7c, 0xed, 0x3c, 0x5c, 0x92, 0x47, 0xbe,
  0xb4, 0x4e, 0x80, 0xbe, 0xbf, 0x3b, 0xe2, 0xbd, 0xeb, 0xa4, 0x2e, 0x3e,
  0x30, 0xb5, 0x35, 0xbe, 0x64, 0x02, 0xd1, 0x3b, 0xf1, 0x48, 0x2a, 0xbe,
  0x99, 0x69, 0xf6, 0xbd, 0x19, 0x43, 0x18, 0xbe, 0xde, 0xd2, 0x52, 0x3d,
  0xb1, 0x56, 0x7a, 0xbe, 0x5f, 0xd6, 0xa6, 0xbe, 0x75, 0x8b, 0x28, 0x3b,
  0x03, 0x04, 0x69, 0xbe, 0xf3, 0x7e, 0x2d, 0xbe, 0x9e, 0xdf, 0x85, 0x3d,
  0xb5, 0xfe, 0xb4, 0x3a, 0x3f, 0xfd, 0xe8, 0xbd, 0x91, 0xc1, 0xd0, 0xbd,
  0x38, 0xee, 0xde, 0x3d, 0x84, 0x1f, 0xb3, 0x3d, 0xda, 0x16, 0x5d, 0xbe,
  0xa6, 0xbe, 0x49, 0xbe, 0xdf, 0x6a, 0x01, 0xbe, 0x30, 0x6d, 0x0f, 0x3e,
  0x1d, 0x85, 0x68, 0xbe, 0x1f, 0xd4, 0xf5, 0x3d, 0x06, 0xc4, 0x47, 0x3d,
  0x71, 0x65, 0xcc, 0xbd, 0x5e, 0x57, 0x3e, 0x3d, 0xfc, 0xf0, 0xd3, 0x3d,
  0x07, 0xd6, 0xd0, 0x3c, 0x65, 0x4b, 0x33, 0x3b, 0x3b, 0xf8, 0xaf, 0x3d,
  0x4c, 0xce, 0x6d, 0xbe, 0xa7, 0x38, 0xb5, 0x3d, 0x34, 0xfc, 0xa8, 0xbd,
  0x44, 0x9e, 0x43, 0xbe, 0x48, 0xe9, 0x4d, 0xbe, 0x3e, 0x23, 0x09, 0x3e,
  0xac, 0x54, 0x82, 0xbe, 0x3a, 0x7e, 0x12, 0x3d, 0xb1, 0x0b, 0x4c, 0xbe,
  0xed, 0x39, 0x17, 0xbe, 0x15, 0x62, 0x08, 0x3e, 0x7e, 0x95, 0x3f, 0xbe,
  0xb1, 0x1d, 0x52, 0xbd, 0xdc, 0xcc, 0xd2, 0xbc, 0x74, 0x19, 0x6f, 0xbe,
  0x41, 0x43, 0xd4, 0x3c, 0xfa, 0x22, 0x5a, 0xbe, 0xe4, 0x79, 0x70, 0xbd,
  0xba, 0xab, 0xed, 0xbc, 0x7c, 0x31, 0xde, 0xbd, 0xe2, 0x05, 0x3b, 0xbe,
  0x47, 0x3a, 0x57, 0xbe, 0x33, 0xd8, 0x16, 0x3e, 0x59, 0x21, 0x56, 0xbd,
  0x3a, 0x07, 0xb1, 0xbd, 0x60, 0x97, 0x52, 0xbe, 0xf5, 0x96, 0x81, 0x3d,
  0x3e, 0xdc, 0x8b, 0x3d, 0x12, 0x8e, 0x02, 0x3e, 0x75, 0x3a, 0xa1, 0xbd,
  0xf7, 0x0e, 0x46, 0xbe, 0xde, 0x74, 0x46, 0xbc, 0x53, 0x8f, 0xc8, 0x3d,
  0x5f, 0x6f, 0xa4, 0x3d, 0x2d, 0xbe, 0xb1, 0xbd, 0x6e, 0x1d, 0x47, 0xbe,
  0xa6, 0x7e, 0x58, 0xbb, 0x89, 0xda, 0x69, 0xbe, 0xfc, 0x5a, 0x04, 0xbe,
  0x52, 0xf5, 0x32, 0x3d, 0x4c, 0x75, 0x35, 0xbe, 0x8c, 0xa2, 0x7c, 0x3d,
  0xea, 0xaf, 0x64, 0x3d, 0xae, 0x69, 0x4b, 0xbe, 0x3f, 0xb5, 0x86, 0x3d,
  0xf8, 0xbe, 0x88, 0xbe, 0x60, 0x55, 0x38, 0x3e, 0x29, 0xdb, 0xd5, 0xbe,
  0x67, 0xf7, 0x9e, 0xbe, 0xc1, 0xe1, 0x92, 0xbc, 0x28, 0x2b, 0x29, 0xbe,
  0x02, 0x1d, 0x64, 0xbc, 0xba, 0x64, 0x8a, 0x3d, 0x75, 0x95, 0x79, 0x3e,
  0x23, 0xb5, 0x14, 0xbe, 0xcf, 0x2e, 0x94, 0xbe, 0x36, 0xd9, 0x0e, 0x3e,
  0xca, 0xaf, 0x15, 0xbe, 0x62, 0xe7, 0x42, 0x3d, 0x9d, 0x6d, 0x03, 0xbc,
  0x60, 0x78, 0xd4, 0x3e, 0xa6, 0xca, 0x7a, 0x3e, 0x76, 0xfe, 0x29, 0xbd,
  0x0b, 0x2a, 0xaf, 0xbe, 0xd0, 0xdb, 0x2f, 0xbe, 0x52, 0xdc, 0xd8, 0x3d,
  0x1f, 0x4e, 0xc3, 0xbe, 0x3a, 0x66, 0xd2, 0xbe, 0x92, 0x29, 0x1d, 0xbe,
  0x08, 0x0c, 0x21, 0x3e, 0x13, 0xf4, 0x30, 0x3e, 0xb6, 0x51, 0x93, 0x3e,
  0xd2, 0x15, 0x55, 0x3d, 0x32, 0x02, 0x06, 0x3e, 0x5d, 0x0e, 0x89, 0xbd,
  0x13, 0xbb, 0x40, 0xbd, 0x40, 0x8e, 0xf1, 0x3d, 0xa5, 0xfc, 0x52, 0x3e,
  0xab, 0xca, 0xaf, 0x3e, 0x97, 0xe3, 0x1f, 0xbe, 0x57, 0x92, 0xa5, 0x3c,
  0x81, 0xf6, 0x93, 0x3e, 0x28, 0xea, 0x46, 0xbe, 0x75, 0x95, 0x48, 0x3d,
  0x77, 0xe6, 0xef, 0xbd, 0x28, 0xd6, 0x72, 0xbe, 0x40, 0x6c, 0x32, 0xbe,
  0xa0, 0x4e, 0x94, 0x3e, 0xeb, 0xa9, 0x72, 0xbe, 0x2e, 0x0c, 0x24, 0x3b,
  0xbd, 0xd4, 0x58, 0x3e, 0x9f, 0x51, 0xd8, 0x3e, 0x20, 0x14, 0xb2, 0x3d,
  0xb0, 0x1d, 0x46, 0x3e, 0xb3, 0xda, 0xe7, 0x3c, 0x6d, 0x9e, 0x19, 0xbe,
  0x6d, 0x18, 0xc8, 0xbd, 0x23, 0x3c, 0x7e, 0x3e, 0x41, 0x1a, 0xae, 0xbe,
  0x87, 0xd3, 0xb3, 0x3d, 0xfa, 0x3e, 0x08, 0x3d, 0x96, 0xa6, 0x8b, 0x3e,
  0xc2, 0x5e, 0x76, 0xbd, 0xdc, 0x67, 0x05, 0xbd, 0x92, 0x78, 0x9b, 0xbd,
  0x72, 0x61, 0x80, 0xbe, 0x39, 0xbc, 0x55, 0x3c, 0x1d, 0x73, 0xa0, 0x3e,
  0x8f, 0x89, 0x31, 0xbd, 0x13, 0x65, 0x83, 0x3d, 0x1d, 0xfa, 0xec, 0xbd,
  0x62, 0x6e, 0x9b, 0xbe, 0x7c, 0x8e, 0x4f, 0x3d, 0x2d, 0x0d, 0x59, 0x3e,
  0x19, 0xc2, 0x90, 0xbd, 0x72, 0x33, 0xb2, 0x3c, 0xca, 0xa4, 0x53, 0xbd,
  0xa3, 0x43, 0xa2, 0x3e, 0xc3, 0x10, 0x95, 0xbe, 0x65, 0x4b, 0x6d, 0xbe,
  0x5b, 0x48, 0x0b, 0x3e, 0x1b, 0xc4, 0x5c, 0xbe, 0xc8, 0x9f, 0xbe, 0xbb,
  0x1e, 0xcf, 0xac, 0x3e, 0x81, 0x44, 0xe4, 0x3e, 0xa5, 0xfd, 0x71, 0x3e,
  0x8c, 0xfc, 0x66, 0xbe, 0x70, 0x84, 0x91, 0xbe, 0xdd, 0xf4, 0x2b, 0xbe,
  0x57, 0xed, 0xcc, 0x3d, 0xfe, 0x97, 0xda, 0xbd, 0x9d, 0xe6, 0xa1, 0xbe,
  0x72, 0x75, 0x64, 0xbe, 0x06, 0x22, 0xe1, 0x3c, 0xee, 0xe3, 0x02, 0xbe,
  0x2e, 0xa9, 0x32, 0xbe, 0x76, 0x4a, 0xb9, 0xbc, 0x36, 0xb7, 0x7d, 0xbd,
  0x58, 0x91, 0xa2, 0x3c, 0xb8, 0xcf, 0x15, 0xbd, 0x32, 0x89, 0xc6, 0x3e,
  0x5c, 0x0f, 0xae, 0x3e, 0x9f, 0xe7, 0x02, 0xbc, 0x6c, 0xa9, 0x1c, 0xbe,
  0x25, 0x9f, 0x8d, 0xbd, 0xa1, 0xdb, 0xb3, 0x3d, 0x37, 0x0e, 0x4c, 0x3e,
  0x67, 0xa9, 0x25, 0x3d, 0x85, 0x79, 0xb8, 0xbd, 0x1c, 0xb2, 0x23, 0xbe,
  0x99, 0xb2, 0x6d, 0x3c, 0x51, 0xf4, 0x29, 0xbe, 0x3f, 0x88, 0x78, 0xbe,
  0x70, 0x71, 0x28, 0xbe, 0x33, 0x9f, 0x91, 0xbe, 0xac, 0xe1, 0x51, 0x3e,
  0x1e, 0x90, 0x1b, 0xbd, 0x8a, 0xd9, 0x93, 0xbe, 0x59, 0x80, 0x93, 0xbe,
  0xbd, 0x7a, 0x26, 0xbe, 0x44, 0x16, 0x3f, 0xbe, 0x0e, 0x02, 0xaa, 0xbd,
  0xb7, 0x35, 0x85, 0xbd, 0x3a, 0xef, 0xa5, 0xbe, 0x8f, 0x8a, 0x8d, 0xbd,
  0x19, 0x41, 0xc3, 0xbe, 0xe6, 0x65, 0x95, 0xbe, 0x75, 0x40, 0xb7, 0xbd,
  0x51, 0x17, 0x97, 0xbe, 0xb6, 0x69, 0x70, 0xbe, 0xa8, 0x3d, 0xa2, 0xbe,
  0xb1, 0x59, 0xdd, 0xbd, 0xa5, 0x1a, 0x0c, 0xbd, 0x1b, 0x2d, 0x19, 0xbf,
  0x85, 0x42, 0xbb, 0xbd, 0xb1, 0xa2, 0x4d, 0x3e, 0x2c, 0xcb, 0x76, 0x3d,
  0xdd, 0xbd, 0x9d, 0x3b, 0x4a, 0xc2, 0x82, 0x3d, 0x9b, 0xbd, 0x19, 0xbe,
  0xcc, 0xee, 0x9a, 0xbd, 0xb1, 0xdf, 0xae, 0xbd, 0x13, 0x9c, 0x50, 0xbe,
  0xaf, 0xfc, 0x61, 0xbc, 0xb5, 0x14, 0x91, 0xbe, 0xea, 0xae, 0xd3, 0xbd,
  0x91, 0x2f, 0x98, 0xbe, 0xb6, 0x79, 0x15, 0x3d, 0x1a, 0xb8, 0x2b, 0x3e,
  0xfd, 0x92, 0xcb, 0xbe, 0x81, 0x59, 0x8f, 0x3a, 0xb2, 0x81, 0x0f, 0x3d,
  0x1c, 0x3e, 0x9a, 0xbd, 0x34, 0x70, 0x3b, 0xbe, 0x88, 0xa5, 0x26, 0x3e,
  0xbb, 0x3a, 0x4a, 0xbe, 0xa3, 0x17, 0xbe, 0xbd, 0x42, 0x5c, 0x38, 0xbc,
  0xcb, 0xfc, 0xc9, 0xbd, 0xba, 0x91, 0xec, 0x3c, 0xfc, 0x87, 0xf6, 0xbc,
  0x4b, 0xb2, 0x7e, 0x3c, 0xf8, 0x89, 0x75, 0xbe, 0x57, 0xd2, 0x18, 0xbd,
  0xd1, 0xc8, 0x0c, 0x3d, 0x21, 0xd8, 0xef, 0x3c, 0xdd, 0xe8, 0x25, 0xbe,
  0x7f, 0x01, 0x0b, 0xbe, 0x29, 0xd2, 0x95, 0x3b, 0x7d, 0x54, 0x3f, 0xbe,
  0xcb, 0xe7, 0x1f, 0x3d, 0x0b, 0x27, 0x4c, 0xbe, 0x9c, 0xb4, 0x89, 0xbd,
  0xec, 0x42, 0xfb, 0xbc, 0xdb, 0x09, 0x17, 0xbe, 0xf8, 0xe0, 0x7a, 0xbd,
  0x22, 0x4a, 0x3e, 0xbe, 0xcd, 0x37, 0x3a, 0xbe, 0x8f, 0x33, 0x7e, 0xbe,
  0x3b, 0xce, 0x92, 0xbd, 0x21, 0x98, 0xe0, 0x3d, 0x8d, 0xda, 0x73, 0x3d,
  0xd5, 0xe4, 0xa5, 0x3e, 0x01, 0x6a, 0xec, 0xbc, 0xa7, 0x3f, 0x4a, 0xbc,
  0x3b, 0x6b, 0xda, 0x3c, 0x75, 0xdd, 0xac, 0x3d, 0x94, 0x23, 0xa6, 0xbd,
  0xdf, 0xde, 0x4e, 0xbc, 0xe3, 0x7d, 0xfc, 0xbd, 0x2b, 0xc9, 0x71, 0x3e,
  0xc0, 0x84, 0x4f, 0x3e, 0xcf, 0xe3, 0x16, 0xbe, 0x89, 0x8f, 0x02, 0xbe,
  0x3d, 0xa4, 0x8f, 0x3e, 0x25, 0x91, 0xba, 0x3d, 0x8e, 0x84, 0x38, 0x3e,
  0xfb, 0x9a, 0x29, 0xbd, 0x94, 0x05, 0xa6, 0x3e, 0x27, 0x40, 0x79, 0x3d,
  0x3c, 0x3b, 0xf6, 0x3d, 0xbf, 0xc7, 0x01, 0xbd, 0x6c, 0xfd, 0xdb, 0xbd,
  0x80, 0xf9, 0xf6, 0x3d, 0xf9, 0x03, 0x63, 0x3c, 0x87, 0x97, 0xc4, 0xbc,
  0xa3, 0x03, 0x32, 0x3e, 0x21, 0xef, 0x33, 0x3e, 0xc6, 0x3e, 0x0e, 0xbe,
  0xdd, 0x3d, 0x0c, 0x3c, 0xb2, 0x4c, 0x8d, 0x3d, 0xca, 0xdb, 0xfd, 0xbb,
  0x12, 0xe3, 0xed, 0x3d, 0x69, 0xda, 0x07, 0x3c, 0x38, 0x7d, 0x5b, 0x3e,
  0x91, 0x3e, 0xd2, 0xbc, 0xa8, 0x67, 0x88, 0x3d, 0x55, 0xea, 0x8a, 0xbd,
  0xda, 0xc7, 0x09, 0xbe, 0x31, 0xb9, 0x51, 0x3e, 0x6c, 0xd9, 0x9f, 0x3c,
  0x39, 0x6e, 0x40, 0xbd, 0x3e, 0x33, 0x6e, 0x3d, 0x93, 0x1d, 0xc7, 0xb8,
  0x3f, 0x0c, 0x07, 0xba, 0x86, 0x16, 0xac, 0x3d, 0xc2, 0x3b, 0x82, 0x3e,
  0xac, 0x6e, 0x03, 0x3d, 0xad, 0x1e, 0x8c, 0x3c, 0xdb, 0x59, 0xbf, 0xbc,
  0x6c, 0xa9, 0xf6, 0xbc, 0x5b, 0xcd, 0xf9, 0x3d, 0x2d, 0xcc, 0x01, 0x3e,
  0x58, 0xdd, 0x1d, 0xbe, 0x13, 0xb6, 0xfa, 0xbd, 0x61, 0x7d, 0x9b, 0xbe,
  0x0a, 0x34, 0xa6, 0xbe, 0x7e, 0x37, 0xb9, 0xbd, 0xb2, 0x0b, 0x19, 0xbe,
  0x12, 0x17, 0x96, 0x3a, 0xdc, 0xa7, 0x7e, 0x3d, 0xa6, 0xcb, 0x4e, 0xbd,
  0xc3, 0xce, 0x18, 0x3e, 0xe2, 0x9e, 0x07, 0x3d, 0x1a, 0x7d, 0xa2, 0x3d,
  0x5d, 0x60, 0xd3, 0xbd, 0x72, 0x38, 0x35, 0x3d, 0x54, 0xb6, 0xaa, 0x3d,
  0x43, 0x37, 0x44, 0xbe, 0x3b, 0x83, 0xf8, 0xbd, 0xc3, 0x94, 0x8a, 0x3d,
  0xae, 0x37, 0x7f, 0xbe, 0x3b, 0xd6, 0x65, 0xbe, 0xb1, 0x1a, 0x02, 0x3e,
  0x44, 0x7c, 0x1a, 0xbe, 0x19, 0xdc, 0x7f, 0xbd, 0xb6, 0x45, 0x90, 0xbd,
  0x42, 0xd5, 0x5f, 0xbe, 0x6a, 0x2b, 0x34, 0xbe, 0x15, 0xd7, 0xc3, 0x3c,
  0x24, 0x9b, 0xdd, 0x3c, 0x81, 0x9b, 0x62, 0x3d, 0xc6, 0x19, 0x21, 0xbd,
  0x02, 0x77, 0x8b, 0xbd, 0xea, 0x43, 0xa4, 0xbd, 0x46, 0xd0, 0x1f, 0xbd,
  0x7b, 0x86, 0x62, 0x3d, 0x87, 0x4b, 0x56, 0xbd, 0x13, 0xf3, 0x8b, 0xbe,
  0xfb, 0x80, 0xb3, 0x3d, 0xe1, 0x8e, 0x4d, 0xbe, 0xdc, 0x57, 0x0a, 0x3e,
  0x7c, 0x89, 0x83, 0xbe, 0x11, 0x4d, 0xb9, 0xbd, 0x54, 0xdd, 0xd6, 0x3c,
  0xe1, 0x61, 0xa7, 0xbd, 0xbc, 0x6a, 0x53, 0x3d, 0x4e, 0x05, 0x61, 0xbe,
  0xb2, 0x51, 0x71, 0x3d, 0x68, 0x15, 0x30, 0xbe, 0x8f, 0x63, 0x6e, 0xbe,
  0x73, 0xcc, 0x13, 0x3e, 0x0e, 0x66, 0x38, 0xbe, 0x10, 0xb9, 0x89, 0x3d,
  0xfc, 0x8d, 0x6a, 0xbe, 0x69, 0xea, 0x8b, 0xbd, 0x38, 0x06, 0x1a, 0xbe,
  0x0e, 0x76, 0xb1, 0x3c, 0xf1, 0xe9, 0x0e, 0xbe, 0x18, 0x64, 0xb6, 0xbd,
  0x31, 0x6e, 0x7a, 0xbe, 0x10, 0x39, 0x80, 0xbe, 0x86, 0x74, 0x8b, 0x3c,
  0x59, 0x18, 0x66, 0x3d, 0xc6, 0x0e, 0xac, 0xbd, 0x03, 0xbd, 0x65, 0xbe,
  0xf8, 0x84, 0xd2, 0xbd, 0x2b, 0x6d, 0x2a, 0x3d, 0x38, 0x3b, 0x2a, 0xbe,
  0xd9, 0x07, 0x52, 0xbe, 0x86, 0x7b, 0x05, 0xbc, 0x78, 0x0d, 0x0f, 0xbd,
  0x41, 0x61, 0x61, 0xbe, 0xd9, 0xfe, 0x4c, 0xbe, 0x7a, 0xac, 0xf6, 0x3d,
  0x90, 0x11, 0x6a, 0x3d, 0x2e, 0x86, 0x27, 0xbe, 0x91, 0xc6, 0xe7, 0x3c,
  0x5d, 0xe8, 0x1d, 0xbe, 0xdb, 0x83, 0x9a, 0x3d, 0x07, 0xc0, 0x24, 0x3e,
  0x26, 0x99, 0xcb, 0xbd, 0xc4, 0x32, 0xd0, 0xbd, 0x17, 0x76, 0x6e, 0xbe,
  0x10, 0xf3, 0x08, 0xbe, 0xdd, 0x4d, 0x97, 0xbe, 0x42, 0x55, 0x9d, 0xbc,
  0x26, 0xed, 0x4a, 0xbc, 0x1e, 0x56, 0x5d, 0x3d, 0xae, 0x8e, 0x3e, 0xbd,
  0x8d, 0xbe, 0x39, 0x3d, 0x6a, 0xf4, 0x49, 0xbc, 0xf8, 0x63, 0x4f, 0x3d,
  0x10, 0x29, 0xc0, 0xbd, 0xe5, 0xfd, 0x93, 0xbc, 0x24, 0x2e, 0x6c, 0xbd,
  0xe1, 0x7c, 0x81, 0xbe, 0x5e, 0x7d, 0x17, 0x3b, 0xe7, 0xeb, 0x88, 0x3c,
  0xfc, 0x67, 0x88, 0xbe, 0x15, 0xe2, 0x60, 0x3c, 0xf9, 0x00, 0x9e, 0xbe,
  0x69, 0xd1, 0xe4, 0x3b, 0xe5, 0x68, 0xde, 0xbd, 0x93, 0xbd, 0x3a, 0x3d,
  0x03, 0x2a, 0x45, 0x3d, 0xe5, 0x8d, 0x83, 0xbd, 0xed, 0x00, 0xc7, 0x3b,
  0xd6, 0x36, 0x59, 0xbe, 0x86, 0x62, 0x89, 0xbc, 0xf1, 0x5d, 0x53, 0xbe,
  0xcf, 0xd0, 0xaa, 0xbe, 0xaf, 0x79, 0x14, 0xbd, 0xa4, 0xc6, 0x3f, 0xbe,
  0x36, 0xef, 0x6b, 0xbd, 0x77, 0x2d, 0x1a, 0xbe, 0x35, 0x21, 0x21, 0xbe,
  0x65, 0xb1, 0x36, 0xbe, 0x1a, 0xdf, 0xc1, 0xbe, 0x90, 0x12, 0x62, 0xbc,
  0x74, 0x5c, 0x17, 0x3d, 0x6d, 0xa3, 0xdc, 0xbd, 0xe8, 0x5a, 0xe5, 0x3c,
  0xfa, 0x30, 0x40, 0xbe, 0x91, 0x3f, 0x41, 0x3e, 0x70, 0x43, 0x67, 0xbe,
  0x31, 0xb2, 0x0d, 0xbd, 0x08, 0x47, 0xc4, 0xbe, 0x7e, 0x8e, 0xde, 0xbd,
  0xda, 0xd6, 0x22, 0xbe, 0x32, 0xb9, 0x4f, 0x3e, 0x3d, 0x67, 0x98, 0xbd,
  0xd4, 0xec, 0xd7, 0xbc, 0xf6, 0x54, 0xa3, 0x3d, 0x3a, 0xe8, 0xf1, 0xbe,
  0x1d, 0x79, 0xb5, 0xbd, 0x19, 0x59, 0x43, 0xbe, 0x39, 0x36, 0x54, 0xbe,
  0xdb, 0x3f, 0x39, 0xbe, 0xb2, 0x5c, 0x24, 0xbe, 0x90, 0xbb, 0x19, 0xbe,
  0xff, 0x0b, 0x02, 0xbe, 0x98, 0x87, 0xf3, 0x3d, 0x41, 0xe1, 0x27, 0x3d,
  0xa5, 0x81, 0x9e, 0xbe, 0xc7, 0xc3, 0x38, 0xbd, 0x9c, 0x0d, 0x17, 0x3e,
  0x58, 0xca, 0xb4, 0xbc, 0xc5, 0xdd, 0xeb, 0xbd, 0x97, 0xd2, 0xbb, 0xbd,
  0xb7, 0xfa, 0xd4, 0xbe, 0x31, 0x2c, 0x09, 0xbe, 0x0e, 0xc3, 0x55, 0xbe,
  0x6c, 0x2b, 0x95, 0xbc, 0x34, 0xaa, 0x35, 0x3d, 0xd0, 0xe5, 0x44, 0x3c,
  0xa6, 0xae, 0x2c, 0xbe, 0x02, 0xb4, 0x41, 0xbe, 0xd7, 0xfc, 0xa4, 0xbd,
  0x92, 0xdc, 0x30, 0xbe, 0x08, 0xa0, 0x10, 0xbe, 0x13, 0x9d, 0x9e, 0x3d,
  0x15, 0x39, 0x6a, 0xbe, 0x56, 0x0c, 0xd8, 0xbd, 0x7d, 0xa1, 0xdb, 0x3d,
  0x14, 0x84, 0x40, 0xbd, 0x08, 0xec, 0xd8, 0xbe, 0x48, 0x40, 0xc7, 0xbd,
  0x8b, 0x97, 0x80, 0xbe, 0xb4, 0x9f, 0x04, 0xbe, 0xa8, 0x97, 0x84, 0x3d,
  0x6d, 0x62, 0x44, 0xbd, 0x2f, 0x94, 0x1e, 0xbe, 0x38, 0x9b, 0x78, 0xbd,
  0x5e, 0xb3, 0x92, 0x3d, 0xd1, 0x24, 0xb4, 0xbe, 0x7d, 0x68, 0x76, 0x3e,
  0xe9, 0xcd, 0xb4, 0xbd, 0xeb, 0x8a, 0x17, 0x3e, 0x5e, 0xc8, 0x15, 0x3e,
  0xe8, 0x2d, 0xfc, 0x3d, 0xa3, 0x57, 0x8b, 0xbd, 0x2a, 0x10, 0xe9, 0xbd,
  0x00, 0x5d, 0x30, 0xbe, 0x93, 0x80, 0xd7, 0x3d, 0xb8, 0x36, 0xc0, 0xbd,
  0xea, 0xfd, 0xa2, 0x3d, 0x3c, 0x8b, 0xdd, 0xbc, 0x09, 0x61, 0x50, 0x3d,
  0x11, 0xfb, 0x01, 0xbe, 0x89, 0x79, 0x5a, 0xbd, 0xa6, 0x88, 0xa4, 0xbe,
  0x7f, 0x21, 0xcb, 0x3e, 0x66, 0xcf, 0x38, 0x3e, 0xba, 0x81, 0x83, 0x3e,
  0x11, 0xe6, 0x87, 0x3d, 0x5d, 0x7d, 0xb5, 0x3d, 0xad, 0x98, 0xeb, 0xba,
  0x73, 0xc7, 0x8b, 0xbe, 0x47, 0x59, 0x58, 0xbe, 0xd9, 0x26, 0x32, 0x3e,
  0x83, 0xef, 0x02, 0x3f, 0xf1, 0x1a, 0x23, 0xbe, 0x1f, 0x16, 0xa3, 0xbc,
  0xcf, 0xdb, 0x37, 0x3e, 0x73, 0x31, 0x2f, 0xbb, 0xe3, 0x41, 0x27, 0x3e,
  0xcb, 0x46, 0x75, 0xbe, 0xe4, 0x95, 0x56, 0x3e, 0x73, 0x02, 0xf8, 0x3b,
  0xbb, 0x81, 0x1d, 0xbd, 0x5d, 0x40, 0x84, 0x3e, 0xce, 0x8a, 0xa4, 0xbc,
  0xf4, 0x23, 0x7a, 0xbd, 0xed, 0xeb, 0xbf, 0x3d, 0x79, 0x1a, 0x1c, 0x3d,
  0x8e, 0x85, 0x3c, 0x3e, 0xa2, 0x21, 0x04, 0x3e, 0x1d, 0x02, 0x5d, 0xbe,
  0xba, 0xde, 0xd5, 0xbd, 0xbc, 0x61, 0xb3, 0x3d, 0x88, 0x29, 0x34, 0x3b,
  0x5b, 0x68, 0xde, 0xbc, 0xb7, 0x10, 0xa4, 0xbd, 0x4a, 0xfe, 0xff, 0xff,
  0x10, 0x00, 0x00, 0x00, 0x05, 0x00, 0x00, 0x00, 0x14, 0x00, 0x00, 0x00,
  0x2c, 0x00, 0x00, 0x00, 0x02, 0x00, 0x00, 0x00, 0x10, 0x00, 0x00, 0x00,
  0x70, 0x00, 0x00, 0x00, 0x17, 0x00, 0x00, 0x00, 0x73, 0x65, 0x71, 0x75,
  0x65, 0x6e, 0x74, 0x69, 0x61, 0x6c, 0x2f, 0x64, 0x65, 0x6e, 0x73, 0x65,
  0x2f, 0x4d, 0x61, 0x74, 0x4d, 0x75, 0x6c, 0x00, 0x38, 0xfe, 0xff, 0xff,
  0x2e, 0xff, 0xff, 0xff, 0x04, 0x00, 0x00, 0x00, 0x08, 0x00, 0x00, 0x00,
  0xff, 0xff, 0xff, 0xff, 0x70, 0x00, 0x00, 0x00, 0x00, 0x00, 0x0e, 0x00,
  0x18, 0x00, 0x08, 0x00, 0x07, 0x00, 0x0c, 0x00, 0x10, 0x00, 0x14, 0x00,
  0x0e, 0x00, 0x00, 0x00, 0x00, 0x00, 0x00, 0x02, 0x10, 0x00, 0x00, 0x00,
  0x04, 0x00, 0x00, 0x00, 0x10, 0x00, 0x00, 0x00, 0x2c, 0x00, 0x00, 0x00,
  0x01, 0x00, 0x00, 0x00, 0x02, 0x00, 0x00, 0x00, 0x18, 0x00, 0x00, 0x00,
  0x73, 0x65, 0x71, 0x75, 0x65, 0x6e, 0x74, 0x69, 0x61, 0x6c, 0x2f, 0x66,
  0x6c, 0x61, 0x74, 0x74, 0x65, 0x6e, 0x2f, 0x43, 0x6f, 0x6e, 0x73, 0x74,
  0x00, 0x00, 0x00, 0x00, 0xa0, 0xfe, 0xff, 0xff, 0x96, 0xff, 0xff, 0xff,
  0x04, 0x00, 0x00, 0x00, 0x0c, 0x00, 0x00, 0x00, 0x53, 0x27, 0xce, 0x3f,
  0x32, 0x9c, 0x24, 0xc0, 0xea, 0x10, 0x1b, 0x3e, 0x0a, 0xff, 0xff, 0xff,
  0x10, 0x00, 0x00, 0x00, 0x03, 0x00, 0x00, 0x00, 0x10, 0x00, 0x00, 0x00,
  0x3c, 0x00, 0x00, 0x00, 0x01, 0x00, 0x00, 0x00, 0x03, 0x00, 0x00, 0x00,
  0x29, 0x00, 0x00, 0x00, 0x73, 0x65, 0x71, 0x75, 0x65, 0x6e, 0x74, 0x69,
  0x61, 0x6c, 0x2f, 0x64, 0x65, 0x6e, 0x73, 0x65, 0x5f, 0x31, 0x2f, 0x42,
  0x69, 0x61, 0x73, 0x41, 0x64, 0x64, 0x2f, 0x52, 0x65, 0x61, 0x64, 0x56,
  0x61, 0x72, 0x69, 0x61, 0x62, 0x6c, 0x65, 0x4f, 0x70, 0x00, 0x00, 0x00,
  0x60, 0xff, 0xff, 0xff, 0x00, 0x00, 0x06, 0x00, 0x08, 0x00, 0x04, 0x00,
  0x06, 0x00, 0x00, 0x00, 0x04, 0x00, 0x00, 0x00, 0x40, 0x00, 0x00, 0x00,
  0x76, 0x21, 0xd4, 0x3b, 0x04, 0x99, 0xb4, 0xbe, 0x6e, 0xa2, 0x56, 0x3c,
  0xbb, 0xdc, 0x71, 0xbf, 0xea, 0xa7, 0x1a, 0xbe, 0x60, 0xbe, 0xd9, 0xbe,
  0xa2, 0x96, 0xa8, 0xbe, 0x70, 0xce, 0x47, 0x3c, 0x85, 0x39, 0xea, 0xbf,
  0x95, 0x1b, 0x6a, 0x3c, 0xce, 0x82, 0xef, 0xbd, 0xb7, 0xf5, 0x2a, 0xbe,
  0xb1, 0xca, 0x79, 0xbf, 0x5f, 0x4b, 0xa2, 0xbf, 0x46, 0x6e, 0x1e, 0xbe,
  0xd9, 0x4b, 0xd9, 0xbe, 0xae, 0xff, 0xff, 0xff, 0x10, 0x00, 0x00, 0x00,
  0x02, 0x00, 0x00, 0x00, 0x10, 0x00, 0x00, 0x00, 0x3c, 0x00, 0x00, 0x00,
  0x01, 0x00, 0x00, 0x00, 0x10, 0x00, 0x00, 0x00, 0x27, 0x00, 0x00, 0x00,
  0x73, 0x65, 0x71, 0x75, 0x65, 0x6e, 0x74, 0x69, 0x61, 0x6c, 0x2f, 0x64,
  0x65, 0x6e, 0x73, 0x65, 0x2f, 0x42, 0x69, 0x61, 0x73, 0x41, 0x64, 0x64,
  0x2f, 0x52, 0x65, 0x61, 0x64, 0x56, 0x61, 0x72, 0x69, 0x61, 0x62, 0x6c,
  0x65, 0x4f, 0x70, 0x00, 0x04, 0x00, 0x06, 0x00, 0x04, 0x00, 0x00, 0x00,
  0x00, 0x00, 0x0e, 0x00, 0x14, 0x00, 0x04, 0x00, 0x00, 0x00, 0x08, 0x00,
  0x0c, 0x00, 0x10, 0x00, 0x0e, 0x00, 0x00, 0x00, 0x10, 0x00, 0x00, 0x00,
  0x01, 0x00, 0x00, 0x00, 0x1c, 0x00, 0x00, 0x00, 0x2c, 0x00, 0x00, 0x00,
  0x04, 0x00, 0x00, 0x00, 0x01, 0x00, 0x00, 0x00, 0x40, 0x00, 0x00, 0x00,
  0x03, 0x00, 0x00, 0x00, 0x01, 0x00, 0x00, 0x00, 0x0c, 0x00, 0x00, 0x00,
  0x63, 0x6f, 0x6e, 0x76, 0x32, 0x64, 0x5f, 0x69, 0x6e, 0x70, 0x75, 0x74,
  0x00, 0x00, 0x00, 0x00, 0xfc, 0xff, 0xff, 0xff, 0x04, 0x00, 0x04, 0x00,
  0x04, 0x00, 0x00, 0x00
};


unsigned int model_tflite_len = 12316;// Fill the int in `src/model.cc` here