#include "magic_wand_model_data.h"


// We need to keep the data array aligned on some architectures.

#ifdef __has_attribute

#define HAVE_ATTRIBUTE(x) __has_attribute(x)

#else

#define HAVE_ATTRIBUTE(x) 0

#endif

#if HAVE_ATTRIBUTE(aligned) || (defined(__GNUC__) && !defined(__clang__))

#define DATA_ALIGN_ATTRIBUTE __attribute__((aligned(4)))

#else

#define DATA_ALIGN_ATTRIBUTE

#endif


const unsigned char g_magic_wand_model_data[] DATA_ALIGN_ATTRIBUTE = {

  // Paste the data of the char array in `src/model.cc` here

  0x08, 0x00, 0x00, 0x00, 0x54, 0x46, 0x4c, 0x33, 0x62, 0xff, 0xff, 0xff,
  0x03, 0x00, 0x00, 0x00, 0x10, 0x00, 0x00, 0x00, 0x24, 0x00, 0x00, 0x00,
  0x78, 0x00, 0x00, 0x00, 0x24, 0x00, 0x00, 0x00, 0x05, 0x00, 0x00, 0x00,
  0x78, 0x05, 0x00, 0x00, 0xb0, 0x04, 0x00, 0x00, 0xe0, 0x02, 0x00, 0x00,
  0x60, 0x02, 0x00, 0x00, 0x54, 0x01, 0x00, 0x00, 0x01, 0x00, 0x00, 0x00,
  0x78, 0x00, 0x00, 0x00, 0x13, 0x00, 0x00, 0x00, 0x18, 0x30, 0x00, 0x00,
  0x14, 0x30, 0x00, 0x00, 0x20, 0x2f, 0x00, 0x00, 0xa8, 0x2e, 0x00, 0x00,
  0x3c, 0x2e, 0x00, 0x00, 0xec, 0x11, 0x00, 0x00, 0x98, 0x10, 0x00, 0x00,
  0xbc, 0x0e, 0x00, 0x00, 0x60, 0x06, 0x00, 0x00, 0xfc, 0x05, 0x00, 0x00,
  0x78, 0x05, 0x00, 0x00, 0xec, 0x2f, 0x00, 0x00, 0xe8, 0x2f, 0x00, 0x00,
  0xe4, 0x2f, 0x00, 0x00, 0xe0, 0x2f, 0x00, 0x00, 0xdc, 0x2f, 0x00, 0x00,
  0xd8, 0x2f, 0x00, 0x00, 0xd4, 0x2f, 0x00, 0x00, 0xd0, 0x2f, 0x00, 0x00,
  0x0f, 0x00, 0x00, 0x00, 0x4d, 0x4c, 0x49, 0x52, 0x20, 0x43, 0x6f, 0x6e,
  0x76, 0x65, 0x72, 0x74, 0x65, 0x64, 0x2e, 0x00, 0x00, 0x00, 0x0e, 0x00,
  0x18, 0x00, 0x04, 0x00, 0x08, 0x00, 0x0c, 0x00, 0x10, 0x00, 0x14, 0x00,
  0x0e, 0x00, 0x00, 0x00, 0x14, 0x00, 0x00, 0x00, 0x5c, 0x00, 0x00, 0x00,
  0x60, 0x00, 0x00, 0x00, 0x64, 0x00, 0x00, 0x00, 0x84, 0x00, 0x00, 0x00,
  0x12, 0x00, 0x00, 0x00, 0x48, 0x2f, 0x00, 0x00, 0xe4, 0x2e, 0x00, 0x00,
  0x3c, 0x2e, 0x00, 0x00, 0xd8, 0x2d, 0x00, 0x00, 0x70, 0x2d, 0x00, 0x00,
  0x1c, 0x11, 0x00, 0x00, 0xc0, 0x0f, 0x00, 0x00, 0xe4, 0x0d, 0x00, 0x00,
  0xa0, 0x05, 0x00, 0x00, 0x3c, 0x05, 0x00, 0x00, 0xb0, 0x04, 0x00, 0x00,
  0xe8, 0x03, 0x00, 0x00, 0x38, 0x03, 0x00, 0x00, 0xa4, 0x02, 0x00, 0x00,
  0x10, 0x02, 0x00, 0x00, 0x90, 0x01, 0x00, 0x00, 0xfc, 0x00, 0x00, 0x00,
  0x80, 0x00, 0x00, 0x00, 0x01, 0x00, 0x00, 0x00, 0x00, 0x00, 0x00, 0x00,
  0x01, 0x00, 0x00, 0x00, 0x11, 0x00, 0x00, 0x00, 0x08, 0x00, 0x00, 0x00,
  0x1c, 0x04, 0x00, 0x00, 0x58, 0x03, 0x00, 0x00, 0xc8, 0x02, 0x00, 0x00,
  0x24, 0x02, 0x00, 0x00, 0xac, 0x01, 0x00, 0x00, 0x10, 0x01, 0x00, 0x00,
  0x94, 0x00, 0x00, 0x00, 0x10, 0x00, 0x00, 0x00, 0x04, 0x00, 0x00, 0x00,
  0x6d, 0x61, 0x69, 0x6e, 0x00, 0x00, 0x00, 0x00, 0x8e, 0xff, 0xff, 0xff,
  0x00, 0x00, 0x00, 0x09, 0x04, 0x00, 0x00, 0x00, 0x1c, 0x00, 0x00, 0x00,
  0x10, 0x00, 0x00, 0x00, 0x04, 0x00, 0x00, 0x00, 0x0a, 0xd2, 0xff, 0xff,
  0x00, 0x00, 0x80, 0x3f, 0x01, 0x00, 0x00, 0x00, 0x11, 0x00, 0x00, 0x00,
  0x01, 0x00, 0x00, 0x00, 0x10, 0x00, 0x00, 0x00, 0xf6, 0xfb, 0xff, 0xff,
  0x00, 0x00, 0x00, 0x19, 0x01, 0x00, 0x00, 0x00, 0x8a, 0xd1, 0xff, 0xff,
  0x10, 0x00, 0x00, 0x00, 0x12, 0x00, 0x00, 0x00, 0x14, 0x00, 0x00, 0x00,
  0x20, 0x00, 0x00, 0x00, 0x02, 0x00, 0x00, 0x00, 0x01, 0x00, 0x00, 0x00,
  0x04, 0x00, 0x00, 0x00, 0x08, 0x00, 0x00, 0x00, 0x49, 0x64, 0x65, 0x6e,
  0x74, 0x69, 0x74, 0x79, 0x00, 0x00, 0x00, 0x00, 0xc4, 0xd1, 0xff, 0xff,
  0x00, 0x00, 0x0e, 0x00, 0x18, 0x00, 0x08, 0x00, 0x0c, 0x00, 0x10, 0x00,
  0x07, 0x00, 0x14, 0x00, 0x0e, 0x00, 0x00, 0x00, 0x00, 0x00, 0x00, 0x08,
  0x03, 0x00, 0x00, 0x00, 0x18, 0x00, 0x00, 0x00, 0x0c, 0x00, 0x00, 0x00,
  0x04, 0x00, 0x00, 0x00, 0x98, 0xd1, 0xff, 0xff, 0x01, 0x00, 0x00, 0x00,
  0x10, 0x00, 0x00, 0x00, 0x03, 0x00, 0x00, 0x00, 0x0f, 0x00, 0x00, 0x00,
  0x05, 0x00, 0x00, 0x00, 0x02, 0x00, 0x00, 0x00, 0x02, 0xd2, 0xff, 0xff,
  0x10, 0x00, 0x00, 0x00, 0x11, 0x00, 0x00, 0x00, 0x14, 0x00, 0x00, 0x00,
  0x30, 0x00, 0x00, 0x00, 0x02, 0x00, 0x00, 0x00, 0x01, 0x00, 0x00, 0x00,
  0x04, 0x00, 0x00, 0x00, 0x1a, 0x00, 0x00, 0x00, 0x73, 0x65, 0x71, 0x75,
  0x65, 0x6e, 0x74, 0x69, 0x61, 0x6c, 0x2f, 0x64, 0x65, 0x6e, 0x73, 0x65,
  0x5f, 0x31, 0x2f, 0x42, 0x69, 0x61, 0x73, 0x41, 0x64, 0x64, 0x00, 0x00,
  0xf4, 0xd1, 0xff, 0xff, 0xd6, 0xfd, 0xff, 0xff, 0x00, 0x00, 0x00, 0x08,
  0x03, 0x00, 0x00, 0x00, 0x24, 0x00, 0x00, 0x00, 0x18, 0x00, 0x00, 0x00,
  0x0c, 0x00, 0x00, 0x00, 0x00, 0x00, 0x06, 0x00, 0x08, 0x00, 0x07, 0x00,
  0x06, 0x00, 0x00, 0x00, 0x00, 0x00, 0x00, 0x01, 0x01, 0x00, 0x00, 0x00,
  0x0f, 0x00, 0x00, 0x00, 0x03, 0x00, 0x00, 0x00, 0x0e, 0x00, 0x00, 0x00,
  0x04, 0x00, 0x00, 0x00, 0x01, 0x00, 0x00, 0x00, 0xfe, 0xfc, 0xff, 0xff,
  0x00, 0x00, 0x00, 0x09, 0x01, 0x00, 0x00, 0x00, 0x92, 0xd2, 0xff, 0xff,
  0x10, 0x00, 0x00, 0x00, 0x10, 0x00, 0x00, 0x00, 0x14, 0x00, 0x00, 0x00,
  0x2c, 0x00, 0x00, 0x00, 0x02, 0x00, 0x00, 0x00, 0x01, 0x00, 0x00, 0x00,
  0x10, 0x00, 0x00, 0x00, 0x15, 0x00, 0x00, 0x00, 0x73, 0x65, 0x71, 0x75,
  0x65, 0x6e, 0x74, 0x69, 0x61, 0x6c, 0x2f, 0x64, 0x65, 0x6e, 0x73, 0x65,
  0x2f, 0x52, 0x65, 0x6c, 0x75, 0x00, 0x00, 0x00, 0xd8, 0xd2, 0xff, 0xff,
  0x00, 0x00, 0x0a, 0x00, 0x10, 0x00, 0x04, 0x00, 0x08, 0x00, 0x0c, 0x00,
  0x0a, 0x00, 0x00, 0x00, 0x02, 0x00, 0x00, 0x00, 0x10, 0x00, 0x00, 0x00,
  0x04, 0x00, 0x00, 0x00, 0x01, 0x00, 0x00, 0x00, 0x0e, 0x00, 0x00, 0x00,
  0x02, 0x00, 0x00, 0x00, 0x0d, 0x00, 0x00, 0x00, 0x03, 0x00, 0x00, 0x00,
  0x7a, 0xfd, 0xff, 0xff, 0x00, 0x00, 0x00, 0x16, 0x01, 0x00, 0x00, 0x00,
  0x0e, 0xd3, 0xff, 0xff, 0x10, 0x00, 0x00, 0x00, 0x0f, 0x00, 0x00, 0x00,
  0x14, 0x00, 0x00, 0x00, 0x30, 0x00, 0x00, 0x00, 0x02, 0x00, 0x00, 0x00,
  0x01, 0x00, 0x00, 0x00, 0x70, 0x00, 0x00, 0x00, 0x1a, 0x00, 0x00, 0x00,
  0x73, 0x65, 0x71, 0x75, 0x65, 0x6e, 0x74, 0x69, 0x61, 0x6c, 0x2f, 0x66,
  0x6c, 0x61, 0x74, 0x74, 0x65, 0x6e, 0x2f, 0x52, 0x65, 0x73, 0x68, 0x61,
  0x70, 0x65, 0x00, 0x00, 0x00, 0xd3, 0xff, 0xff, 0xe2, 0xfe, 0xff, 0xff,
  0x00, 0x00, 0x00, 0x05, 0x01, 0x00, 0x00, 0x00, 0x38, 0x00, 0x00, 0x00,
  0x2c, 0x00, 0x00, 0x00, 0x14, 0x00, 0x00, 0x00, 0x00, 0x00, 0x0e, 0x00,
  0x14, 0x00, 0x00, 0x00, 0x10, 0x00, 0x0c, 0x00, 0x08, 0x00, 0x04, 0x00,
  0x0e, 0x00, 0x00, 0x00, 0x03, 0x00, 0x00, 0x00, 0x01, 0x00, 0x00, 0x00,
  0x03, 0x00, 0x00, 0x00, 0x01, 0x00, 0x00, 0x00, 0x01, 0x00, 0x00, 0x00,
  0x0d, 0x00, 0x00, 0x00, 0x01, 0x00, 0x00, 0x00, 0x0c, 0x00, 0x00, 0x00,
  0x9e, 0xd3, 0xff, 0xff, 0x10, 0x00, 0x00, 0x00, 0x0e, 0x00, 0x00, 0x00,
  0x1c, 0x00, 0x00, 0x00, 0x40, 0x00, 0x00, 0x00, 0x04, 0x00, 0x00, 0x00,
  0x01, 0x00, 0x00, 0x00, 0x07, 0x00, 0x00, 0x00, 0x01, 0x00, 0x00, 0x00,
  0x10, 0x00, 0x00, 0x00, 0x22, 0x00, 0x00, 0x00, 0x73, 0x65, 0x71, 0x75,
  0x65, 0x6e, 0x74, 0x69, 0x61, 0x6c, 0x2f, 0x6d, 0x61, 0x78, 0x5f, 0x70,
  0x6f, 0x6f, 0x6c, 0x69, 0x6e, 0x67, 0x32, 0x64, 0x5f, 0x31, 0x2f, 0x4d,
  0x61, 0x78, 0x50, 0x6f, 0x6f, 0x6c, 0x00, 0x00, 0xa0, 0xd3, 0xff, 0xff,
  0xc2, 0xfe, 0xff, 0xff, 0x00, 0x00, 0x00, 0x01, 0x24, 0x00, 0x00, 0x00,
  0x18, 0x00, 0x00, 0x00, 0x04, 0x00, 0x00, 0x00, 0xb4, 0xfe, 0xff, 0xff,
  0x01, 0x00, 0x00, 0x00, 0x01, 0x00, 0x00, 0x00, 0x00, 0x00, 0x00, 0x01,
  0x01, 0x00, 0x00, 0x00, 0x0c, 0x00, 0x00, 0x00, 0x03, 0x00, 0x00, 0x00,
  0x0b, 0x00, 0x00, 0x00, 0x07, 0x00, 0x00, 0x00, 0x09, 0x00, 0x00, 0x00,
  0x2e, 0xd4, 0xff, 0xff, 0x10, 0x00, 0x00, 0x00, 0x0d, 0x00, 0x00, 0x00,
  0x1c, 0x00, 0x00, 0x00, 0x2c, 0x00, 0x00, 0x00, 0x04, 0x00, 0x00, 0x00,
  0x01, 0x00, 0x00, 0x00, 0x15, 0x00, 0x00, 0x00, 0x01, 0x00, 0x00, 0x00,
  0x10, 0x00, 0x00, 0x00, 0x0c, 0x00, 0x00, 0x00, 0x74, 0x66, 0x6c, 0x2e,
  0x63, 0x6f, 0x6e, 0x76, 0x5f, 0x32, 0x64, 0x31, 0x00, 0x00, 0x00, 0x00,
  0x74, 0xd4, 0xff, 0xff, 0x00, 0x00, 0x0e, 0x00, 0x1a, 0x00, 0x08, 0x00,
  0x0c, 0x00, 0x10, 0x00, 0x07, 0x00, 0x14, 0x00, 0x0e, 0x00, 0x00, 0x00,
  0x00, 0x00, 0x00, 0x05, 0x01, 0x00, 0x00, 0x00, 0x3c, 0x00, 0x00, 0x00,
  0x30, 0x00, 0x00, 0x00, 0x14, 0x00, 0x00, 0x00, 0x00, 0x00, 0x0e, 0x00,
  0x18, 0x00, 0x17, 0x00, 0x10, 0x00, 0x0c, 0x00, 0x08, 0x00, 0x04, 0x00,
  0x0e, 0x00, 0x00, 0x00, 0x03, 0x00, 0x00, 0x00, 0x03, 0x00, 0x00, 0x00,
  0x03, 0x00, 0x00, 0x00, 0x03, 0x00, 0x00, 0x00, 0x00, 0x00, 0x00, 0x01,
  0x01, 0x00, 0x00, 0x00, 0x0b, 0x00, 0x00, 0x00, 0x01, 0x00, 0x00, 0x00,
  0x0a, 0x00, 0x00, 0x00, 0x46, 0xff, 0xff, 0xff, 0x00, 0x00, 0x00, 0x11,
  0x01, 0x00, 0x00, 0x00, 0xda, 0xd4, 0xff, 0xff, 0x10, 0x00, 0x00, 0x00,
  0x0c, 0x00, 0x00, 0x00, 0x1c, 0x00, 0x00, 0x00, 0x40, 0x00, 0x00, 0x00,
  0x04, 0x00, 0x00, 0x00, 0x01, 0x00, 0x00, 0x00, 0x15, 0x00, 0x00, 0x00,
  0x01, 0x00, 0x00, 0x00, 0x08, 0x00, 0x00, 0x00, 0x20, 0x00, 0x00, 0x00,
  0x73, 0x65, 0x71, 0x75, 0x65, 0x6e, 0x74, 0x69, 0x61, 0x6c, 0x2f, 0x6d,
  0x61, 0x78, 0x5f, 0x70, 0x6f, 0x6f, 0x6c, 0x69, 0x6e, 0x67, 0x32, 0x64,
  0x2f, 0x4d, 0x61, 0x78, 0x50, 0x6f, 0x6f, 0x6c, 0x00, 0x00, 0x00, 0x00,
  0x34, 0xd5, 0xff, 0xff, 0x00, 0x00, 0x0e, 0x00, 0x14, 0x00, 0x00, 0x00,
  0x08, 0x00, 0x0c, 0x00, 0x07, 0x00, 0x10, 0x00, 0x0e, 0x00, 0x00, 0x00,
  0x00, 0x00, 0x00, 0x01, 0x30, 0x00, 0x00, 0x00, 0x24, 0x00, 0x00, 0x00,
  0x10, 0x00, 0x00, 0x00, 0x0c, 0x00, 0x10, 0x00, 0x00, 0x00, 0x04, 0x00,
  0x08, 0x00, 0x0f, 0x00, 0x0c, 0x00, 0x00, 0x00, 0x01, 0x00, 0x00, 0x00,
  0x01, 0x00, 0x00, 0x00, 0x00, 0x00, 0x00, 0x01, 0x01, 0x00, 0x00, 0x00,
  0x0a, 0x00, 0x00, 0x00, 0x03, 0x00, 0x00, 0x00, 0x00, 0x00, 0x00, 0x00,
  0x06, 0x00, 0x00, 0x00, 0x08, 0x00, 0x00, 0x00, 0x00, 0x00, 0x0a, 0x00,
  0x0c, 0x00, 0x07, 0x00, 0x00, 0x00, 0x08, 0x00, 0x0a, 0x00, 0x00, 0x00,
  0x00, 0x00, 0x00, 0x03, 0x01, 0x00, 0x00, 0x00, 0x9e, 0xd5, 0xff, 0xff,
  0x10, 0x00, 0x00, 0x00, 0x0b, 0x00, 0x00, 0x00, 0x1c, 0x00, 0x00, 0x00,
  0x28, 0x00, 0x00, 0x00, 0x04, 0x00, 0x00, 0x00, 0x01, 0x00, 0x00, 0x00,
  0x40, 0x00, 0x00, 0x00, 0x03, 0x00, 0x00, 0x00, 0x08, 0x00, 0x00, 0x00,
  0x0b, 0x00, 0x00, 0x00, 0x74, 0x66, 0x6c, 0x2e, 0x63, 0x6f, 0x6e, 0x76,
  0x5f, 0x32, 0x64, 0x00, 0x88, 0xd5, 0xff, 0xff, 0x7e, 0xd6, 0xff, 0xff,
  0x04, 0x00, 0x00, 0x00, 0x40, 0x00, 0x00, 0x00, 0x42, 0x46, 0x39, 0xbf,
  0xf6, 0xc7, 0xe1, 0xbe, 0xd6, 0xba, 0xba, 0x40, 0x40, 0x08, 0x31, 0x3d,
  0x0a, 0x9f, 0xd7, 0xbf, 0x98, 0x22, 0x6e, 0xbf, 0xe2, 0x69, 0x94, 0xbf,
  0xe2, 0x61, 0x35, 0xbd, 0x60, 0x03, 0x0e, 0xbe, 0xdd, 0x43, 0x99, 0xbf,
  0x60, 0x42, 0xe6, 0xbb, 0x18, 0x83, 0xff, 0xbc, 0xd6, 0x69, 0xde, 0xbe,
  0xa6, 0xa4, 0x4e, 0xbe, 0x03, 0xce, 0xbb, 0x40, 0x67, 0x9c, 0xa3, 0xbe,
  0x26, 0xd6, 0xff, 0xff, 0x10, 0x00, 0x00, 0x00, 0x0a, 0x00, 0x00, 0x00,
  0x10, 0x00, 0x00, 0x00, 0x20, 0x00, 0x00, 0x00, 0x01, 0x00, 0x00, 0x00,
  0x10, 0x00, 0x00, 0x00, 0x0d, 0x00, 0x00, 0x00, 0x73, 0x74, 0x64, 0x2e,
  0x63, 0x6f, 0x6e, 0x73, 0x74, 0x61, 0x6e, 0x74, 0x31, 0x00, 0x00, 0x00,
  0x08, 0xd6, 0xff, 0xff, 0xfe, 0xd6, 0xff, 0xff, 0x04, 0x00, 0x00, 0x00,
  0x20, 0x00, 0x00, 0x00, 0xa1, 0x91, 0x72, 0xbf, 0x41, 0x35, 0x02, 0xc0,
  0xd7, 0xde, 0x31, 0xbf, 0x8f, 0xd0, 0xcf, 0xbf, 0x2c, 0x22, 0x46, 0xbe,
  0x00, 0x23, 0x13, 0xc0, 0x71, 0xf5, 0x5b, 0xbf, 0xcc, 0xf0, 0xb2, 0xbf,
  0x86, 0xd6, 0xff, 0xff, 0x10, 0x00, 0x00, 0x00, 0x09, 0x00, 0x00, 0x00,
  0x10, 0x00, 0x00, 0x00, 0x20, 0x00, 0x00, 0x00, 0x01, 0x00, 0x00, 0x00,
  0x08, 0x00, 0x00, 0x00, 0x0c, 0x00, 0x00, 0x00, 0x73, 0x74, 0x64, 0x2e,
  0x63, 0x6f, 0x6e, 0x73, 0x74, 0x61, 0x6e, 0x74, 0x00, 0x00, 0x00, 0x00,
  0x68, 0xd6, 0xff, 0xff, 0x5e, 0xd7, 0xff, 0xff, 0x04, 0x00, 0x00, 0x00,
  0x00, 0x08, 0x00, 0x00, 0x0c, 0xd2, 0x90, 0xbd, 0x84, 0x79, 0x17, 0xbd,
  0x9e, 0x7e, 0xbe, 0x3c, 0xea, 0x72, 0x01, 0xbf, 0x6a, 0x77, 0x07, 0x3d,
  0x89, 0x82, 0x9a, 0xbe, 0xde, 0xeb, 0x4f, 0xbe, 0xac, 0x40, 0x86, 0xbd,
  0x31, 0x56, 0x58, 0xbd, 0x06, 0x60, 0x70, 0x3e, 0x66, 0xeb, 0xaf, 0xbd,
  0x19, 0x42, 0x5e, 0xbe, 0x29, 0xf3, 0xbe, 0xbd, 0x56, 0x95, 0x00, 0x3f,
  0x89, 0x47, 0x0f, 0xbd, 0xd8, 0xe9, 0x0b, 0x3e, 0x92, 0x1c, 0xb9, 0xbe,
  0x0a, 0xa5, 0xa6, 0xbd, 0xa2, 0xa4, 0xb3, 0x3c, 0x43, 0x07, 0xc1, 0x3e,
  0xe0, 0xa8, 0x36, 0xba, 0x56, 0x20, 0x1f, 0x3e, 0x60, 0x77, 0xed, 0xbd,
  0x65, 0x56, 0x0e, 0x3d, 0xc2, 0xd8, 0xa4, 0xbe, 0x30, 0x82, 0xad, 0xbd,
  0xab, 0xe3, 0x8f, 0xbd, 0x52, 0x4e, 0x23, 0x3e, 0x24, 0x36, 0x96, 0xbb,
  0x09, 0xa1, 0x86, 0xbe, 0xd0, 0x60, 0x62, 0xbe, 0xcc, 0xf3, 0x1e, 0xbe,
  0x54, 0x77, 0x19, 0x3d, 0xac, 0xfe, 0x95, 0xbd, 0xc3, 0x6e, 0x40, 0xbe,
  0x83, 0x67, 0x67, 0xbe, 0x2b, 0x6b, 0x24, 0xbe, 0xaa, 0xd2, 0x8b, 0xbe,
  0xe4, 0x86, 0xe2, 0xbe, 0x32, 0x81, 0xa6, 0xbd, 0xd3, 0x68, 0xe7, 0xbc,
  0xda, 0x2d, 0xe4, 0x3c, 0xfe, 0xae, 0x7b, 0xbe, 0xbd, 0x4a, 0x28, 0x3f,
  0x94, 0xa7, 0xcf, 0xbd, 0x47, 0x05, 0xad, 0x3d, 0x28, 0x97, 0x7a, 0xbe,
  0xfa, 0xe6, 0x9a, 0xbd, 0x72, 0x48, 0x9b, 0xbd, 0x29, 0x0d, 0x54, 0x3d,
  0xee, 0x97, 0x7f, 0xbe, 0x39, 0xa5, 0x5e, 0xbd, 0x54, 0x25, 0xe3, 0xbd,
  0xd6, 0x47, 0xdb, 0x3d, 0xf0, 0xb7, 0x56, 0xbd, 0x93, 0xfe, 0xc3, 0xbd,
  0x2a, 0x73, 0x27, 0xbd, 0xf4, 0x2c, 0xcd, 0x3c, 0x3a, 0xf5, 0xee, 0xbd,
  0xff, 0xa9, 0x0f, 0xbf, 0x85, 0xa9, 0xbd, 0xbe, 0x49, 0x4b, 0x08, 0xbf,
  0x23, 0xe4, 0x04, 0x3d, 0xbc, 0xcf, 0xb5, 0xbd, 0xd8, 0xac, 0xb9, 0xbe,
  0x20, 0xaa, 0x31, 0x3e, 0xe6, 0x06, 0x94, 0x3c, 0xe4, 0xb8, 0xad, 0x3e,
  0x30, 0xcc, 0xa4, 0x3c, 0x82, 0x0c, 0x39, 0x3e, 0xa7, 0xf7, 0x26, 0x3d,
  0xbb, 0x59, 0x9d, 0x3e, 0x0b, 0xfe, 0x4c, 0xbf, 0xcf, 0xd5, 0x79, 0xbd,
  0x03, 0xdc, 0x00, 0x3d, 0xad, 0xde, 0xdb, 0xbd, 0x83, 0x5a, 0x38, 0x3d,
  0x3d, 0xf3, 0xd3, 0xbd, 0x3e, 0x46, 0xba, 0xbe, 0x4a, 0xae, 0xa5, 0xbe,
  0x9d, 0x14, 0x13, 0xbe, 0x3d, 0xe1, 0x77, 0xbd, 0x5e, 0xd2, 0x1a, 0xbd,
  0x73, 0xbb, 0x2f, 0x3e, 0x42, 0xa3, 0xc6, 0x3a, 0x85, 0x91, 0x1f, 0xbe,
  0x1b, 0x37, 0x3a, 0xbe, 0x0c, 0xdd, 0xc7, 0xbe, 0xcb, 0x39, 0xed, 0xbc,
  0x6d, 0x52, 0x89, 0xbd, 0x8d, 0xd8, 0x02, 0xbe, 0x14, 0xe8, 0x38, 0x3e,
  0x2f, 0x65, 0x45, 0xbd, 0x1b, 0x2b, 0x82, 0xbd, 0x19, 0x4f, 0x52, 0xbe,
  0x51, 0x9a, 0x4e, 0xbe, 0x4e, 0xcb, 0xfb, 0xbd, 0xb0, 0xf0, 0xd4, 0xbd,
  0x53, 0x32, 0x1c, 0xbe, 0x5a, 0x5b, 0x16, 0xbe, 0x9c, 0x5f, 0xdf, 0xbd,
  0x53, 0x8f, 0x87, 0xbe, 0x4d, 0xc8, 0x89, 0xbe, 0xa8, 0x63, 0x17, 0xbe,
  0x83, 0x1b, 0x83, 0xbc, 0x88, 0x0d, 0x0f, 0xbd, 0x71, 0x03, 0x26, 0x3c,
  0xd7, 0x9f, 0xe5, 0x3e, 0xb2, 0x5f, 0x9f, 0x3c, 0x9f, 0x30, 0x13, 0xbe,
  0x2d, 0xc0, 0x0e, 0xbe, 0x42, 0xb0, 0xe3, 0x39, 0xb9, 0x49, 0x86, 0x3d,
  0xb3, 0x8a, 0x88, 0xbd, 0x62, 0x96, 0xf5, 0x3b, 0x62, 0x03, 0x18, 0xbe,
  0x7f, 0x67, 0xbb, 0xbc, 0xb1, 0x8b, 0x95, 0xbe, 0xbf, 0xe6, 0x24, 0xbd,
  0xdd, 0x82, 0x2d, 0x3d, 0xf6, 0xee, 0x33, 0x3d, 0xec, 0x01, 0x80, 0xbd,
  0xb0, 0x8b, 0xd6, 0x3d, 0x35, 0x40, 0xf8, 0xbc, 0x55, 0x98, 0x87, 0x3d,
  0xf3, 0xfb, 0xb8, 0x3e, 0xcc, 0x94, 0x48, 0x3d, 0xc0, 0xf0, 0x80, 0x3d,
  0x8d, 0x4a, 0x0b, 0xbe, 0xa0, 0xb2, 0x99, 0xbe, 0x64, 0x7b, 0x17, 0xbf,
  0x64, 0xa1, 0xd8, 0x3e, 0xf3, 0x67, 0x22, 0xbf, 0x96, 0xea, 0x56, 0x3e,
  0xa4, 0x82, 0x36, 0xbf, 0x72, 0x49, 0x3d, 0xbe, 0x17, 0x7c, 0x5c, 0x3e,
  0x22, 0xc9, 0x96, 0xbe, 0xaf, 0xbf, 0x45, 0xbf, 0x4b, 0x0b, 0x7e, 0xbe,
  0x58, 0x1a, 0xb7, 0xbe, 0x38, 0x44, 0xa3, 0x3e, 0x9b, 0xd7, 0x4b, 0x3e,
  0x8b, 0xfe, 0x55, 0xbe, 0x61, 0x8d, 0x5b, 0x3c, 0x6f, 0x64, 0x1c, 0xbe,
  0x51, 0x00, 0x86, 0x3d, 0x5d, 0x4a, 0xb4, 0xbd, 0x83, 0x98, 0x1b, 0x3e,
  0x7b, 0xf4, 0xaf, 0x3d, 0x5d, 0x59, 0xda, 0x3e, 0xcb, 0xc1, 0x5e, 0xbe,
  0x31, 0xf0, 0x37, 0xbd, 0x36, 0x16, 0x1f, 0xbe, 0x18, 0xe9, 0x36, 0x3e,
  0xff, 0x85, 0x9e, 0x3c, 0x1e, 0x6c, 0x52, 0x3d, 0x2b, 0x17, 0xc9, 0xbd,
  0xaa, 0xd0, 0x76, 0xbe, 0x15, 0xab, 0xcb, 0xbd, 0xb4, 0xb8, 0x1c, 0xbc,
  0x1e, 0x85, 0x29, 0xbe, 0x90, 0x1d, 0x16, 0xbf, 0x3e, 0xa8, 0x2d, 0x3d,
  0x3a, 0xc7, 0x9d, 0xbe, 0x53, 0x9a, 0x83, 0x3c, 0xe1, 0xf8, 0x64, 0xbd,
  0xb0, 0xdf, 0xa8, 0xbd, 0x2f, 0xa2, 0xfc, 0x3d, 0xb9, 0xd3, 0x9c, 0xbe,
  0x89, 0xe6, 0x87, 0xbf, 0x06, 0x06, 0xa8, 0x3c, 0x37, 0x3d, 0x38, 0xbf,
  0x61, 0xfe, 0x9d, 0x3e, 0x89, 0xfb, 0x2d, 0x3e, 0xcf, 0xa7, 0xf8, 0xbd,
  0x91, 0x72, 0xd2, 0x3d, 0xd6, 0x6f, 0x27, 0xbe, 0x29, 0x4c, 0x7e, 0xbe,
  0x29, 0xb4, 0xf6, 0xbe, 0x37, 0x97, 0x5b, 0x3e, 0x65, 0x8d, 0x7e, 0x3e,
  0xe2, 0x12, 0x1d, 0x3e, 0x1c, 0x5b, 0x0f, 0xbe, 0x14, 0xbb, 0x3e, 0xbe,
  0xb3, 0xd5, 0x84, 0xbd, 0x65, 0x82, 0x5d, 0x3e, 0xe9, 0x48, 0x31, 0xbc,
  0xd5, 0xfc, 0x1d, 0x3e, 0xc5, 0x95, 0x17, 0x3e, 0xc5, 0xcb, 0x42, 0x3e,
  0xb9, 0x04, 0x00, 0xbe, 0x4f, 0x9a, 0x28, 0x3a, 0x1a, 0x9c, 0x2e, 0xbe,
  0xf9, 0x19, 0x55, 0xbe, 0x91, 0x7c, 0x10, 0x3f, 0xdb, 0x70, 0x0d, 0xbe,
  0x5c, 0xf8, 0x05, 0x3e, 0xcc, 0xc1, 0xb4, 0xbe, 0x1d, 0x09, 0x8f, 0xbd,
  0xc8, 0x04, 0x3b, 0x3d, 0x24, 0x6c, 0x56, 0xbe, 0xe5, 0x00, 0xd4, 0xbe,
  0xa9, 0x75, 0xb0, 0x3e, 0x77, 0x6a, 0xa3, 0xbe, 0xfa, 0x8c, 0x9b, 0x3c,
  0x29, 0x48, 0x56, 0x3e, 0x4e, 0x61, 0x77, 0xbd, 0xb0, 0x7a, 0xdf, 0xbc,
  0x5d, 0x6e, 0x18, 0xbe, 0x71, 0x05, 0xa6, 0xbe, 0x35, 0x7b, 0x40, 0xbe,
  0x9f, 0xad, 0x60, 0xbe, 0x06, 0xaa, 0x47, 0x3e, 0xfd, 0x19, 0x9f, 0x3d,
  0x0d, 0xd9, 0x06, 0xbe, 0x35, 0x53, 0x06, 0xbd, 0x7a, 0xd9, 0xf4, 0xbd,
  0x7a, 0xab, 0x7a, 0x3e, 0x8f, 0xd8, 0xe6, 0xbc, 0xd6, 0x5e, 0x9d, 0x3e,
  0x31, 0x42, 0x4e, 0x3e, 0x76, 0x36, 0x7a, 0x3e, 0x3a, 0x34, 0xe4, 0xbd,
  0xb8, 0xfa, 0xfd, 0xbe, 0xfb, 0xe6, 0x08, 0xbc, 0x40, 0x4d, 0x87, 0xbd,
  0xdb, 0x03, 0xec, 0xbd, 0x16, 0x6c, 0xb3, 0xbd, 0x18, 0xbf, 0x0f, 0xbd,
  0xfa, 0x72, 0x39, 0xbe, 0x99, 0x47, 0x06, 0xbf, 0x42, 0xce, 0xb0, 0xbe,
  0x90, 0x28, 0xc1, 0x3d, 0x24, 0x75, 0x98, 0x3d, 0x1e, 0xa2, 0x17, 0x3e,
  0x3e, 0x08, 0x13, 0x3d, 0x8d, 0xee, 0xee, 0xbd, 0x37, 0x6a, 0x5a, 0xbd,
  0x7e, 0x92, 0xac, 0xbe, 0x4f, 0xa1, 0xf1, 0xbe, 0x6b, 0xfa, 0x1f, 0xbe,
  0xd1, 0xe7, 0xf9, 0x3d, 0xdd, 0x8e, 0x88, 0xbe, 0x99, 0xc8, 0xf0, 0xbd,
  0xe1, 0x52, 0x86, 0xbe, 0x23, 0xb3, 0xec, 0xbd, 0x1a, 0xbc, 0x7c, 0xbd,
  0xe9, 0x4a, 0x4b, 0xbe, 0x97, 0x85, 0x2d, 0xbe, 0xfb, 0x2c, 0x6b, 0x3d,
  0xa6, 0x84, 0x03, 0xbe, 0xff, 0x7d, 0x94, 0xbe, 0x05, 0x66, 0xa6, 0xbc,
  0x29, 0x6d, 0x19, 0xbe, 0xd4, 0x09, 0xb9, 0xbc, 0x09, 0x34, 0x7b, 0x3e,
  0x02, 0x51, 0x08, 0x3e, 0xb0, 0xce, 0x24, 0xbe, 0x26, 0x8d, 0xd0, 0xbe,
  0xec, 0xe5, 0x15, 0xbf, 0xa9, 0xce, 0x0d, 0x3d, 0x5d, 0x1b, 0x41, 0xba,
  0x3d, 0xf9, 0x18, 0xbe, 0x46, 0x67, 0xb6, 0xbd, 0xda, 0x11, 0x8c, 0xbc,
  0xcc, 0xc4, 0x1b, 0xbf, 0xfc, 0x8a, 0xf0, 0xbd, 0xa0, 0xa4, 0x1c, 0xbf,
  0x9a, 0xc7, 0x46, 0x3e, 0xf0, 0x0e, 0x7b, 0xbe, 0x56, 0x2d, 0x07, 0xbe,
  0xaf, 0xc3, 0x2c, 0xbe, 0x9c, 0x2c, 0xb9, 0xbc, 0x75, 0x58, 0x42, 0xbf,
  0xef, 0xef, 0x27, 0xbe, 0xc3, 0x16, 0x23, 0xbf, 0x89, 0x91, 0x5c, 0xbe,
  0x3b, 0x4e, 0xf3, 0x3e, 0x92, 0x04, 0xdf, 0xbd, 0x07, 0xa1, 0xcf, 0xbe,
  0x40, 0xbf, 0x79, 0x3d, 0xe8, 0x34, 0xc1, 0xbe, 0x08, 0x86, 0xa0, 0x3c,
  0x52, 0x24, 0x90, 0xbe, 0x09, 0xca, 0x0c, 0x3e, 0x7c, 0x2c, 0xe5, 0xbd,
  0x90, 0xcb, 0x99, 0xbe, 0x88, 0x01, 0x05, 0xbe, 0x9d, 0x59, 0xdd, 0xbd,
  0x6e, 0x2c, 0xde, 0xbd, 0x2c, 0x29, 0x9d, 0x3c, 0xcc, 0xce, 0x13, 0xbd,
  0xf3, 0x55, 0xe8, 0xbe, 0x6e, 0x3e, 0x5e, 0xbe, 0xee, 0xf8, 0x09, 0xbe,
  0x93, 0xde, 0xad, 0xbc, 0x4f, 0x46, 0x8a, 0xbd, 0x24, 0xda, 0x08, 0xbe,
  0x69, 0x44, 0x79, 0xbe, 0x0d, 0x7f, 0xa5, 0xbd, 0xd8, 0x98, 0xb7, 0xbe,
  0x68, 0xe6, 0x14, 0xbe, 0xe4, 0x30, 0xfa, 0xbd, 0x6f, 0x86, 0x43, 0xbd,
  0xc6, 0xa2, 0x20, 0xbd, 0x1a, 0xe9, 0x96, 0xbd, 0x6e, 0x86, 0x2d, 0xbe,
  0x22, 0x68, 0x70, 0xbd, 0xf7, 0x08, 0x21, 0x3e, 0xf8, 0x0e, 0x82, 0x3e,
  0x6d, 0x3e, 0xb4, 0xbd, 0x81, 0x57, 0xbe, 0xbd, 0xd5, 0x8c, 0xa5, 0x3e,
  0xb9, 0x33, 0xf9, 0x3d, 0xc5, 0x86, 0xe9, 0x3d, 0x0a, 0x94, 0xd1, 0x3d,
  0x39, 0x57, 0xf6, 0x3e, 0x7d, 0x7b, 0x54, 0x3e, 0xa2, 0x12, 0xce, 0x3d,
  0x6e, 0xaa, 0xbe, 0xbb, 0x26, 0x13, 0xea, 0xbe, 0x2a, 0x2c, 0x2a, 0xbe,
  0xd1, 0x7c, 0xbd, 0xbe, 0x22, 0xea, 0x15, 0xbe, 0xab, 0xbd, 0x66, 0xbe,
  0xcf, 0x79, 0x38, 0xbe, 0x8f, 0xd0, 0xc1, 0xbe, 0xd9, 0xa1, 0x20, 0xbe,
  0x7c, 0xf1, 0x04, 0x3d, 0xd4, 0x37, 0x0a, 0x3d, 0xeb, 0x36, 0x94, 0xbe,
  0x75, 0xf8, 0xeb, 0x3d, 0x87, 0x18, 0xac, 0xbd, 0x69, 0x15, 0xaf, 0x3d,
  0x85, 0x10, 0x2c, 0xbe, 0x66, 0x9b, 0xbf, 0xbe, 0x5a, 0xfd, 0x77, 0x3c,
  0xb8, 0x1e, 0x25, 0x3d, 0x84, 0x97, 0x90, 0xbe, 0x8f, 0x62, 0x8e, 0x3d,
  0xd6, 0x20, 0xd5, 0xbd, 0xc4, 0xe0, 0x34, 0xbd, 0x6b, 0x08, 0xb3, 0xbe,
  0x43, 0x48, 0x8c, 0xbe, 0xcf, 0x87, 0x9e, 0x3d, 0x1b, 0xd3, 0x38, 0x3d,
  0xa0, 0xa1, 0x5f, 0xbd, 0x76, 0xd8, 0xf7, 0x3d, 0x89, 0x39, 0x0d, 0xbe,
  0x62, 0x22, 0xa2, 0xbc, 0x67, 0x34, 0x67, 0xbe, 0x25, 0x4f, 0xfe, 0xbc,
  0xce, 0x8b, 0x01, 0x3f, 0x6f, 0xca, 0x62, 0xbd, 0xcb, 0x5a, 0xf5, 0xbc,
  0x98, 0xaf, 0xac, 0xbd, 0x9a, 0x5c, 0xeb, 0xbc, 0xca, 0x99, 0xd3, 0x37,
  0xd5, 0xc9, 0x92, 0xbd, 0x31, 0x72, 0x35, 0xbd, 0x21, 0x45, 0x01, 0xbd,
  0xa9, 0xf7, 0x93, 0xbd, 0xfc, 0x4c, 0x85, 0x39, 0x78, 0xb1, 0x3f, 0xbd,
  0x0f, 0xaa, 0xb7, 0xbc, 0x96, 0x5a, 0xf8, 0xbc, 0x4c, 0x9c, 0x6f, 0xbd,
  0x6e, 0xe5, 0x1b, 0xbd, 0xd6, 0xdd, 0x81, 0xbd, 0x88, 0x84, 0x04, 0xbd,
  0x29, 0xf6, 0x17, 0x3e, 0xe1, 0x5b, 0x55, 0xbd, 0xbd, 0xa4, 0xcf, 0xbd,
  0xae, 0x2e, 0xdd, 0xbd, 0x4e, 0x8e, 0xeb, 0xbc, 0x90, 0x22, 0x63, 0x3a,
  0x9f, 0x92, 0xa7, 0xbd, 0xd5, 0x15, 0x73, 0xbd, 0x15, 0x70, 0xe4, 0x3d,
  0x71, 0x33, 0x9a, 0xbd, 0xca, 0xfe, 0x28, 0xbe, 0x58, 0xf9, 0x9c, 0xbe,
  0xfa, 0x2d, 0x36, 0x3d, 0x74, 0x96, 0xa2, 0x3c, 0x09, 0xac, 0xc5, 0xbd,
  0x1e, 0xd8, 0xc8, 0xbd, 0x8a, 0x5d, 0x29, 0xbf, 0x80, 0xa9, 0x16, 0x3e,
  0x36, 0xb2, 0x1c, 0xbe, 0x25, 0xef, 0xbe, 0xbe, 0x0e, 0xa7, 0x3b, 0xbd,
  0xd1, 0x2c, 0xe5, 0x3c, 0xaa, 0xa5, 0x58, 0xbd, 0x63, 0xad, 0x25, 0xbe,
  0xbc, 0xb4, 0x20, 0xbe, 0x93, 0xf9, 0xad, 0x3d, 0x12, 0x96, 0x99, 0xbe,
  0xcd, 0xcf, 0xe9, 0xbe, 0xcc, 0xa8, 0xa4, 0xbd, 0x57, 0xf2, 0x2e, 0x3d,
  0x04, 0x72, 0x40, 0x3d, 0x02, 0xcb, 0x85, 0xbe, 0x97, 0x38, 0xa3, 0x3e,
  0x65, 0x91, 0xb8, 0xbd, 0xa1, 0x8d, 0x0b, 0x3e, 0xe0, 0xa3, 0x94, 0xbe,
  0xbe, 0x47, 0xad, 0xbd, 0xf3, 0x85, 0x46, 0xbd, 0xa6, 0x73, 0xb1, 0x3c,
  0xec, 0x30, 0x84, 0xbe, 0x63, 0x85, 0x7f, 0x3e, 0x81, 0x21, 0xda, 0x3b,
  0x26, 0xf2, 0x2f, 0x3e, 0x2c, 0x9d, 0x7f, 0x3e, 0xfd, 0xa0, 0x0f, 0xbe,
  0xe3, 0xed, 0x13, 0xbe, 0x5f, 0x4c, 0xf5, 0x3e, 0xd1, 0x71, 0x8a, 0xbe,
  0xd3, 0x2d, 0x3e, 0xbe, 0xf5, 0x72, 0x87, 0xbe, 0x66, 0xaf, 0xf0, 0xbc,
  0x93, 0xe2, 0x84, 0x3e, 0xcf, 0x3b, 0x0c, 0xbe, 0x19, 0x3a, 0xaf, 0xbe,
  0x03, 0xea, 0x4b, 0x3d, 0x8f, 0xd3, 0x65, 0xbe, 0xe6, 0x78, 0x37, 0x3e,
  0xd5, 0x82, 0x6b, 0xbe, 0x12, 0xaa, 0xf5, 0x3b, 0xe4, 0xe5, 0x3c, 0x3b,
  0x3d, 0x2b, 0x06, 0xbe, 0x28, 0x69, 0xae, 0xbe, 0x8f, 0x73, 0x33, 0xbd,
  0xd8, 0xee, 0x52, 0xbe, 0xd2, 0x21, 0x8e, 0xbc, 0xe3, 0x9f, 0x39, 0xbe,
  0xf2, 0x4a, 0x29, 0x3d, 0xe7, 0x32, 0x10, 0x3e, 0x24, 0xde, 0xb7, 0xbd,
  0x24, 0x89, 0x7a, 0xbe, 0xb0, 0xa6, 0x9e, 0x3d, 0x14, 0x69, 0x12, 0x3e,
  0x3b, 0xd5, 0xaf, 0x3e, 0x03, 0x43, 0xf1, 0xbd, 0x2e, 0x9f, 0x8a, 0x3e,
  0x42, 0xa3, 0xbc, 0xbd, 0xa3, 0x17, 0xb9, 0x3c, 0x8e, 0x1e, 0xca, 0xbc,
  0x92, 0xde, 0xb3, 0xbc, 0x5e, 0x97, 0x40, 0x3e, 0xf3, 0xd7, 0x1d, 0x3d,
  0xbb, 0xec, 0x3b, 0x3e, 0xb2, 0xf6, 0xc1, 0xbc, 0x77, 0xae, 0x53, 0xbd,
  0x91, 0xf9, 0x46, 0x3e, 0x8b, 0xd3, 0x74, 0xbd, 0xe9, 0xb4, 0x29, 0x3d,
  0x8f, 0x40, 0x3e, 0x3d, 0x03, 0x04, 0x22, 0x3e, 0xf2, 0xbe, 0xf4, 0x3c,
  0x77, 0xde, 0xdd, 0x3d, 0xf0, 0x7f, 0x8c, 0xbe, 0x6d, 0xc8, 0x3d, 0xbe,
  0xb7, 0x19, 0x3c, 0xbe, 0x7b, 0x13, 0x20, 0xbd, 0x26, 0x3f, 0xb0, 0xbd,
  0x85, 0xa7, 0x97, 0x3e, 0xb3, 0x90, 0xd1, 0xbd, 0x6d, 0x84, 0x38, 0xbe,
  0x5e, 0x12, 0x0f, 0xbf, 0x67, 0xe7, 0x91, 0xbe, 0x51, 0xa2, 0x42, 0xbd,
  0xea, 0xff, 0xdc, 0xbd, 0xd6, 0x5e, 0x28, 0xbe, 0x3c, 0x16, 0x8a, 0x3e,
  0x5d, 0xad, 0x25, 0xbe, 0x5c, 0x81, 0x45, 0xbe, 0xd5, 0x71, 0x39, 0xbe,
  0x69, 0xd7, 0x34, 0xbe, 0x38, 0xb1, 0x5f, 0xbd, 0xf2, 0x18, 0x47, 0xbd,
  0xce, 0xf4, 0xde, 0xbd, 0xc0, 0x02, 0x09, 0x3f, 0xda, 0xb1, 0x0d, 0xbe,
  0xaf, 0x8e, 0xf8, 0x3e, 0xe6, 0x2d, 0xc4, 0xbc, 0x1d, 0xc4, 0xa5, 0xbd,
  0x2e, 0x73, 0x9f, 0x3d, 0xaa, 0xb7, 0x73, 0xbd, 0xfa, 0x38, 0x27, 0xbd,
  0x29, 0x84, 0x8c, 0x3e, 0x1c, 0x22, 0xf0, 0xbd, 0x5d, 0xd6, 0x2a, 0xbd,
  0xf0, 0xed, 0x74, 0x3d, 0x32, 0xc6, 0x94, 0x3b, 0x40, 0xc9, 0xed, 0xbd,
  0x32, 0x1f, 0x3b, 0xbe, 0x70, 0x74, 0x94, 0x3b, 0x42, 0xc0, 0x8a, 0xbb,
  0x77, 0x0c, 0x0a, 0xbc, 0xcb, 0x34, 0x05, 0x3e, 0x5f, 0x38, 0x23, 0x3e,
  0x7b, 0x3f, 0xc3, 0xbd, 0xe8, 0xbc, 0xda, 0xbd, 0x4c, 0xe2, 0x7f, 0xbe,
  0x46, 0x6c, 0x88, 0x3d, 0xfb, 0x47, 0xf2, 0x3d, 0xa9, 0xb5, 0xde, 0xbd,
  0x72, 0x76, 0x47, 0x3e, 0x23, 0xbc, 0x0a, 0xbd, 0x04, 0xa2, 0xf7, 0xbd,
  0xc6, 0xde, 0xff, 0xff, 0x10, 0x00, 0x00, 0x00, 0x08, 0x00, 0x00, 0x00,
  0x1c, 0x00, 0x00, 0x00, 0x38, 0x00, 0x00, 0x00, 0x04, 0x00, 0x00, 0x00,
  0x10, 0x00, 0x00, 0x00, 0x04, 0x00, 0x00, 0x00, 0x01, 0x00, 0x00, 0x00,
  0x08, 0x00, 0x00, 0x00, 0x1a, 0x00, 0x00, 0x00, 0x73, 0x65, 0x71, 0x75,
  0x65, 0x6e, 0x74, 0x69, 0x61, 0x6c, 0x2f, 0x63, 0x6f, 0x6e, 0x76, 0x32,
  0x64, 0x5f, 0x31, 0x2f, 0x43, 0x6f, 0x6e, 0x76, 0x32, 0x44, 0x00, 0x00,
  0xc0, 0xde, 0xff, 0xff, 0xb6, 0xdf, 0xff, 0xff, 0x04, 0x00, 0x00, 0x00,
  0x80, 0x01, 0x00, 0x00, 0x05, 0x8c, 0x38, 0x3f, 0x7b, 0x28, 0xe9, 0xbd,
  0xfb, 0xea, 0x28, 0xbd, 0x00, 0x81, 0xdb, 0x3e, 0x1c, 0xa0, 0x1e, 0x3e,
  0x7b, 0x3a, 0x9f, 0xbc, 0x9e, 0x5e, 0x17, 0x3e, 0x42, 0xca, 0xaf, 0x3d,
  0x94, 0xb5, 0x66, 0xbd, 0x62, 0xfd, 0x0d, 0xbd, 0x69, 0xa2, 0x72, 0xbb,
  0x8c, 0x07, 0xbb, 0xb8, 0x92, 0x8b, 0x8a, 0x3e, 0x54, 0xe4, 0x4f, 0xbe,
  0xc5, 0x3a, 0x28, 0x3c, 0x8f, 0x7d, 0x0c, 0x3e, 0x35, 0xad, 0x58, 0xbe,
  0x74, 0xea, 0x31, 0x3d, 0x92, 0x5e, 0xf1, 0xbc, 0x1d, 0x55, 0x99, 0xbd,
  0x3b, 0x26, 0x1f, 0x3e, 0x47, 0x53, 0xca, 0xbd, 0xcc, 0xb0, 0x6c, 0x3d,
  0xab, 0xb8, 0x43, 0xbd, 0x32, 0x50, 0x2c, 0xbe, 0xd6, 0xe3, 0x40, 0xbe,
  0x37, 0xff, 0xb9, 0xbd, 0xa2, 0xcd, 0x23, 0xbd, 0xd5, 0x62, 0x70, 0x3d,
  0x5c, 0x1a, 0xc4, 0xbd, 0x57, 0x82, 0x0d, 0x3e, 0xd5, 0xae, 0x24, 0xbe,
  0x67, 0xa3, 0x1c, 0x3d, 0x71, 0x81, 0x19, 0xbe, 0xc0, 0x38, 0x51, 0xbd,
  0xb9, 0x8c, 0x92, 0x3d, 0x86, 0xbd, 0xce, 0xbe, 0x78, 0xd8, 0x76, 0xbd,
  0xfb, 0xcd, 0xd0, 0x3d, 0x14, 0xc1, 0xed, 0xbe, 0xc4, 0x8a, 0x65, 0xbe,
  0x84, 0xe3, 0x95, 0xbc, 0xb9, 0x8f, 0xe6, 0x3e, 0x3c, 0xe9, 0xe4, 0x3d,
  0xf6, 0xbf, 0xcb, 0xbd, 0x69, 0x97, 0xd3, 0x3e, 0x9c, 0x49, 0x35, 0x3e,
  0xe6, 0x61, 0x79, 0x3b, 0x74, 0xed, 0xc6, 0x3d, 0x17, 0xe2, 0xda, 0x3c,
  0x05, 0xf3, 0x8b, 0xbb, 0x72, 0x66, 0xfd, 0xbc, 0x0c, 0xe9, 0xa8, 0xbe,
  0x7a, 0x3d, 0x8a, 0xbd, 0x9a, 0xfe, 0xfe, 0x3b, 0xee, 0x16, 0x1e, 0xbd,
  0x71, 0x9e, 0xdc, 0x3b, 0x3d, 0xa1, 0xd1, 0xbc, 0xe1, 0xb3, 0x12, 0xbe,
  0xd1, 0x4d, 0xee, 0xbc, 0x66, 0x68, 0x66, 0x3e, 0xa7, 0x0f, 0x6f, 0xbd,
  0xee, 0x40, 0xe8, 0xbc, 0x29, 0xc6, 0x1b, 0x3f, 0xff, 0x0e, 0xb0, 0x3d,
  0xcb, 0x7d, 0x63, 0xbe, 0xe6, 0x6a, 0x39, 0xbd, 0xdc, 0x73, 0x4f, 0xbe,
  0x96, 0xa0, 0x53, 0x3e, 0x87, 0xd7, 0x22, 0xbf, 0x4e, 0xb7, 0xd6, 0x3d,
  0xfd, 0x88, 0xb4, 0x3d, 0xa1, 0xfc, 0x9a, 0x3e, 0x81, 0xae, 0xdd, 0x3d,
  0x67, 0x60, 0xdb, 0x3d, 0x23, 0xdb, 0xea, 0x3d, 0x96, 0x73, 0x78, 0x3e,
  0x75, 0x53, 0x8c, 0x3b, 0x91, 0xca, 0x08, 0xbe, 0x17, 0x55, 0xf4, 0xbd,
  0x98, 0xd2, 0xcb, 0xbd, 0x46, 0x0c, 0x5f, 0xbe, 0x51, 0x33, 0x8f, 0xbe,
  0xfe, 0xc1, 0x1d, 0xbe, 0xbd, 0xba, 0x8f, 0x3e, 0x53, 0x35, 0x38, 0x3e,
  0x26, 0x62, 0x74, 0xbe, 0x16, 0xac, 0x02, 0x3e, 0x17, 0x1f, 0x66, 0x3e,
  0x1f, 0x1a, 0x80, 0xbe, 0x05, 0x87, 0x48, 0x3c, 0xda, 0x0f, 0x76, 0xbe,
  0x2f, 0x8e, 0x5f, 0x3d, 0xc1, 0xdc, 0x50, 0x3e, 0xc4, 0xa9, 0x4b, 0xbd,
  0xce, 0xc4, 0x1b, 0xbc, 0x9e, 0xe0, 0xff, 0xff, 0x10, 0x00, 0x00, 0x00,
  0x07, 0x00, 0x00, 0x00, 0x1c, 0x00, 0x00, 0x00, 0x38, 0x00, 0x00, 0x00,
  0x04, 0x00, 0x00, 0x00, 0x08, 0x00, 0x00, 0x00, 0x04, 0x00, 0x00, 0x00,
  0x03, 0x00, 0x00, 0x00, 0x01, 0x00, 0x00, 0x00, 0x18, 0x00, 0x00, 0x00,
  0x73, 0x65, 0x71, 0x75, 0x65, 0x6e, 0x74, 0x69, 0x61, 0x6c, 0x2f, 0x63,
  0x6f, 0x6e, 0x76, 0x32, 0x64, 0x2f, 0x43, 0x6f, 0x6e, 0x76, 0x32, 0x44,
  0x00, 0x00, 0x00, 0x00, 0x98, 0xe0, 0xff, 0xff, 0x8e, 0xe1, 0xff, 0xff,
  0x04, 0x00, 0x00, 0x00, 0x00, 0x01, 0x00, 0x00, 0xe8, 0x56, 0x1c, 0xbe,
  0x94, 0x61, 0xf6, 0xbb, 0xc1, 0x84, 0xa5, 0xbe, 0xe0, 0x2b, 0x82, 0x3d,
  0xa3, 0x47, 0xf0, 0xbc, 0xbd, 0xc0, 0xbe, 0xbe, 0xaa, 0x4c, 0x69, 0x3d,
  0xf9, 0x3f, 0x0a, 0xbe, 0x18, 0x4a, 0xe2, 0x3d, 0x51, 0xb1, 0x06, 0xbd,
  0x68, 0xca, 0x5a, 0x3e, 0xb3, 0xdf, 0x6c, 0x3d, 0xa2, 0x63, 0x90, 0xbe,
  0x44, 0xf6, 0xee, 0x3d, 0x46, 0xb7, 0x2f, 0xbe, 0x34, 0x9c, 0x7d, 0x3e,
  0xda, 0x27, 0x2a, 0xbe, 0x68, 0xa4, 0x96, 0x3c, 0xaa, 0x29, 0xc3, 0xbe,
  0xfe, 0x24, 0x0f, 0x3e, 0x1c, 0xa3, 0x3c, 0x3d, 0xca, 0x36, 0xff, 0xbd,
  0x76, 0x77, 0x11, 0x3e, 0xb8, 0x89, 0xdf, 0xbd, 0xe8, 0x2c, 0x00, 0x3e,
  0x69, 0xe1, 0x7c, 0x3d, 0x46, 0xe8, 0x24, 0x3e, 0xcf, 0x51, 0xe4, 0xbd,
  0x1a, 0xfe, 0xb3, 0x3d, 0x57, 0x96, 0xe9, 0x3d, 0x41, 0x1b, 0x66, 0xbe,
  0xfe, 0xcb, 0x79, 0x3e, 0xc2, 0xfe, 0xc8, 0xbe, 0xe1, 0xb1, 0x5d, 0x3c,
  0x5c, 0x73, 0xe9, 0xbe, 0xc1, 0x15, 0x89, 0xbd, 0x43, 0xc1, 0xc9, 0xbe,
  0xa5, 0x60, 0x8b, 0xbe, 0xf0, 0x67, 0xfc, 0xbc, 0x4c, 0x38, 0xd4, 0xbd,
  0xc2, 0x22, 0xac, 0xbe, 0x35, 0x33, 0xbc, 0xbe, 0x09, 0x7d, 0x38, 0x3e,
  0xf0, 0x20, 0x17, 0x3e, 0x75, 0xb9, 0xc8, 0xbe, 0x13, 0x7a, 0x9c, 0xbe,
  0xa2, 0x2b, 0x00, 0xbf, 0x67, 0x3e, 0xb6, 0x3d, 0x01, 0xc5, 0xf3, 0xbd,
  0x65, 0xdb, 0xe0, 0xbd, 0x52, 0x42, 0xb1, 0xbe, 0x18, 0x06, 0xdc, 0x3d,
  0x65, 0xa4, 0xeb, 0x3d, 0x97, 0x51, 0xdd, 0xbd, 0x3f, 0xc3, 0xef, 0x3d,
  0xa1, 0xa2, 0x38, 0xbe, 0xa7, 0x7e, 0x7e, 0x3d, 0x2a, 0x5b, 0xbb, 0x3c,
  0x54, 0x8f, 0xbb, 0x3d, 0x64, 0x8a, 0x8d, 0x3d, 0xc0, 0x65, 0x5e, 0x3c,
  0xff, 0x94, 0x21, 0x3e, 0x3f, 0xc8, 0xb0, 0xbe, 0x9e, 0xf1, 0x2c, 0x3e,
  0xf6, 0xe1, 0xff, 0xff, 0x10, 0x00, 0x00, 0x00, 0x06, 0x00, 0x00, 0x00,
  0x14, 0x00, 0x00, 0x00, 0x30, 0x00, 0x00, 0x00, 0x02, 0x00, 0x00, 0x00,
  0x04, 0x00, 0x00, 0x00, 0x10, 0x00, 0x00, 0x00, 0x19, 0x00, 0x00, 0x00,
  0x73, 0x65, 0x71, 0x75, 0x65, 0x6e, 0x74, 0x69, 0x61, 0x6c, 0x2f, 0x64,
  0x65, 0x6e, 0x73, 0x65, 0x5f, 0x31, 0x2f, 0x4d, 0x61, 0x74, 0x4d, 0x75,
  0x6c, 0x00, 0x00, 0x00, 0xe8, 0xe1, 0xff, 0xff, 0xde, 0xe2, 0xff, 0xff,
  0x04, 0x00, 0x00, 0x00, 0x00, 0x1c, 0x00, 0x00, 0xd3, 0x22, 0x8b, 0xbe,
  0x95, 0x69, 0xd8, 0xbc, 0x2c, 0x92, 0x02, 0xbd, 0x7c, 0xda, 0x01, 0xbf,
  0x97, 0x4a, 0x36, 0xbd, 0x8a, 0xc1, 0x22, 0x3d, 0x7c, 0xb3, 0x6b, 0xbd,
  0x81, 0xb8, 0x2b, 0x3e, 0xef, 0x0f, 0x33, 0xbe, 0x52, 0x48, 0x24, 0xbe,
  0xf4, 0x82, 0xa7, 0x3e, 0x8f, 0x13, 0x35, 0xbe, 0x2a, 0x53, 0xdc, 0xbd,
  0x86, 0x63, 0xb6, 0xbe, 0xc2, 0x5a, 0x89, 0xbe, 0x90, 0x0b, 0xa3, 0xbe,
  0xbe, 0x88, 0x8a, 0x3d, 0xca, 0xfd, 0xc1, 0x3d, 0xc4, 0x3d, 0x7f, 0xbe,
  0xc8, 0x0c, 0x91, 0xbc, 0xdb, 0xe9, 0x28, 0xbb, 0xfd, 0x70, 0xf7, 0xbd,
  0x97, 0xf1, 0x48, 0xbe, 0xf1, 0xdc, 0x9d, 0x3e, 0x2d, 0xf4, 0x48, 0x3e,
  0x31, 0xd8, 0xc7, 0x3d, 0x1c, 0xfe, 0xf4, 0x3e, 0x87, 0x69, 0x2c, 0xbe,
  0xb4, 0xe6, 0x2b, 0xbd, 0x5e, 0x43, 0x45, 0xbe, 0x95, 0xf8, 0xbb, 0xbe,
  0xca, 0xf5, 0xcb, 0xbd, 0x13, 0x39, 0x4e, 0x3d, 0xa5, 0x12, 0x2a, 0x3d,
  0xd1, 0x42, 0x76, 0x3d, 0xaa, 0x3a, 0x03, 0x3d, 0x85, 0x18, 0x5c, 0x3e,
  0x17, 0x1b, 0x97, 0xbd, 0xd5, 0xd1, 0x9f, 0xbc, 0xf5, 0xc9, 0xef, 0x3d,
  0xbe, 0x63, 0xdd, 0x3d, 0x0f, 0x18, 0x94, 0x3d, 0xe7, 0xc4, 0x6e, 0x3e,
  0x44, 0x38, 0x7e, 0xbd, 0x17, 0xf5, 0x0f, 0x3d, 0x03, 0xfb, 0x6a, 0xbe,
  0x9c, 0x49, 0xf5, 0xbd, 0x78, 0xb2, 0x37, 0xbe, 0xce, 0xa4, 0xbb, 0x3d,
  0xb1, 0xec, 0x2f, 0x3e, 0xe6, 0xd0, 0x6e, 0x3e, 0x5c, 0x7f, 0x60, 0x3d,
  0xa6, 0xb8, 0x51, 0x3e, 0xfc, 0x7e, 0xa8, 0x3d, 0x49, 0x55, 0xee, 0xbd,
  0x0e, 0xb2, 0x59, 0x3e, 0x5d, 0x5b, 0x80, 0x3e, 0xcc, 0xf1, 0x63, 0xbc,
  0x82, 0xb2, 0xee, 0x3e, 0xf0, 0xe0, 0x6b, 0xbc, 0x54, 0x62, 0xdb, 0xbd,
  0x07, 0x8c, 0x7e, 0xbd, 0xc1, 0x62, 0xf3, 0x3d, 0xe1, 0x36, 0x3c, 0xbe,
  0x78, 0x73, 0x04, 0x3d, 0x40, 0x89, 0x9f, 0x3d, 0x71, 0xed, 0x8c, 0x3c,
  0x25, 0xa0, 0x3a, 0x3d, 0x98, 0x21, 0x19, 0x3e, 0xac, 0x4e, 0x85, 0x3d,
  0xca, 0xcb, 0x38, 0x3d, 0x0c, 0xbe, 0x33, 0x3d, 0x6a, 0xd2, 0xb2, 0xbd,
  0x2d, 0xe8, 0x85, 0xbd, 0xad, 0x85, 0x46, 0x3e, 0x23, 0x80, 0x90, 0xbd,
  0xcd, 0x0d, 0xac, 0xbd, 0x65, 0x62, 0x83, 0xbd, 0x4a, 0x8c, 0xb1, 0x3d,
  0x54, 0x72, 0x86, 0xbd, 0x9b, 0xf4, 0xa8, 0x3d, 0x6b, 0xa1, 0x29, 0xbe,
  0x06, 0xf5, 0x5f, 0xbe, 0x55, 0xcf, 0x7c, 0x3d, 0x05, 0x46, 0x91, 0xbe,
  0xfb, 0x18, 0x19, 0xbe, 0xb5, 0x77, 0x48, 0xbd, 0x6b, 0x99, 0x2c, 0x3e,
  0x50, 0x72, 0x67, 0x3d, 0x5e, 0x66, 0x4a, 0xbe, 0x39, 0xb8, 0x9e, 0x3e,
  0xc5, 0x70, 0x87, 0xbd, 0x93, 0xc9, 0x45, 0xbe, 0xc7, 0xec, 0xa8, 0xbe,
  0x57, 0x2b, 0x45, 0xbe, 0x98, 0x61, 0x59, 0xbe, 0xe9, 0xd3, 0x16, 0x3d,
  0x6a, 0x2d, 0x2f, 0x3e, 0x99, 0xfe, 0xb7, 0xbd, 0x7e, 0xcc, 0x00, 0x3d,
  0x5d, 0xb2, 0xe4, 0xbd, 0x35, 0x76, 0xc0, 0xbc, 0x9a, 0x15, 0x0a, 0xbe,
  0x21, 0x18, 0x88, 0x3e, 0xb9, 0x97, 0x75, 0x3d, 0x6d, 0x27, 0xa4, 0xbd,
  0x29, 0x1d, 0x48, 0x3e, 0x1b, 0xbb, 0x20, 0x3e, 0x53, 0x5b, 0xbe, 0x3c,
  0xfc, 0x4b, 0x60, 0xbe, 0x0b, 0xc4, 0x2a, 0x3d, 0xa7, 0x06, 0x88, 0xbd,
  0x3c, 0x77, 0x30, 0xbd, 0xfd, 0xe8, 0x9d, 0xbe, 0x30, 0xd0, 0x74, 0xbd,
  0x68, 0x15, 0xdf, 0xbd, 0x74, 0x36, 0x14, 0x3e, 0x49, 0xa4, 0x24, 0x3c,
  0x5d, 0xce, 0xa2, 0xbe, 0x8e, 0x72, 0x87, 0xbc, 0x3a, 0xa7, 0x6a, 0x3e,
  0xbc, 0xf8, 0x9f, 0x3d, 0x8e, 0xbf, 0x36, 0xbe, 0xe9, 0x8e, 0x99, 0x3e,
  0x15, 0x69, 0xa6, 0x3e, 0x90, 0x95, 0x66, 0x3e, 0x36, 0x91, 0x59, 0xbe,
  0x2e, 0x59, 0xa8, 0xbe, 0x98, 0x4c, 0xfe, 0x3d, 0x06, 0x85, 0xc2, 0x3e,
  0xff, 0xd5, 0x83, 0xbe, 0xe6, 0x8b, 0xff, 0x3d, 0x92, 0xc7, 0xca, 0xbd,
  0x50, 0x0f, 0xc7, 0xbd, 0xdd, 0x03, 0x23, 0xbe, 0xe9, 0x32, 0xea, 0xbb,
  0xef, 0x49, 0x95, 0xbd, 0xbd, 0x93, 0xd4, 0xbc, 0xff, 0x0d, 0xad, 0x3d,
  0x58, 0x86, 0x7d, 0x3e, 0x68, 0x8e, 0x91, 0x3d, 0xea, 0x58, 0xfe, 0x3d,
  0x74, 0x5f, 0x23, 0xbe, 0xea, 0xf5, 0x6f, 0xbe, 0x65, 0x1b, 0x43, 0x3e,
  0xfc, 0xce, 0x92, 0x3d, 0x70, 0x69, 0x6b, 0xbc, 0x53, 0x1e, 0x85, 0x3d,
  0x42, 0x8f, 0x96, 0xbe, 0x0a, 0x5f, 0xdf, 0xbd, 0x64, 0xdb, 0x0a, 0xbe,
  0x00, 0x91, 0x08, 0xbe, 0xe1, 0xcf, 0xcb, 0xbb, 0xf5, 0x7e, 0x15, 0xbe,
  0x37, 0x90, 0xe8, 0x3d, 0x41, 0x9e, 0x40, 0xbc, 0x8a, 0x43, 0xb8, 0xbd,
  0x05, 0xfa, 0x43, 0x3d, 0x8f, 0x00, 0x13, 0xbe, 0x1d, 0x0c, 0x14, 0x3e,
  0xde, 0xbf, 0x81, 0xbe, 0x98, 0xe6, 0x9d, 0xbd, 0x79, 0x9b, 0x3f, 0xbd,
  0x9e, 0x16, 0x14, 0xbc, 0xc4, 0x47, 0x74, 0xbe, 0x20, 0x69, 0x91, 0xbd,
  0x9d, 0x4e, 0x8a, 0x3d, 0x41, 0xd9, 0x8b, 0xbd, 0x45, 0x29, 0x10, 0xbe,
  0xdb, 0x55, 0x5e, 0xbe, 0x37, 0xa2, 0x92, 0x3d, 0x64, 0x13, 0x64, 0xbe,
  0x34, 0x1f, 0xc9, 0xbd, 0xed, 0x0f, 0x26, 0x3e, 0x80, 0x35, 0x8a, 0x3d,
  0xa3, 0x49, 0x2f, 0xbe, 0x6b, 0x02, 0x33, 0xbe, 0x63, 0x18, 0x45, 0xbd,
  0x04, 0x9c, 0x15, 0xbc, 0x46, 0x2b, 0xca, 0x3d, 0x31, 0x37, 0x84, 0xbe,
  0x35, 0x93, 0x4b, 0xbd, 0x05, 0xcb, 0xa6, 0x3c, 0x34, 0xd4, 0x19, 0xbe,
  0x2c, 0x86, 0x93, 0xbd, 0x43, 0xeb, 0x92, 0xbe, 0xbf, 0x80, 0xeb, 0x3d,
  0xca, 0x7e, 0x53, 0xbe, 0x1f, 0x16, 0x9d, 0x3d, 0x77, 0x03, 0xdc, 0xbd,
  0xfc, 0x24, 0x25, 0xbe, 0x63, 0x1f, 0x86, 0xbe, 0x7a, 0xff, 0xa8, 0xbd,
  0xca, 0x6e, 0x65, 0xbd, 0xfc, 0xc7, 0x15, 0xbd, 0xf4, 0x14, 0xc5, 0x3b,
  0xd9, 0x85, 0x49, 0x3e, 0x63, 0x7a, 0x0d, 0x3e, 0x10, 0x12, 0x96, 0x3e,
  0x2b, 0x70, 0x2c, 0xbe, 0x7e, 0xdf, 0xac, 0x3d, 0xff, 0x7e, 0xd2, 0x3d,
  0xfb, 0x60, 0x99, 0xbd, 0x5a, 0xc6, 0x6b, 0xbe, 0x6a, 0xda, 0x0c, 0x3e,
  0xfc, 0xc5, 0x3c, 0x3c, 0x98, 0x2a, 0x03, 0xbd, 0x41, 0x96, 0xc5, 0xbd,
  0xe6, 0xf3, 0xed, 0xbd, 0xc0, 0x02, 0xe3, 0xbd, 0xf7, 0xf6, 0xb1, 0xbc,
  0x97, 0x0e, 0xd6, 0xbc, 0x9a, 0x53, 0xd0, 0x3d, 0xd4, 0x9f, 0xb9, 0x3c,
  0x30, 0xed, 0x74, 0xbc, 0x16, 0x56, 0xaf, 0xbe, 0x8a, 0x51, 0x5d, 0x3c,
  0x77, 0xfb, 0x83, 0xbd, 0x8d, 0x4c, 0x9d, 0xbd, 0x9c, 0xad, 0x0f, 0xbe,
  0x38, 0xcf, 0xe5, 0xbc, 0x7a, 0xe0, 0xb2, 0xbc, 0x5b, 0x09, 0xf8, 0xbd,
  0x57, 0xce, 0x87, 0xbd, 0xf7, 0xa7, 0x89, 0xbb, 0x64, 0xcd, 0x52, 0xbe,
  0x12, 0xdf, 0xf1, 0x3e, 0xe4, 0xa3, 0x5f, 0x3d, 0x1b, 0xfc, 0x60, 0xbe,
  0x06, 0xf4, 0x6b, 0xbe, 0x3e, 0x7f, 0x4a, 0xbe, 0xcb, 0x19, 0x88, 0x3d,
  0xf7, 0x63, 0xed, 0xbe, 0xce, 0x41, 0xab, 0xbd, 0xf8, 0x4e, 0x9b, 0x3d,
  0x73, 0x89, 0x2b, 0xbd, 0x1e, 0x03, 0xd1, 0xbd, 0x7c, 0x69, 0xd0, 0xbe,
  0x29, 0x16, 0x50, 0x3e, 0x86, 0x1f, 0xbb, 0xbd, 0x5e, 0x2d, 0x0d, 0xbe,
  0x2d, 0x16, 0x57, 0xbe, 0x33, 0xd5, 0x2e, 0x3e, 0xe0, 0xf0, 0x33, 0xbd,
  0x67, 0x2e, 0xf7, 0xbd, 0x7c, 0xd5, 0x1d, 0xbe, 0x1a, 0x83, 0x78, 0x3c,
  0x92, 0x66, 0x10, 0xbc, 0x44, 0x34, 0x0a, 0xbc, 0x13, 0x3f, 0x4c, 0x3e,
  0xe0, 0x6f, 0x09, 0x3d, 0x00, 0x97, 0x13, 0xbc, 0x50, 0x78, 0x0c, 0x3e,
  0xb2, 0x7b, 0x15, 0xbe, 0xa3, 0x91, 0x93, 0x3d, 0xa1, 0x62, 0x36, 0xbc,
  0xb2, 0x1f, 0x68, 0xbd, 0x07, 0x33, 0xbd, 0x3d, 0x2b, 0x03, 0xad, 0x3e,
  0x5d, 0xef, 0xc4, 0xbc, 0x8b, 0x7c, 0xca, 0xbd, 0x43, 0x6a, 0x0f, 0xbc,
  0x34, 0xef, 0x0e, 0x3e, 0xee, 0x8c, 0x37, 0xbe, 0xd2, 0x94, 0x4c, 0x3d,
  0x1a, 0x2f, 0xbb, 0x3e, 0x3d, 0xc5, 0xa3, 0x3d, 0x8f, 0x8d, 0xca, 0xbc,
  0xa9, 0xae, 0x57, 0x3e, 0xbb, 0x85, 0xb1, 0xbe, 0xd5, 0x51, 0xb4, 0x3d,
  0x93, 0xfe, 0x88, 0xbc, 0xcf, 0x6c, 0x98, 0x3e, 0xe4, 0x03, 0x39, 0x3c,
  0xd1, 0x19, 0x07, 0x3f, 0x27, 0xda, 0x00, 0x3c, 0x25, 0xca, 0x75, 0x3c,
  0xe2, 0x8c, 0x94, 0x3d, 0x26, 0x06, 0xc9, 0xba, 0xf9, 0x54, 0x22, 0xbd,
  0x0a, 0x15, 0x78, 0xbc, 0x02, 0xe3, 0x6a, 0x3e, 0x43, 0xa0, 0xb0, 0x3d,
  0xcc, 0x35, 0x37, 0x3d, 0x8c, 0x2e, 0x20, 0x3e, 0xdf, 0xf7, 0x1e, 0xbe,
  0x45, 0x72, 0xae, 0x3e, 0xe3, 0x8f, 0x26, 0x3b, 0xdb, 0x77, 0x0a, 0x3e,
  0x8a, 0x03, 0xc4, 0xbe, 0xb5, 0x04, 0x7f, 0x3f, 0x59, 0xcc, 0xf8, 0x3a,
  0x0d, 0x35, 0x66, 0xbe, 0x5e, 0x94, 0x57, 0xbe, 0x4e, 0x3b, 0x72, 0xbe,
  0xb9, 0xda, 0x26, 0xbd, 0x8f, 0x61, 0x22, 0xbe, 0x43, 0x6a, 0x3a, 0x3d,
  0xc9, 0x16, 0x5f, 0x3e, 0x0e, 0xc8, 0x33, 0x3d, 0xab, 0x07, 0xcd, 0xbe,
  0x29, 0x85, 0x1e, 0xbe, 0xd9, 0xc4, 0x1c, 0x3f, 0x22, 0x0a, 0xaf, 0x3d,
  0xe1, 0x4d, 0x03, 0x3e, 0x35, 0xf1, 0xad, 0xbc, 0xe6, 0x0a, 0x05, 0x3f,
  0xb0, 0x90, 0x49, 0xbd, 0x92, 0x8d, 0xdd, 0xbe, 0xeb, 0xcc, 0xbb, 0xbe,
  0x75, 0x0d, 0x2f, 0xbe, 0xc2, 0x85, 0xee, 0xbd, 0x6f, 0xed, 0xb7, 0x3c,
  0x1f, 0xd3, 0xcb, 0xbc, 0x30, 0x2e, 0x4f, 0xbc, 0x06, 0xcc, 0x97, 0xbc,
  0x02, 0xb3, 0x8d, 0xbe, 0x03, 0x38, 0x48, 0xbe, 0x7b, 0x10, 0xac, 0x3e,
  0xfc, 0x54, 0x2c, 0x38, 0x4b, 0xb1, 0xb9, 0x3d, 0xbe, 0x80, 0x84, 0xbe,
  0xf5, 0x22, 0xcd, 0x3d, 0xf0, 0x55, 0x80, 0xbd, 0x02, 0x1d, 0x60, 0xbd,
  0x0d, 0x09, 0x9a, 0xbc, 0x90, 0xe9, 0x4f, 0xbd, 0xcd, 0x41, 0xa1, 0x3e,
  0x83, 0x8d, 0x85, 0x3d, 0xbd, 0x39, 0xa1, 0xbc, 0xc1, 0x97, 0x44, 0xbd,
  0xc0, 0xb3, 0x07, 0x3d, 0x3b, 0xa8, 0x93, 0xbd, 0x8f, 0x3a, 0x4b, 0xbe,
  0xa1, 0x69, 0x88, 0x3d, 0x74, 0x54, 0x6b, 0xbd, 0x69, 0x14, 0x15, 0xbe,
  0x94, 0x0f, 0x10, 0x3f, 0x8f, 0xbd, 0xcb, 0xbd, 0xcd, 0xf9, 0xf1, 0x3d,
  0x1f, 0x93, 0x0e, 0x3e, 0xc7, 0xe2, 0xf2, 0x3d, 0x71, 0xaf, 0x8e, 0x3e,
  0x04, 0x3b, 0x23, 0x3d, 0xa1, 0x5c, 0x27, 0x3e, 0x15, 0x43, 0x54, 0xbd,
  0xc8, 0x15, 0x63, 0x3e, 0xbc, 0xc9, 0x99, 0xbd, 0x85, 0x48, 0x27, 0x3e,
  0xd0, 0x1a, 0x8c, 0xbe, 0x68, 0x75, 0x00, 0xbe, 0x96, 0x27, 0xe2, 0x3c,
  0x0d, 0x27, 0x4d, 0x3d, 0x53, 0x35, 0xb2, 0x3c, 0x2d, 0xc7, 0xb3, 0xbd,
  0x91, 0x8d, 0x79, 0xbe, 0xc2, 0xba, 0x21, 0x3e, 0xd7, 0x92, 0x16, 0x3e,
  0xee, 0xc1, 0x3e, 0xbc, 0xe5, 0x58, 0xe7, 0x3c, 0x87, 0x49, 0xdb, 0xbd,
  0x07, 0x59, 0x45, 0xbe, 0xcf, 0x7e, 0xad, 0x3d, 0x9b, 0x1d, 0x0a, 0xbd,
  0xf1, 0x3b, 0x4f, 0x3d, 0xce, 0x79, 0x33, 0xbe, 0x70, 0x1e, 0x84, 0x3d,
  0xbb, 0x3f, 0xaf, 0x3c, 0x61, 0x35, 0xe3, 0x3c, 0x4b, 0x9c, 0x81, 0xbc,
  0xc7, 0xb3, 0xe6, 0xbd, 0xa6, 0x8e, 0x87, 0xbe, 0x40, 0x87, 0xf4, 0xbd,
  0x75, 0xbd, 0x09, 0xbe, 0xb6, 0x2f, 0x0d, 0xbf, 0x93, 0xd8, 0x31, 0x3d,
  0xeb, 0xb0, 0x7f, 0x3d, 0x36, 0x1f, 0xa9, 0xbe, 0x2e, 0x60, 0x04, 0x3d,
  0x4b, 0x59, 0x95, 0x3d, 0x76, 0x4b, 0x99, 0x3d, 0x8b, 0x6d, 0x9a, 0xbc,
  0xb4, 0xa1, 0xed, 0x3c, 0x3e, 0xcd, 0xf5, 0xbd, 0xb4, 0xc1, 0x16, 0xbe,
  0x41, 0xb5, 0x3c, 0xbe, 0x19, 0xb0, 0x9c, 0xbe, 0xa6, 0xe9, 0x65, 0xbe,
  0x42, 0xeb, 0x93, 0xbd, 0x24, 0xa2, 0x5b, 0xbd, 0x2a, 0xaf, 0xb6, 0xbe,
  0xe0, 0x30, 0xa2, 0x3e, 0xc4, 0xad, 0x87, 0x3d, 0x06, 0x66, 0xc5, 0xbe,
  0x3a, 0x61, 0x09, 0xbe, 0x49, 0xad, 0x1e, 0x3d, 0x57, 0x88, 0xf8, 0xbc,
  0x8a, 0x82, 0xc2, 0xbd, 0x7b, 0xcf, 0xa1, 0x3c, 0xfb, 0xfe, 0x16, 0xbf,
  0x7a, 0x55, 0x77, 0x3d, 0xd0, 0x2c, 0x7b, 0xbe, 0x28, 0x9a, 0x66, 0xbe,
  0x29, 0x15, 0x4d, 0xbe, 0x26, 0x04, 0x12, 0xbe, 0xbe, 0xa4, 0xe5, 0xbd,
  0x0c, 0xc5, 0xb0, 0xbe, 0x77, 0x7e, 0x00, 0x3d, 0x18, 0xef, 0xac, 0x3d,
  0xeb, 0x24, 0x55, 0xbe, 0x53, 0xd0, 0x7e, 0x3e, 0x80, 0xb0, 0x61, 0x3d,
  0x9a, 0x44, 0x99, 0xbd, 0x9c, 0xdb, 0xc6, 0xbd, 0x35, 0x05, 0x01, 0x3e,
  0x8b, 0x7d, 0x56, 0xbe, 0x37, 0x2a, 0xc1, 0xbd, 0xd5, 0x64, 0x0e, 0xbe,
  0xff, 0x9d, 0x67, 0xbe, 0xfe, 0x70, 0x76, 0xbe, 0x4a, 0xb2, 0x69, 0xbe,
  0xcf, 0xa8, 0x71, 0xbe, 0xb6, 0xf6, 0x92, 0xbe, 0xf3, 0x56, 0x50, 0xbd,
  0x36, 0xf8, 0xb0, 0x3d, 0xfc, 0x43, 0xf3, 0xbe, 0x5a, 0x56, 0x0c, 0x3d,
  0xb6, 0x5c, 0xc7, 0x3d, 0xc5, 0x5d, 0xdd, 0xbd, 0x16, 0x89, 0x84, 0xbe,
  0x6d, 0xa0, 0x39, 0x3e, 0x70, 0xc8, 0xc1, 0xbe, 0x5c, 0xf7, 0x82, 0x3c,
  0x82, 0x58, 0x41, 0xbe, 0x36, 0xba, 0xff, 0xbc, 0xef, 0xe9, 0x8a, 0xbe,
  0x72, 0x56, 0x31, 0xbd, 0xef, 0xd2, 0x3d, 0xbd, 0xee, 0xfc, 0x0e, 0xbe,
  0x1d, 0xf2, 0x03, 0x3c, 0x9f, 0x10, 0xdc, 0x3d, 0x17, 0x67, 0x9c, 0xbd,
  0x55, 0x14, 0x0d, 0x3c, 0x0a, 0xdd, 0x8d, 0xbd, 0x5e, 0x68, 0x5f, 0x3d,
  0xe2, 0xf9, 0x91, 0xbe, 0xf3, 0x70, 0x75, 0x3d, 0x61, 0x3d, 0x92, 0xbe,
  0xac, 0x7c, 0xb1, 0xbd, 0xe4, 0xcd, 0x7e, 0xbc, 0xcf, 0x9b, 0x53, 0xbe,
  0x9a, 0x64, 0xe6, 0xbd, 0x50, 0xe9, 0x80, 0xbd, 0x04, 0x7f, 0x69, 0xbd,
  0x9f, 0x27, 0x85, 0x3d, 0x7e, 0x6a, 0x80, 0xbd, 0xa4, 0xb3, 0x2f, 0xbe,
  0xe2, 0x96, 0x36, 0xbd, 0x23, 0x36, 0xb1, 0x3e, 0x31, 0x2d, 0xf8, 0xbe,
  0xe3, 0x7a, 0xa6, 0x3d, 0xfc, 0xdf, 0x87, 0xbe, 0xf9, 0x1e, 0x95, 0x3d,
  0x09, 0xf8, 0x19, 0x3e, 0xf7, 0x47, 0x78, 0xbd, 0xd0, 0x14, 0xf0, 0xbc,
  0x6a, 0x03, 0x2e, 0xbe, 0x1b, 0xc9, 0x41, 0xbe, 0xf2, 0xd5, 0x25, 0xbe,
  0x1c, 0xa7, 0x18, 0x3d, 0x15, 0xa4, 0x1c, 0x3e, 0x36, 0x2c, 0x24, 0x3e,
  0xf9, 0xe3, 0x62, 0x3d, 0xce, 0x9c, 0x62, 0x3d, 0xc2, 0x3e, 0x58, 0x3e,
  0x42, 0xe0, 0xed, 0xbe, 0x9d, 0x72, 0xe6, 0xbd, 0xbf, 0x25, 0x1a, 0xbe,
  0x52, 0x37, 0xf9, 0xbd, 0xc5, 0xaa, 0x74, 0x3e, 0x52, 0x6b, 0xb9, 0x3d,
  0x68, 0x15, 0x77, 0x3e, 0x76, 0x01, 0x17, 0x3b, 0xaa, 0x61, 0x57, 0x3d,
  0x37, 0xd8, 0x31, 0x3e, 0x01, 0xbf, 0x97, 0xbc, 0x24, 0x39, 0x84, 0x3e,
  0x09, 0x86, 0x08, 0x3e, 0xa5, 0x25, 0x0a, 0x3e, 0xbf, 0x1d, 0xa5, 0xbd,
  0x60, 0xd4, 0x8e, 0x3e, 0xc2, 0xb4, 0xbd, 0xbe, 0xdb, 0xaf, 0x15, 0x3e,
  0x6f, 0x23, 0xc6, 0x3d, 0x54, 0xee, 0xc1, 0x3d, 0x31, 0xde, 0xaf, 0x3d,
  0x24, 0xe8, 0x79, 0x3d, 0xbf, 0x20, 0xb0, 0x3e, 0x06, 0x8e, 0x75, 0x3e,
  0xd0, 0xf6, 0x14, 0xbd, 0x14, 0x2b, 0x6e, 0x3e, 0xe8, 0x6f, 0x55, 0xbc,
  0xd6, 0xd6, 0x8f, 0x3e, 0x90, 0xa9, 0x13, 0x3c, 0x79, 0xd0, 0xb4, 0xbb,
  0xda, 0xf5, 0x4e, 0x3e, 0x0e, 0x4c, 0x03, 0x3e, 0xc2, 0x93, 0x5d, 0xbe,
  0x4d, 0xd3, 0x3e, 0xba, 0xd8, 0xbf, 0x7a, 0xbd, 0x16, 0xb6, 0x85, 0x3e,
  0x3e, 0x7c, 0xd0, 0x3e, 0xf6, 0x98, 0x95, 0x3d, 0x61, 0x13, 0xcd, 0xbd,
  0x3f, 0x1f, 0xfb, 0xbc, 0xf3, 0x41, 0x1a, 0x3b, 0x0c, 0x23, 0xcd, 0x3d,
  0xb4, 0x2b, 0xb0, 0x3c, 0xd7, 0xaf, 0x8d, 0x3d, 0xf1, 0x3e, 0xdc, 0x3e,
  0x43, 0x9c, 0x94, 0xbd, 0x0c, 0xe3, 0x6c, 0xbe, 0x61, 0x07, 0xee, 0xbc,
  0x42, 0x59, 0x9f, 0xbe, 0x20, 0xec, 0x6a, 0x3d, 0x99, 0x1b, 0xe2, 0xbc,
  0x37, 0x08, 0xb2, 0xbc, 0xd5, 0xa9, 0x21, 0xbd, 0x5e, 0xc2, 0xde, 0x3c,
  0x50, 0xe8, 0xc3, 0xbc, 0x4c, 0x17, 0x2b, 0xbe, 0x52, 0x34, 0x10, 0xbd,
  0x44, 0xa7, 0xfa, 0x39, 0x50, 0xb8, 0xeb, 0xbd, 0x99, 0x35, 0x31, 0x3e,
  0x05, 0x98, 0xad, 0x3e, 0xc4, 0x84, 0x97, 0x3a, 0xac, 0x29, 0x4e, 0xbe,
  0x87, 0x78, 0x7c, 0x3d, 0x94, 0x6b, 0x36, 0xbe, 0x17, 0x3e, 0x84, 0xbd,
  0xa7, 0x66, 0x34, 0xbc, 0xcd, 0x8b, 0x4b, 0xbe, 0xbf, 0xc8, 0xef, 0x3d,
  0x60, 0xa5, 0xa2, 0xbe, 0x00, 0x9e, 0x6e, 0x3e, 0x19, 0xff, 0x8b, 0xbd,
  0x9b, 0x35, 0x91, 0xbd, 0x8b, 0x85, 0xa5, 0x3b, 0x88, 0xad, 0xdb, 0xbd,
  0x81, 0xb7, 0x90, 0xbd, 0xa7, 0x20, 0x90, 0x3e, 0xf1, 0xff, 0x1a, 0xbe,
  0x4e, 0xf7, 0x97, 0xbe, 0xfc, 0x11, 0xfd, 0xbd, 0xef, 0x86, 0xf4, 0xbe,
  0xa1, 0x55, 0xd0, 0x3c, 0x0c, 0xde, 0x8e, 0xbe, 0x45, 0xc8, 0x6d, 0xbe,
  0x22, 0x21, 0xcf, 0x3d, 0x3d, 0x4a, 0x56, 0xbe, 0x50, 0xd4, 0x88, 0xbd,
  0x5a, 0x05, 0xa5, 0xbc, 0xcf, 0xd3, 0x25, 0xbf, 0x9e, 0x4b, 0x88, 0x3c,
  0x94, 0xd5, 0xbb, 0xbd, 0xa9, 0xa4, 0x88, 0x3a, 0x4f, 0x50, 0xca, 0xbc,
  0x8e, 0x7b, 0x1e, 0xbe, 0x4f, 0xe5, 0xfb, 0xbe, 0x44, 0x30, 0xb5, 0x3e,
  0x5b, 0x1e, 0xd3, 0xbe, 0x06, 0xe6, 0xbf, 0xbd, 0x43, 0x54, 0x13, 0xbf,
  0x61, 0xdb, 0x81, 0xbd, 0x5d, 0xe8, 0x91, 0xbe, 0xed, 0xe9, 0x1f, 0x3e,
  0x12, 0xac, 0xea, 0xbd, 0xc7, 0x47, 0xf2, 0xbd, 0x3b, 0xe4, 0x03, 0x3e,
  0x0b, 0xc2, 0xde, 0x3c, 0x28, 0x1c, 0xec, 0x3d, 0x14, 0xe6, 0x6e, 0x3d,
  0x54, 0xcb, 0x2e, 0xbd, 0x82, 0x83, 0x8c, 0x3d, 0x1e, 0xb3, 0x33, 0xbd,
  0xd7, 0x51, 0xce, 0x3e, 0x7b, 0xc7, 0xee, 0xbe, 0x47, 0xec, 0x32, 0xbe,
  0x4f, 0x8f, 0xd2, 0xbd, 0x48, 0x60, 0x2a, 0xbe, 0xe9, 0xe8, 0x01, 0xbe,
  0xdb, 0x13, 0x9f, 0xbd, 0x85, 0x87, 0x56, 0x3e, 0x90, 0x59, 0xfe, 0xbd,
  0x1f, 0x36, 0x10, 0x3e, 0x20, 0xac, 0x62, 0x3c, 0x6a, 0x8f, 0x14, 0xbe,
  0xa7, 0xc0, 0xc7, 0xbd, 0x6d, 0xc9, 0x8b, 0x3d, 0x18, 0x45, 0x31, 0xbe,
  0x5c, 0xfc, 0xfb, 0xbb, 0x66, 0xdb, 0xef, 0x3d, 0xc1, 0x8a, 0x88, 0xbb,
  0x12, 0x25, 0x72, 0x3c, 0xea, 0x55, 0x64, 0xbe, 0xb2, 0x6f, 0x36, 0xbe,
  0x73, 0x01, 0x64, 0xbe, 0x70, 0x8f, 0xa7, 0x3d, 0x2f, 0xcb, 0x36, 0xbe,
  0xb9, 0x08, 0x49, 0x3e, 0xfd, 0x9d, 0x9d, 0x3d, 0xe0, 0xa2, 0x7e, 0x3c,
  0x93, 0x1a, 0x83, 0x3e, 0xe8, 0xe6, 0x7a, 0xbd, 0x18, 0x3d, 0x07, 0xbe,
  0xc1, 0x82, 0x2e, 0xbd, 0xdd, 0xbe, 0xc8, 0xbd, 0xac, 0xa2, 0x44, 0x3e,
  0xc8, 0x0a, 0xf8, 0xbd, 0x82, 0x25, 0x35, 0xbe, 0x8c, 0x9f, 0x1b, 0xbe,
  0x80, 0x58, 0x35, 0xbd, 0xad, 0xc0, 0x40, 0xbe, 0x73, 0x3b, 0xf6, 0x3c,
  0xa9, 0x2d, 0xe0, 0x3d, 0xff, 0x10, 0xb5, 0xbd, 0xe1, 0x41, 0x7f, 0x3c,
  0x64, 0x3e, 0xa7, 0x3c, 0x0b, 0x9a, 0xbf, 0x3d, 0x1c, 0xb3, 0xd8, 0x3c,
  0x39, 0x4a, 0xc4, 0x3b, 0x26, 0x88, 0x2b, 0x3d, 0xfa, 0xf9, 0x1c, 0xbb,
  0x49, 0xba, 0x5d, 0xbc, 0x60, 0x74, 0x17, 0x3e, 0x13, 0x10, 0x92, 0x3d,
  0x52, 0x02, 0x5f, 0x3c, 0x23, 0xe2, 0x95, 0xbd, 0x3b, 0xa3, 0x94, 0xbd,
  0x82, 0xb5, 0x9f, 0xbd, 0x52, 0xb1, 0x33, 0xbe, 0xf2, 0x59, 0xb5, 0x3c,
  0x66, 0xec, 0x78, 0xbd, 0x31, 0x0b, 0x5e, 0x3d, 0xbb, 0x77, 0x83, 0x3d,
  0x06, 0xa0, 0x08, 0xbe, 0x58, 0xc3, 0xf3, 0x3d, 0xa6, 0xe0, 0x1f, 0x3b,
  0x37, 0x25, 0xa5, 0xbe, 0x4b, 0xa8, 0xc0, 0x3d, 0x8a, 0xde, 0xc2, 0xbd,
  0xe0, 0x6c, 0xfc, 0xbc, 0x45, 0x48, 0x4b, 0xbe, 0x8e, 0x7e, 0x9f, 0x3c,
  0x46, 0xb2, 0xf7, 0xbd, 0x56, 0x70, 0x28, 0xbd, 0x26, 0x53, 0x38, 0xbe,
  0x8b, 0x77, 0x9f, 0x3c, 0x75, 0x84, 0x3f, 0x3d, 0x4c, 0xb9, 0xcc, 0x3d,
  0x95, 0x67, 0xf7, 0x3c, 0xaf, 0x7a, 0x19, 0xbe, 0x87, 0x4c, 0xdd, 0x3e,
  0x2f, 0x7a, 0x3f, 0x3d, 0x77, 0x7d, 0xaf, 0xbd, 0x0a, 0x75, 0x6f, 0x3e,
  0xe8, 0x1c, 0x41, 0xbe, 0x94, 0x5d, 0xe1, 0x3a, 0xc6, 0xce, 0xfa, 0x3d,
  0x2c, 0xfa, 0x5f, 0xbe, 0xeb, 0xfa, 0x43, 0x3d, 0x7d, 0x18, 0x52, 0xbe,
  0xeb, 0xd8, 0x1e, 0x3e, 0x9b, 0x01, 0x0b, 0xbf, 0x82, 0x94, 0xe9, 0x3d,
  0x55, 0x87, 0x34, 0x3e, 0xc4, 0xa0, 0x70, 0x3e, 0x7a, 0x4c, 0x30, 0x3e,
  0xab, 0x60, 0x7a, 0x3e, 0x9b, 0xa0, 0xb9, 0xbd, 0xc2, 0x80, 0x01, 0xbd,
  0x45, 0xcb, 0xa9, 0x3e, 0x5d, 0xc6, 0x57, 0xbd, 0xfe, 0x31, 0x5d, 0xbd,
  0x92, 0xb8, 0xd9, 0xbd, 0x9e, 0x12, 0xb9, 0xbe, 0x4f, 0xb8, 0x31, 0xbd,
  0x0c, 0xca, 0x7c, 0xbd, 0x1a, 0xc0, 0x7a, 0x3d, 0xd1, 0x7d, 0xa7, 0xbd,
  0x17, 0x32, 0x05, 0xbd, 0x2d, 0x40, 0x5b, 0x3e, 0x45, 0x97, 0x7c, 0x3e,
  0x82, 0xbf, 0xa0, 0xbd, 0x1b, 0x7f, 0x95, 0x3e, 0x7c, 0xec, 0x27, 0xbd,
  0x78, 0xe1, 0xc1, 0xbd, 0x88, 0x71, 0x21, 0x3e, 0x57, 0x34, 0x48, 0xbc,
  0x36, 0x7b, 0x6d, 0x3d, 0x80, 0x7b, 0x0c, 0xbd, 0x87, 0x9a, 0xf3, 0xbd,
  0xb0, 0x43, 0xe0, 0x3c, 0x19, 0x96, 0xf1, 0xbd, 0x8c, 0x47, 0x0b, 0xbe,
  0x2a, 0x5e, 0x8f, 0xbc, 0x63, 0x32, 0xa4, 0xbd, 0x60, 0x2f, 0x8c, 0xbd,
  0xca, 0xf4, 0x9e, 0x3b, 0xf7, 0x54, 0x80, 0xbe, 0x0e, 0x69, 0x7f, 0x3e,
  0x56, 0xd2, 0xf0, 0x3d, 0x5d, 0x66, 0x1a, 0xbe, 0x45, 0x44, 0x84, 0xbc,
  0xef, 0x6a, 0xff, 0x3c, 0x3c, 0x35, 0xbe, 0xbd, 0xca, 0x38, 0xee, 0x3d,
  0xa5, 0x97, 0xcc, 0xbd, 0x0d, 0x87, 0xf2, 0x3d, 0x8c, 0xe1, 0x96, 0xbe,
  0x70, 0x65, 0x44, 0x3e, 0x97, 0x67, 0x7a, 0x3d, 0x12, 0xf5, 0x92, 0xbd,
  0xf3, 0x4b, 0x0f, 0xbd, 0x20, 0xde, 0x9b, 0x3d, 0x9b, 0x89, 0xef, 0xba,
  0x22, 0xe2, 0xda, 0xb9, 0x1a, 0x9c, 0x30, 0xba, 0x70, 0x47, 0x68, 0xbe,
  0x17, 0xba, 0x07, 0xbe, 0x50, 0x02, 0xfc, 0x3b, 0xf7, 0xf3, 0x91, 0xbd,
  0x66, 0x8d, 0x85, 0xbd, 0xe5, 0xdb, 0xa7, 0xbd, 0x8e, 0xcd, 0x8e, 0xbd,
  0xa9, 0x50, 0xc4, 0xbe, 0xe9, 0x8e, 0xa5, 0x3e, 0x25, 0x98, 0xe2, 0xbd,
  0x27, 0xb8, 0x67, 0xbd, 0xed, 0x90, 0x4f, 0x3e, 0x2e, 0x8d, 0x30, 0xbd,
  0xe2, 0x07, 0x19, 0x3e, 0x1c, 0x3b, 0x07, 0x3e, 0x23, 0xac, 0xf7, 0x3d,
  0x02, 0xfc, 0x6a, 0xbe, 0xa1, 0x7b, 0x83, 0xbd, 0xb0, 0x38, 0xce, 0x3c,
  0x5e, 0x20, 0xc8, 0x3d, 0x0d, 0x4d, 0xf1, 0xbd, 0x07, 0x20, 0x55, 0xbe,
  0x60, 0x14, 0x7a, 0x3d, 0xca, 0x62, 0x12, 0xbe, 0x78, 0x8d, 0x9d, 0xbd,
  0x52, 0x18, 0x1b, 0xbe, 0xfa, 0x34, 0xe4, 0xbc, 0x5a, 0x23, 0xbe, 0x3e,
  0x15, 0x88, 0x59, 0x3e, 0xae, 0xe9, 0x1f, 0x3e, 0x93, 0x73, 0x93, 0x3e,
  0xf3, 0x1c, 0xba, 0xbe, 0xd6, 0x33, 0x77, 0xbe, 0x54, 0x7a, 0x0e, 0x3e,
  0x89, 0xbe, 0x3b, 0xbd, 0xb0, 0xbd, 0xa1, 0x3e, 0xa5, 0x99, 0x4d, 0xbe,
  0xa6, 0x0a, 0x72, 0xbd, 0xa0, 0x20, 0xda, 0x3d, 0xd2, 0xca, 0xa8, 0x3b,
  0x76, 0x04, 0x33, 0x3d, 0x65, 0x0a, 0x44, 0xbd, 0x08, 0x86, 0x77, 0x3c,
  0x0a, 0x1e, 0x86, 0x3d, 0x44, 0xee, 0x4f, 0x3d, 0xb6, 0xde, 0xa5, 0xbd,
  0x16, 0x2b, 0x79, 0x3d, 0xb9, 0xe2, 0x41, 0x3d, 0x2e, 0x44, 0x05, 0xbd,
  0x9a, 0xaa, 0x45, 0x3e, 0xad, 0xfb, 0xb4, 0x3d, 0xeb, 0x9c, 0x19, 0x3e,
  0x65, 0x98, 0x5f, 0xbe, 0x7c, 0xee, 0x0b, 0x3d, 0xca, 0x4c, 0x1c, 0xbe,
  0xb5, 0x3b, 0xa2, 0xbd, 0xe4, 0x4b, 0x24, 0x3e, 0xf9, 0x75, 0x20, 0xbe,
  0x07, 0x87, 0x64, 0xbd, 0x9b, 0x9a, 0x33, 0x3e, 0xc3, 0x18, 0x08, 0x3e,
  0x41, 0xfa, 0xe0, 0x3d, 0x59, 0x0e, 0xc7, 0xbd, 0x1f, 0xc0, 0x74, 0x3e,
  0x45, 0xbf, 0x15, 0x3e, 0x68, 0x16, 0x5c, 0xbe, 0x59, 0xc6, 0x04, 0xbd,
  0x89, 0xed, 0x2a, 0x3e, 0x13, 0xc3, 0x38, 0x3e, 0xc2, 0x76, 0x11, 0x3d,
  0x48, 0x94, 0x1c, 0x3e, 0x84, 0xdc, 0xca, 0x3d, 0xa1, 0xaa, 0x17, 0x3e,
  0x05, 0xe2, 0x97, 0x3d, 0x73, 0x16, 0x60, 0xbe, 0x3a, 0xd9, 0x0e, 0xbe,
  0xa1, 0x8e, 0x05, 0xbd, 0x88, 0xca, 0xba, 0xbe, 0x0d, 0xa2, 0x09, 0x3e,
  0xb5, 0x59, 0x97, 0x3c, 0xd7, 0x8c, 0x85, 0x3c, 0x59, 0x7e, 0x54, 0xbe,
  0x26, 0x98, 0x95, 0x3d, 0x46, 0x45, 0xcf, 0x3e, 0x7b, 0xaa, 0xb6, 0x3d,
  0xbe, 0x3f, 0xa9, 0x3d, 0x2d, 0x1e, 0x6b, 0xbd, 0x45, 0x20, 0x2e, 0x3e,
  0x1d, 0x24, 0x09, 0xbe, 0x56, 0x36, 0xa7, 0x3d, 0xbe, 0x91, 0x96, 0xbd,
  0xed, 0x6a, 0x3d, 0xbe, 0x92, 0x37, 0xb3, 0xbd, 0xa0, 0x75, 0x2d, 0xbf,
  0x5c, 0xb0, 0xdc, 0x3d, 0xb4, 0x74, 0xd5, 0x3c, 0x98, 0xa0, 0x19, 0xbe,
  0x32, 0x4a, 0xcf, 0xbd, 0xc0, 0x6f, 0x83, 0x3d, 0x19, 0x33, 0xf4, 0xbd,
  0x29, 0x3a, 0xbb, 0x3d, 0x2c, 0x5f, 0xa1, 0xbe, 0x72, 0xb9, 0xbf, 0xbe,
  0x30, 0x48, 0x09, 0xbe, 0x1b, 0xc0, 0x3a, 0xbe, 0x36, 0xaa, 0x28, 0xbe,
  0xbf, 0xa0, 0x0f, 0xbe, 0xef, 0x9b, 0x60, 0xbd, 0x5b, 0x09, 0x02, 0xbe,
  0xe2, 0x20, 0xb4, 0xbe, 0xd2, 0x44, 0x8c, 0x3d, 0xf6, 0x72, 0x2e, 0xbe,
  0xc6, 0x99, 0x5f, 0xbd, 0xe6, 0xbc, 0xa8, 0x3d, 0x14, 0x08, 0xbf, 0xbc,
  0x83, 0x49, 0x90, 0xbe, 0x89, 0xe2, 0x06, 0x3d, 0xaf, 0x8d, 0x41, 0xbe,
  0xa0, 0x3e, 0x1a, 0xbf, 0x2e, 0xea, 0xb4, 0x3e, 0xf9, 0x1c, 0xe6, 0x3e,
  0x42, 0xbd, 0xf9, 0xbd, 0x47, 0x43, 0x32, 0xbe, 0x32, 0xcc, 0xd4, 0xbd,
  0xb0, 0xe3, 0x6f, 0xbd, 0x06, 0x6d, 0xa4, 0xbe, 0x2d, 0x2e, 0xc4, 0x3c,
  0x29, 0x3e, 0x5a, 0x3d, 0x4d, 0xd7, 0xf2, 0x3d, 0xd5, 0x00, 0x4a, 0xbd,
  0xa4, 0xfd, 0xd2, 0xbc, 0x7c, 0x2b, 0x36, 0xbe, 0x46, 0xd4, 0x14, 0x3d,
  0x02, 0x0b, 0xbd, 0xbe, 0x58, 0x3d, 0x00, 0xbf, 0xdc, 0x15, 0x4a, 0xbe,
  0xea, 0xa3, 0x38, 0xbe, 0x68, 0x3c, 0x1d, 0xbe, 0xe7, 0x62, 0xea, 0xbc,
  0x36, 0x09, 0x2c, 0xbe, 0x05, 0xc6, 0xe6, 0xbd, 0xdf, 0xd7, 0xd1, 0xbe,
  0x7c, 0xa8, 0x91, 0x3d, 0x13, 0x65, 0x88, 0x3d, 0xc1, 0x76, 0xc5, 0xbd,
  0x5d, 0x0e, 0x17, 0xbd, 0xc2, 0x98, 0x34, 0x3e, 0xca, 0x9f, 0x96, 0xbc,
  0x33, 0x97, 0x0a, 0x3e, 0x55, 0x64, 0x87, 0xbe, 0x3b, 0x68, 0x0c, 0xbf,
  0xa0, 0xb4, 0x36, 0xbe, 0x6e, 0xb7, 0xa7, 0x3e, 0xe9, 0xe0, 0x97, 0xbe,
  0x2c, 0xb3, 0xe9, 0x3d, 0x01, 0x3b, 0x7f, 0x3d, 0x73, 0x74, 0x0b, 0xbe,
  0x66, 0x41, 0x49, 0x3e, 0x6f, 0xf6, 0xcf, 0xbe, 0xc8, 0x86, 0xb4, 0xbe,
  0xca, 0xd1, 0xb0, 0xbd, 0x03, 0x4c, 0xe6, 0xbc, 0xd3, 0x29, 0x1b, 0xbe,
  0xd5, 0x9a, 0xa8, 0x3e, 0x5d, 0xd6, 0x5b, 0xbe, 0xab, 0x44, 0x85, 0xbd,
  0xc5, 0x1d, 0x92, 0x3e, 0x2f, 0xc8, 0x74, 0xbe, 0xcb, 0xce, 0x5d, 0xbe,
  0x60, 0x0d, 0xa7, 0x3c, 0xd7, 0x32, 0x94, 0xbb, 0xec, 0xda, 0xe7, 0xbd,
  0x68, 0x49, 0xdd, 0xbd, 0xe6, 0x50, 0x97, 0xbe, 0x31, 0xb0, 0x7e, 0xbd,
  0x08, 0x1b, 0x19, 0xbe, 0x0a, 0x4f, 0x02, 0xbe, 0x09, 0x8d, 0x74, 0xbe,
  0xd8, 0x32, 0xeb, 0xbe, 0xd9, 0x72, 0x53, 0xbe, 0x12, 0xb4, 0xd0, 0xbe,
  0x71, 0x61, 0x4f, 0xbe, 0x53, 0x35, 0x2f, 0xbe, 0x82, 0xed, 0xaa, 0xbe,
  0xfa, 0x2c, 0x39, 0xbd, 0x46, 0xb9, 0x53, 0x3d, 0x9f, 0x8a, 0xbb, 0x3d,
  0x3e, 0xc9, 0xde, 0x3d, 0x90, 0x93, 0x55, 0xbe, 0x34, 0x17, 0x5a, 0xbe,
  0x58, 0x15, 0xa7, 0xbd, 0x5f, 0xd1, 0x21, 0xbe, 0xc3, 0x7d, 0xbf, 0xbe,
  0x3d, 0x7a, 0x64, 0xbe, 0x06, 0x7d, 0xba, 0xbe, 0xee, 0x7e, 0x7c, 0xbd,
  0x8f, 0x7c, 0xf8, 0xbd, 0x74, 0x92, 0xcf, 0xbd, 0x94, 0x60, 0x0c, 0xbe,
  0x6b, 0xcf, 0xc3, 0xbd, 0x12, 0xab, 0xfe, 0x3d, 0xa9, 0x2e, 0x6a, 0xbe,
  0xd2, 0xd0, 0x24, 0xbe, 0x32, 0x52, 0x7b, 0xbd, 0x06, 0x6a, 0x87, 0xbe,
  0xd9, 0xb5, 0xa2, 0xbd, 0xaf, 0x38, 0xa8, 0xbd, 0x4d, 0x46, 0x1c, 0xbc,
  0x68, 0xa1, 0x81, 0xbe, 0x60, 0x17, 0xce, 0xbd, 0xe8, 0xe3, 0x68, 0xbe,
  0x9e, 0x08, 0x04, 0xbe, 0x59, 0x1d, 0x4f, 0xbe, 0x5a, 0x19, 0xa1, 0xbe,
  0xc4, 0xe4, 0x51, 0xbe, 0x5c, 0x12, 0x2e, 0xbe, 0x41, 0x40, 0x89, 0x3d,
  0xa4, 0xf0, 0xa1, 0x3c, 0xe9, 0xa6, 0x5a, 0xbe, 0x84, 0x9c, 0x85, 0xbe,
  0x32, 0x14, 0x95, 0xbe, 0x92, 0x50, 0x0e, 0xbf, 0x5c, 0x27, 0x3d, 0x3d,
  0x81, 0x24, 0xa5, 0x3d, 0x1d, 0x42, 0x01, 0xbf, 0x48, 0x79, 0x3f, 0xbe,
  0xd9, 0x6c, 0x46, 0xbe, 0xa5, 0x92, 0xcf, 0xbe, 0x7d, 0xf6, 0x8b, 0xbe,
  0xfb, 0x95, 0x35, 0xbe, 0x12, 0x3f, 0x90, 0xbe, 0x22, 0x54, 0x48, 0xbc,
  0x65, 0xdd, 0x50, 0x3c, 0xfa, 0xff, 0xf4, 0xbd, 0x15, 0xfe, 0x8d, 0x3d,
  0x0d, 0xce, 0x0a, 0x3e, 0xa6, 0xee, 0x90, 0x3d, 0x22, 0xdd, 0xd3, 0x3d,
  0x0f, 0x78, 0x46, 0xbe, 0x21, 0xcd, 0x14, 0xbd, 0x25, 0xbe, 0xe1, 0x3d,
  0x9e, 0xd6, 0xb5, 0xbe, 0x66, 0x9e, 0x6e, 0x3b, 0x40, 0x8a, 0x9b, 0x3e,
  0x3c, 0x58, 0xbc, 0xbe, 0x6b, 0x91, 0xa1, 0x3c, 0xa9, 0x63, 0x50, 0xbe,
  0xf8, 0x7d, 0x66, 0x3c, 0xe2, 0xd1, 0x8d, 0x3e, 0x05, 0x47, 0x16, 0x3c,
  0x37, 0x8e, 0x8a, 0x3d, 0x4a, 0x3e, 0x18, 0x3e, 0x99, 0x53, 0x7c, 0x3d,
  0xa8, 0x58, 0xb9, 0x3c, 0xe7, 0x58, 0x9a, 0xbd, 0x37, 0x0d, 0xe3, 0xbd,
  0x6c, 0x60, 0xea, 0xbb, 0x5e, 0x11, 0x65, 0xbe, 0xa8, 0x4e, 0xb7, 0xbe,
  0x0c, 0xf0, 0x85, 0x3e, 0x41, 0x0c, 0xb4, 0xbe, 0x77, 0x3d, 0xee, 0x3c,
  0x8a, 0x6d, 0x3d, 0x3d, 0x59, 0x6c, 0xf1, 0xbc, 0x59, 0xfe, 0x8f, 0x3d,
  0xd9, 0x56, 0x0d, 0x3d, 0xfe, 0xcd, 0x15, 0xbd, 0x84, 0x83, 0x2c, 0x3d,
  0xfa, 0x39, 0x2f, 0xbc, 0x08, 0x5c, 0x9e, 0xbc, 0xba, 0x8c, 0xe8, 0xbd,
  0xbf, 0x95, 0x44, 0xbd, 0x6b, 0x0d, 0xe3, 0x3d, 0xc8, 0x66, 0x36, 0xbc,
  0x7c, 0x89, 0x2d, 0x3c, 0x91, 0xa6, 0x1c, 0x3e, 0x81, 0x29, 0xd3, 0x3d,
  0xb1, 0x44, 0xb5, 0x3c, 0x2b, 0x1e, 0xa5, 0x3d, 0xed, 0xeb, 0x2f, 0xbe,
  0x0d, 0xf5, 0xae, 0xbe, 0x69, 0xca, 0xf0, 0x3d, 0xdd, 0x21, 0x09, 0xbe,
  0xd8, 0x30, 0x04, 0xbd, 0x75, 0xc3, 0x90, 0xbe, 0x30, 0x98, 0x98, 0xbe,
  0x7a, 0xeb, 0x88, 0xbe, 0xa1, 0xfb, 0x78, 0xbe, 0x14, 0x84, 0x1c, 0xbf,
  0x8d, 0xf1, 0x80, 0xbe, 0x54, 0xc8, 0x06, 0xbf, 0x3b, 0xd1, 0x8c, 0xbe,
  0xd4, 0x74, 0xbd, 0xbe, 0x70, 0x0b, 0x2f, 0xbe, 0x27, 0xc9, 0xae, 0xbe,
  0xbe, 0x86, 0x14, 0x3e, 0x8f, 0xf4, 0x90, 0x3d, 0x9f, 0x05, 0xce, 0xbd,
  0x39, 0xd4, 0xb0, 0xbc, 0xfc, 0x15, 0x13, 0xbe, 0x5a, 0x92, 0x82, 0xbe,
  0x46, 0x40, 0x61, 0xbd, 0xa6, 0xc5, 0x80, 0xbb, 0xc5, 0x3a, 0x9b, 0xbe,
  0xb8, 0x73, 0x2b, 0x3d, 0x6f, 0x2d, 0x67, 0xbe, 0x05, 0x8c, 0x3f, 0xbf,
  0x13, 0x42, 0x28, 0x3d, 0xa6, 0x66, 0x37, 0xbe, 0x05, 0x72, 0x4a, 0xbe,
  0xee, 0x9f, 0x3b, 0xbe, 0x0e, 0x98, 0x47, 0xbe, 0xf8, 0x64, 0x88, 0xbc,
  0x23, 0xc5, 0x93, 0x3d, 0x0a, 0x80, 0xc4, 0x3d, 0xef, 0x61, 0xb2, 0xbd,
  0x6c, 0x9b, 0xaa, 0xbd, 0xb9, 0x89, 0x96, 0xbe, 0xa1, 0x5a, 0x02, 0xbe,
  0xd0, 0x98, 0xca, 0xbc, 0xcc, 0x01, 0x0e, 0xbd, 0xdc, 0x8d, 0x06, 0xbe,
  0xa8, 0x22, 0x32, 0xbf, 0xe9, 0xcc, 0xc0, 0xbe, 0x3c, 0x01, 0x92, 0xbe,
  0xd8, 0x01, 0x70, 0xbe, 0xbc, 0xd0, 0x74, 0xbe, 0x56, 0xb1, 0x69, 0xbe,
  0xe9, 0x25, 0xe7, 0x3d, 0x7a, 0x94, 0x53, 0xbc, 0x1b, 0x91, 0x83, 0xbe,
  0x99, 0x54, 0x39, 0xbe, 0x93, 0xfe, 0xab, 0xbe, 0xfa, 0xdc, 0x00, 0xbf,
  0x20, 0x8e, 0x23, 0xbe, 0xa8, 0xc1, 0xd3, 0x3a, 0xcc, 0x51, 0x12, 0xbf,
  0x6e, 0x41, 0xc9, 0xbc, 0x52, 0x79, 0x2d, 0xbf, 0xdc, 0xe4, 0x7b, 0xbe,
  0x1b, 0x83, 0x30, 0xbe, 0x6b, 0x81, 0x5c, 0xbe, 0xce, 0x0d, 0xde, 0xbe,
  0x17, 0x28, 0xa9, 0xbe, 0x16, 0xbd, 0x0c, 0x3e, 0x29, 0x4b, 0x85, 0xbd,
  0x44, 0x0a, 0xb6, 0xbc, 0x22, 0x35, 0x0d, 0x3e, 0xb1, 0xaa, 0x45, 0x3e,
  0x5d, 0x90, 0x44, 0x3e, 0x7f, 0x0f, 0x91, 0xbd, 0x99, 0x14, 0xb2, 0xbd,
  0x94, 0x5c, 0x76, 0xbd, 0xc5, 0x28, 0x1b, 0xbe, 0x81, 0x80, 0xbf, 0xbe,
  0xf9, 0x9a, 0xb0, 0x3e, 0x7e, 0xfa, 0xd8, 0xbe, 0x31, 0xfd, 0x8e, 0xbe,
  0xc9, 0x33, 0x8c, 0xbe, 0x4f, 0xc1, 0xb9, 0xbd, 0xcb, 0x5a, 0x0f, 0x3e,
  0x75, 0x60, 0x12, 0xbe, 0xc8, 0x8b, 0x61, 0x3d, 0x63, 0xf0, 0x87, 0x3e,
  0x6f, 0xcb, 0x56, 0x3e, 0xf6, 0x55, 0x73, 0x3e, 0xa6, 0xae, 0x7e, 0xbd,
  0x83, 0x89, 0x99, 0xb8, 0x81, 0x2d, 0xed, 0xba, 0xfd, 0xbf, 0xf3, 0xbd,
  0xe9, 0x79, 0xfd, 0xbe, 0x86, 0xa7, 0x09, 0x3e, 0xf9, 0x8a, 0xab, 0xbe,
  0xe2, 0xf3, 0xec, 0x3c, 0x48, 0x45, 0x1a, 0xbd, 0x3f, 0x1f, 0xac, 0xbc,
  0xfa, 0xc8, 0x5f, 0x3e, 0xbe, 0x9b, 0xda, 0xbd, 0x72, 0x62, 0x9a, 0x3b,
  0x27, 0xfb, 0xe0, 0x3c, 0xc6, 0x86, 0xc0, 0x3d, 0x7b, 0x89, 0xaf, 0x3d,
  0x8e, 0xba, 0x5f, 0x3d, 0x48, 0xc3, 0x2a, 0xbe, 0x91, 0x30, 0x88, 0x3b,
  0x45, 0x43, 0x51, 0xbe, 0x0b, 0x6b, 0x16, 0xbd, 0x58, 0x35, 0x16, 0x3e,
  0x7f, 0xad, 0x35, 0xbd, 0x24, 0x02, 0x70, 0x3b, 0x14, 0x46, 0x6d, 0x3c,
  0x51, 0xdc, 0x41, 0x3e, 0xd5, 0x0d, 0xfc, 0xbe, 0x5d, 0x8a, 0x28, 0x3f,
  0x49, 0x55, 0xd2, 0xbd, 0x4e, 0xa2, 0x75, 0xbe, 0x0f, 0xa1, 0x82, 0xbe,
  0x4d, 0xf8, 0x87, 0xbe, 0x2b, 0x12, 0x6d, 0xbe, 0xe8, 0x50, 0xb5, 0x3d,
  0x0e, 0xdc, 0x8f, 0x3d, 0x36, 0x96, 0xdd, 0xbd, 0x09, 0x44, 0xa7, 0x3e,
  0x2c, 0x2b, 0xdc, 0x3d, 0xc2, 0x5d, 0xb9, 0x3d, 0x42, 0xe0, 0x4d, 0x3e,
  0x3f, 0x58, 0x42, 0xb8, 0x4a, 0x06, 0xe4, 0xbd, 0xe4, 0xe9, 0x3d, 0xbe,
  0x99, 0x9c, 0xb4, 0x3e, 0xc5, 0x59, 0x9e, 0x3c, 0xa1, 0xfc, 0xeb, 0xbd,
  0x06, 0x6e, 0x37, 0xbd, 0x1f, 0x0e, 0x9b, 0xbd, 0x33, 0x09, 0xdb, 0xbb,
  0x51, 0xf1, 0x12, 0xbd, 0xdb, 0x2b, 0x91, 0x3d, 0x7c, 0x75, 0x28, 0xbe,
  0x0e, 0x8f, 0x95, 0x3d, 0x81, 0x86, 0xc0, 0x3c, 0x42, 0xf6, 0xa7, 0xbd,
  0x62, 0xf6, 0x8e, 0x3e, 0x89, 0x6b, 0x2b, 0xbe, 0xd3, 0x9a, 0x39, 0xbd,
  0xa0, 0x23, 0x5d, 0xbd, 0x0e, 0x6a, 0x70, 0x3f, 0xfa, 0x40, 0x46, 0x3e,
  0x6c, 0x14, 0xd4, 0xbd, 0x80, 0x36, 0x43, 0xbd, 0xd1, 0xac, 0xc0, 0x3d,
  0x71, 0xb2, 0xb8, 0xbd, 0xe4, 0x42, 0x8d, 0x3d, 0x20, 0x13, 0x0a, 0x3e,
  0x5a, 0x3c, 0x95, 0xbd, 0x81, 0xe8, 0x0e, 0xbe, 0x4d, 0x20, 0x73, 0x3e,
  0x7a, 0xe8, 0x06, 0xbe, 0xef, 0x5e, 0xac, 0x3e, 0xaf, 0xd7, 0x8e, 0xbe,
  0xf1, 0x14, 0x56, 0x3e, 0xf5, 0x4e, 0x95, 0xbe, 0x19, 0xfd, 0xdc, 0x3e,
  0x11, 0x86, 0xf0, 0x3d, 0x58, 0xcb, 0xb4, 0xbb, 0xad, 0x8b, 0x2a, 0xbc,
  0xd2, 0x92, 0xe5, 0xbd, 0x3a, 0x74, 0x99, 0xbd, 0xff, 0x13, 0x51, 0x3e,
  0xc7, 0xf8, 0x8e, 0x3d, 0xbb, 0x68, 0xa7, 0xbe, 0xa4, 0x2b, 0x6f, 0xbd,
  0x38, 0xce, 0x03, 0x3e, 0x23, 0xa9, 0x86, 0xbd, 0x18, 0xd4, 0x98, 0x3e,
  0x7e, 0x8a, 0x0e, 0x3d, 0xf1, 0x53, 0x35, 0x3e, 0x56, 0x6d, 0x6e, 0xbe,
  0x1c, 0x57, 0x4b, 0x3f, 0x0d, 0xe4, 0x81, 0xbd, 0xc5, 0xca, 0xb0, 0xbe,
  0xf5, 0x6f, 0x00, 0xbe, 0xd1, 0x34, 0xfb, 0xbe, 0x2d, 0x27, 0x0d, 0xbe,
  0x33, 0x59, 0xfb, 0x3d, 0xd7, 0xa7, 0x60, 0x3e, 0x67, 0x2c, 0x9c, 0xbd,
  0x82, 0x87, 0xa4, 0xbd, 0xaa, 0x48, 0xb5, 0xbd, 0xe2, 0xb2, 0xb1, 0xbd,
  0xbb, 0x90, 0xa5, 0x3e, 0xbb, 0x1f, 0xb0, 0xbd, 0x74, 0x35, 0x44, 0x3e,
  0x4f, 0x3f, 0x21, 0xbe, 0x08, 0x7f, 0x2a, 0x3f, 0xb6, 0x19, 0x42, 0xbc,
  0x33, 0x0d, 0x0e, 0xbf, 0x61, 0x45, 0xe1, 0xbe, 0x42, 0xef, 0x9e, 0xbe,
  0x5c, 0xdc, 0xba, 0xbd, 0x69, 0xb9, 0x07, 0x3e, 0xef, 0x51, 0x61, 0x3e,
  0x41, 0xfb, 0x73, 0xbe, 0x79, 0x92, 0x37, 0xbd, 0x60, 0x53, 0x43, 0xbe,
  0x66, 0xe1, 0xaa, 0x3d, 0x91, 0x76, 0xf0, 0x3e, 0xe8, 0x4f, 0xa0, 0xbe,
  0x95, 0xb5, 0x41, 0xbd, 0x26, 0x77, 0x95, 0x3c, 0x2b, 0xdb, 0xe8, 0x3d,
  0xe9, 0xe5, 0xcf, 0xbb, 0xd8, 0x13, 0x60, 0xbe, 0x6d, 0x32, 0xeb, 0xbe,
  0xfd, 0x34, 0xfe, 0x3d, 0x71, 0xc3, 0xee, 0xbe, 0xdf, 0x7f, 0xd0, 0xbd,
  0xd3, 0x0c, 0xa3, 0xbd, 0xc7, 0xf0, 0x46, 0xbe, 0x77, 0xc6, 0x47, 0xbd,
  0x7a, 0xac, 0xac, 0xbd, 0xce, 0xc9, 0xe0, 0xbd, 0x71, 0x84, 0xce, 0xbc,
  0xe8, 0xd5, 0xba, 0x3d, 0x66, 0xf4, 0xb4, 0xbc, 0xc2, 0x4e, 0xd6, 0xbe,
  0x7c, 0x17, 0x3a, 0x3e, 0xd1, 0x2c, 0x8c, 0xbe, 0x1e, 0xbc, 0x01, 0xbe,
  0x29, 0xce, 0xa8, 0xbd, 0xec, 0x8f, 0x4c, 0xbe, 0xbe, 0x60, 0x02, 0x3d,
  0xb6, 0xbe, 0xc7, 0x3e, 0xdd, 0x58, 0xf7, 0x3d, 0x18, 0x28, 0x18, 0xbd,
  0x48, 0xfb, 0xbe, 0x3d, 0x0e, 0x83, 0x7b, 0xbe, 0xe0, 0x36, 0x88, 0x3e,
  0xaa, 0xa5, 0x4e, 0xbe, 0xcd, 0x1a, 0xad, 0xbe, 0xa1, 0x1d, 0x2a, 0x3e,
  0x29, 0x13, 0x79, 0x3e, 0x59, 0xf7, 0x8d, 0xbe, 0xbb, 0x56, 0x2a, 0x3e,
  0x0d, 0x08, 0x53, 0xbe, 0x55, 0xb8, 0x15, 0xbe, 0x0c, 0x60, 0x7c, 0xbd,
  0x23, 0xa4, 0x76, 0xbd, 0x60, 0x47, 0x45, 0x3e, 0x5f, 0x8f, 0x57, 0x3e,
  0xe9, 0xeb, 0x82, 0xbd, 0xe5, 0x03, 0x12, 0x3e, 0x80, 0xf5, 0x0f, 0x3e,
  0x71, 0xaa, 0x00, 0x3e, 0x60, 0xaa, 0x99, 0xbd, 0x91, 0x79, 0x9b, 0xbe,
  0x41, 0x99, 0x85, 0x3d, 0x26, 0x64, 0x6d, 0x3d, 0x61, 0x51, 0x48, 0x3e,
  0x52, 0xa9, 0xf0, 0x3d, 0x9e, 0x92, 0xb7, 0xbd, 0x1c, 0xab, 0xa1, 0xbd,
  0x71, 0xdc, 0x00, 0x3e, 0x75, 0x71, 0xef, 0xbc, 0xf0, 0x90, 0x05, 0x3e,
  0x6e, 0x3b, 0xe0, 0xba, 0x2d, 0x62, 0xfa, 0x3d, 0x98, 0x8f, 0x3c, 0x3d,
  0x59, 0x13, 0x72, 0x3c, 0x6b, 0x22, 0x99, 0xbd, 0x1a, 0x6d, 0xa7, 0x3d,
  0xbb, 0x76, 0x05, 0x3d, 0xc6, 0x55, 0xec, 0x3d, 0x36, 0x23, 0x76, 0x3e,
  0x73, 0x30, 0xe5, 0xbd, 0x0a, 0xda, 0x87, 0xbc, 0xf2, 0x52, 0x45, 0x3e,
  0x4e, 0x5e, 0x0d, 0xbd, 0x91, 0xac, 0x0f, 0x3e, 0xc6, 0x94, 0x12, 0xbe,
  0xd0, 0xc7, 0xd9, 0xbc, 0x44, 0x00, 0xdd, 0x3d, 0x2a, 0x1b, 0x29, 0x3b,
  0x0f, 0xb1, 0xda, 0xbd, 0x88, 0xe5, 0x18, 0x3e, 0x31, 0x07, 0x2e, 0x3d,
  0xd8, 0x1f, 0xcb, 0xba, 0x65, 0xb7, 0x31, 0xbc, 0xed, 0x92, 0x99, 0x3e,
  0xa3, 0x47, 0x61, 0x3e, 0x10, 0x6a, 0x4a, 0xbd, 0x53, 0xc9, 0xd4, 0x3c,
  0x1c, 0x0d, 0x23, 0xbe, 0xcb, 0xe7, 0x15, 0xbe, 0x94, 0xe9, 0x0a, 0xbe,
  0xa5, 0xdd, 0x58, 0x3e, 0xf0, 0x10, 0x32, 0x3e, 0x20, 0x50, 0x01, 0x3e,
  0x67, 0x60, 0xd5, 0x3a, 0x8a, 0xe7, 0x5f, 0xbd, 0x27, 0xbd, 0x44, 0xbd,
  0xcd, 0xf5, 0xff, 0x3d, 0xb4, 0x55, 0x65, 0xbe, 0x31, 0xd8, 0x71, 0xbe,
  0xb2, 0x7a, 0x12, 0x3d, 0x6c, 0xd8, 0x85, 0xbe, 0x67, 0x64, 0x01, 0x3e,
  0xd1, 0x87, 0x4c, 0xbd, 0x5b, 0x2e, 0x02, 0xbe, 0x40, 0x4a, 0x40, 0xbe,
  0x02, 0xc5, 0x4d, 0xbe, 0x35, 0x6e, 0x9b, 0xbd, 0x66, 0x3b, 0xb1, 0x3e,
  0xf5, 0x3d, 0x9d, 0xbd, 0xa7, 0x57, 0x40, 0x3e, 0xd8, 0xe7, 0x0e, 0xbe,
  0xd1, 0xaa, 0xc8, 0xbc, 0x4c, 0x32, 0xa2, 0x3d, 0xae, 0x90, 0xa1, 0x3d,
  0x54, 0x42, 0x9f, 0x3d, 0xb9, 0x97, 0x8c, 0xbe, 0x71, 0xbf, 0xf6, 0xbc,
  0x61, 0x59, 0xd6, 0xbd, 0xe4, 0x39, 0x84, 0x3d, 0x14, 0x81, 0x94, 0x3b,
  0xf8, 0x88, 0x45, 0xbd, 0xe5, 0xf5, 0xdc, 0x3c, 0x9e, 0x99, 0x88, 0x3c,
  0x3e, 0x22, 0x4d, 0xbe, 0x7f, 0x23, 0x36, 0xbe, 0xe6, 0x80, 0xf9, 0xbd,
  0x54, 0xe9, 0x6f, 0xbe, 0x6a, 0x59, 0xaa, 0xbc, 0x98, 0xd6, 0x50, 0xbe,
  0x84, 0x78, 0x7f, 0xbe, 0xc2, 0x99, 0x37, 0x3d, 0xe9, 0xec, 0x8c, 0xbe,
  0xf6, 0xd1, 0x1d, 0x3e, 0xcd, 0xdd, 0xc9, 0xbd, 0x79, 0xdf, 0xf8, 0xbd,
  0x72, 0x1b, 0x1b, 0xbe, 0x9f, 0x25, 0xd7, 0xbd, 0x2d, 0x5d, 0x16, 0x3d,
  0x59, 0x90, 0xc5, 0x3d, 0x10, 0x6b, 0xef, 0x3c, 0xb3, 0x79, 0x6a, 0xbe,
  0x73, 0xf2, 0x41, 0xbd, 0xb8, 0x6c, 0x93, 0xbe, 0xf4, 0xd2, 0x46, 0x3d,
  0x2a, 0x24, 0x24, 0xbe, 0xda, 0xb8, 0x1a, 0xbe, 0xa4, 0x0b, 0x6e, 0xbe,
  0xd3, 0x15, 0x26, 0xbe, 0xca, 0x1d, 0x12, 0x3e, 0x7b, 0x1e, 0x10, 0xbe,
  0xac, 0xac, 0x89, 0x3d, 0xca, 0x70, 0x1c, 0xbe, 0x3f, 0x27, 0x28, 0xbe,
  0xa4, 0xbe, 0x40, 0xbe, 0xce, 0x24, 0xb7, 0x3d, 0x9c, 0xc2, 0x4f, 0xbd,
  0x14, 0xf4, 0x93, 0xbd, 0x4f, 0x7f, 0xb2, 0x3d, 0x65, 0x7a, 0x98, 0xbe,
  0x6f, 0xf5, 0x7e, 0xbe, 0x57, 0x12, 0xd6, 0xbd, 0x46, 0x76, 0xb8, 0xbc,
  0xf0, 0x1c, 0x81, 0xbe, 0xc9, 0x97, 0x81, 0xbd, 0x31, 0xa3, 0x87, 0xbb,
  0x39, 0xb9, 0x9b, 0x3c, 0x21, 0x7a, 0x2f, 0xbe, 0x2d, 0x85, 0x52, 0xbe,
  0x88, 0xdc, 0xad, 0xbd, 0x51, 0x40, 0x31, 0x3a, 0xd4, 0x5e, 0x88, 0xbe,
  0x2d, 0xbf, 0x92, 0xbd, 0xca, 0x25, 0xa8, 0x3d, 0xa5, 0xf2, 0x67, 0x3e,
  0x1f, 0xca, 0x1a, 0xbe, 0x16, 0xb1, 0x47, 0xbe, 0x81, 0x27, 0xfb, 0xbc,
  0xfb, 0x45, 0xe3, 0x3d, 0xd0, 0x40, 0x82, 0xbd, 0x57, 0x9e, 0x85, 0xbe,
  0xff, 0xa1, 0xd4, 0x3d, 0x39, 0x7d, 0xb0, 0x3d, 0xbf, 0xf0, 0x04, 0x3d,
  0x9d, 0xdb, 0xd5, 0xbb, 0x91, 0x8f, 0x0f, 0xbe, 0xf3, 0x2b, 0xbb, 0x3c,
  0xac, 0xcc, 0xff, 0x3d, 0xc1, 0x0a, 0x68, 0x3d, 0xf4, 0x71, 0xfb, 0xbd,
  0xab, 0xed, 0xf6, 0xbd, 0x94, 0x83, 0x1b, 0xbe, 0x61, 0x78, 0x09, 0xbe,
  0xaa, 0x77, 0x99, 0x3c, 0x98, 0xad, 0xba, 0xbd, 0xb0, 0x61, 0x98, 0x3c,
  0x90, 0xfc, 0x4e, 0x3d, 0x27, 0x6f, 0x25, 0x3d, 0x91, 0xa1, 0x5a, 0xbe,
  0xd6, 0x74, 0xac, 0x3d, 0x9d, 0xb3, 0xf2, 0x3d, 0x08, 0x94, 0xab, 0xbd,
  0x6b, 0xa6, 0x5c, 0xbe, 0x52, 0x51, 0x5a, 0x3e, 0x36, 0x2e, 0xa5, 0x3d,
  0xbc, 0x75, 0xcb, 0xbd, 0x1b, 0x3d, 0xeb, 0xbc, 0xac, 0x40, 0x9d, 0xbe,
  0x0c, 0x63, 0xa5, 0x3d, 0xcd, 0x30, 0x8f, 0xbe, 0x8b, 0x92, 0xc1, 0xbc,
  0x58, 0x1e, 0x35, 0xbe, 0xdd, 0x88, 0x30, 0xbe, 0xa8, 0x23, 0x9a, 0xbc,
  0x8b, 0x6c, 0xa1, 0xbd, 0x57, 0x02, 0x47, 0xbe, 0xaa, 0x0f, 0x17, 0xbe,
  0xee, 0x62, 0x60, 0xbe, 0xa1, 0xbb, 0xba, 0x3d, 0xa8, 0x2d, 0xcd, 0x3d,
  0x90, 0xf8, 0x5f, 0x3e, 0x0a, 0x9e, 0x90, 0xbe, 0xd8, 0x82, 0x5c, 0xbe,
  0x3b, 0x2e, 0xdc, 0xbe, 0x18, 0xef, 0x6b, 0xbe, 0xa4, 0x83, 0x27, 0xbe,
  0x2b, 0xef, 0xf9, 0x3c, 0x92, 0xd3, 0x2e, 0xbe, 0xf1, 0x47, 0x51, 0xbd,
  0xc1, 0x13, 0xb0, 0x3d, 0xdb, 0xe9, 0x3b, 0xbe, 0xde, 0xd7, 0x15, 0xbe,
  0x1e, 0x6f, 0xa3, 0xbc, 0xdb, 0x52, 0x3d, 0xbd, 0x3e, 0x32, 0xfb, 0x3c,
  0x3f, 0xad, 0xa2, 0x3e, 0x1b, 0x29, 0x30, 0xbe, 0x07, 0xb0, 0xb6, 0xbc,
  0x0b, 0x22, 0x87, 0xbe, 0xce, 0x23, 0xa4, 0xbe, 0x1c, 0xa8, 0x53, 0x3e,
  0xcd, 0x79, 0x53, 0xbe, 0xc7, 0x52, 0x1f, 0xbd, 0xcb, 0x5f, 0x61, 0x3c,
  0xa1, 0xdd, 0x4c, 0xbe, 0xa3, 0xf9, 0x8e, 0xbe, 0x12, 0x96, 0x22, 0x3d,
  0x5f, 0xca, 0xd0, 0x3d, 0x8f, 0x9e, 0x59, 0xbd, 0x55, 0x59, 0x68, 0x3c,
  0xf0, 0x62, 0x73, 0xbc, 0xc9, 0x9e, 0x1b, 0x3e, 0x31, 0xf9, 0xf1, 0xbc,
  0xd1, 0xdb, 0x6b, 0xbe, 0xe8, 0xcd, 0xd9, 0x3e, 0x04, 0xaa, 0x3c, 0xbf,
  0xb1, 0xe3, 0xaf, 0xbd, 0x33, 0x7f, 0x86, 0xbe, 0xc2, 0x24, 0x0a, 0xbe,
  0xd6, 0x6a, 0x4a, 0xbc, 0x63, 0x39, 0x84, 0x3c, 0xcc, 0x2d, 0xf8, 0x3c,
  0xf9, 0x5d, 0xc7, 0xbc, 0x7c, 0xf0, 0x95, 0xbd, 0xae, 0x38, 0xae, 0x3d,
  0x22, 0xd3, 0xd1, 0xbd, 0x55, 0x01, 0x3c, 0x3e, 0xe0, 0x3b, 0x65, 0x3e,
  0xe6, 0x78, 0x29, 0x3e, 0xa6, 0x96, 0xe1, 0xbd, 0xba, 0x86, 0x34, 0x3f,
  0x3a, 0x5d, 0x42, 0xbf, 0xe8, 0xf7, 0x58, 0x3d, 0x71, 0x18, 0xd1, 0xbd,
  0x10, 0x8b, 0x28, 0xbe, 0x29, 0x52, 0x17, 0x3e, 0x97, 0x24, 0x26, 0xbd,
  0x05, 0x8f, 0x7c, 0x3e, 0x15, 0x61, 0x79, 0x3c, 0xdf, 0x73, 0x1a, 0x3d,
  0xa2, 0x05, 0x1d, 0x3d, 0x1e, 0xe6, 0xa4, 0xbd, 0x1b, 0x56, 0xa9, 0x3e,
  0xd7, 0x23, 0x52, 0x3e, 0x3b, 0x6a, 0x8e, 0x3b, 0x96, 0x52, 0xbd, 0x3d,
  0x7c, 0x5f, 0x08, 0x3e, 0xd0, 0x5a, 0xdc, 0xbe, 0xee, 0x85, 0x1f, 0x3e,
  0xa8, 0xb2, 0x24, 0xbe, 0x3d, 0x43, 0xbf, 0x3d, 0xbc, 0x05, 0xd7, 0x3d,
  0xb9, 0x47, 0xe3, 0x3d, 0xbe, 0xcf, 0x2c, 0x3b, 0x63, 0x8c, 0xa6, 0xbd,
  0x2f, 0x0c, 0x5e, 0x3d, 0xa3, 0x21, 0x9c, 0xbd, 0xd3, 0xd8, 0x11, 0x3d,
  0x36, 0x80, 0x8f, 0x3e, 0x49, 0x0f, 0xad, 0x3e, 0xa2, 0x70, 0x9e, 0xbc,
  0xf8, 0xe5, 0x4d, 0xbd, 0x7b, 0x44, 0x6c, 0x3e, 0xe5, 0xad, 0x6b, 0xbe,
  0xf4, 0x95, 0x8f, 0xbd, 0x7b, 0xdc, 0x79, 0x3e, 0xeb, 0x70, 0x50, 0x3e,
  0x09, 0x2f, 0x49, 0x3e, 0x9e, 0xe4, 0x00, 0xbb, 0xde, 0x33, 0x65, 0x3e,
  0x89, 0xc5, 0x1a, 0xbe, 0xdb, 0x51, 0x9a, 0x3a, 0x9f, 0x01, 0xc5, 0x3d,
  0xac, 0x8c, 0xc5, 0x3c, 0xb4, 0x0e, 0x14, 0x3d, 0x16, 0xfb, 0x76, 0xbd,
  0x00, 0x3f, 0x86, 0x3e, 0xee, 0x67, 0x3f, 0xbe, 0x19, 0x32, 0xf5, 0x3e,
  0x3d, 0x90, 0xc4, 0xbe, 0x57, 0xe0, 0x91, 0x3c, 0xfd, 0xa4, 0x0a, 0xbe,
  0x0c, 0xc1, 0x82, 0xbe, 0x7e, 0xa4, 0x3e, 0x3e, 0xa6, 0xc3, 0x27, 0x3c,
  0x67, 0x98, 0x21, 0x3d, 0x51, 0x60, 0xa4, 0x3c, 0x27, 0x98, 0xf7, 0x3a,
  0x02, 0x53, 0x35, 0xbe, 0xec, 0xb7, 0x58, 0xbc, 0x81, 0x9f, 0x37, 0x3d,
  0xe8, 0xe9, 0x6a, 0x3e, 0x81, 0x69, 0xa2, 0x3e, 0xb7, 0x1b, 0x2f, 0xbd,
  0xfa, 0xec, 0x26, 0x3e, 0x7b, 0x16, 0x0a, 0xbf, 0x58, 0xee, 0x09, 0x3d,
  0x1f, 0x8f, 0xba, 0xbe, 0x7a, 0xde, 0xcf, 0xbc, 0xd9, 0x4e, 0x05, 0x3e,
  0x5b, 0x4d, 0x50, 0x3d, 0x3c, 0xa9, 0x7c, 0xbd, 0xf4, 0x40, 0x27, 0xbe,
  0xbe, 0x61, 0xbe, 0x3c, 0xeb, 0xd2, 0x83, 0x3c, 0x34, 0xf2, 0xd3, 0x3b,
  0x2b, 0x96, 0xef, 0xbd, 0xea, 0xcb, 0x3b, 0x3d, 0xbc, 0x15, 0xf1, 0xbb,
  0xc0, 0x3e, 0x88, 0xbe, 0x14, 0x0c, 0x46, 0x3c, 0x1c, 0x87, 0x5f, 0xbe,
  0x83, 0x5e, 0xd0, 0xbd, 0xd9, 0x1d, 0xf2, 0x3c, 0x37, 0x99, 0x4f, 0x3d,
  0x17, 0xf6, 0xd6, 0xbc, 0x42, 0x21, 0x8c, 0x3d, 0x21, 0xbe, 0x88, 0xbd,
  0x63, 0xb2, 0xee, 0x3e, 0x49, 0xdd, 0xb9, 0xbe, 0x0a, 0x04, 0x40, 0xbe,
  0x8c, 0xc2, 0xa7, 0xbe, 0xc8, 0x85, 0xd0, 0xbe, 0xbd, 0x0f, 0x9f, 0xbd,
  0xfb, 0xd7, 0x2e, 0xbe, 0x23, 0x9b, 0x41, 0xbe, 0xd4, 0xc5, 0x78, 0xbe,
  0x7b, 0xcd, 0xea, 0xbd, 0x05, 0x3b, 0x70, 0xbe, 0x3c, 0xaf, 0x28, 0xbe,
  0x0e, 0x72, 0x76, 0x3e, 0xd0, 0x94, 0x6e, 0xbe, 0x78, 0x48, 0xc5, 0xbd,
  0x5b, 0xa9, 0x26, 0x3c, 0x06, 0xd6, 0x22, 0x3f, 0x50, 0x63, 0x16, 0xbe,
  0x01, 0x3d, 0x76, 0xbd, 0xc1, 0x43, 0x7b, 0x3e, 0x57, 0xd2, 0x1a, 0x3d,
  0xc9, 0x51, 0x88, 0x3e, 0xee, 0xc8, 0xd6, 0xbc, 0x91, 0x35, 0xf1, 0x3d,
  0x6e, 0x26, 0x8e, 0xbd, 0x2d, 0x8d, 0x2a, 0xbe, 0x3a, 0xfb, 0x4a, 0x3d,
  0xa2, 0xe1, 0x66, 0xbe, 0x3c, 0x79, 0xd4, 0x3e, 0xb1, 0x2d, 0x1f, 0xbe,
  0x10, 0x21, 0xbe, 0x3d, 0x06, 0x24, 0x21, 0xbe, 0xf4, 0x3e, 0x51, 0x3f,
  0x2c, 0xda, 0x59, 0x3d, 0x96, 0x7a, 0x40, 0x3e, 0x2e, 0xb8, 0xc8, 0x3d,
  0x2a, 0x8c, 0x0c, 0x3e, 0x0b, 0x98, 0x45, 0x3e, 0xd2, 0x79, 0xe8, 0x3c,
  0xc1, 0x2b, 0x8f, 0x3e, 0x40, 0x4d, 0x43, 0x3e, 0xd6, 0xaa, 0xc9, 0xbe,
  0xda, 0x94, 0x4f, 0xbe, 0xa8, 0xe9, 0x42, 0x3d, 0x2e, 0x5d, 0xaf, 0x3e,
  0xc7, 0xc7, 0x25, 0xbe, 0x9d, 0x55, 0xdc, 0x3e, 0x82, 0x3b, 0x43, 0xbe,
  0x0b, 0x28, 0x64, 0x3f, 0xf8, 0x82, 0xcf, 0xbd, 0x8a, 0xec, 0x1f, 0xbe,
  0x88, 0xe2, 0xf6, 0x3d, 0xad, 0x70, 0x1f, 0xbe, 0xb6, 0x88, 0xb3, 0x3d,
  0x59, 0xf0, 0xd0, 0xbc, 0x6d, 0x20, 0xb5, 0x3e, 0x51, 0x1f, 0x5b, 0xbd,
  0x38, 0x50, 0xae, 0xbe, 0xcd, 0x32, 0x8c, 0x3d, 0x28, 0x1f, 0x82, 0x3c,
  0x26, 0x80, 0xc7, 0x3e, 0x96, 0x51, 0x37, 0xbd, 0x8f, 0x2b, 0x9f, 0x3e,
  0x49, 0x59, 0x5c, 0xbe, 0xf8, 0x55, 0x62, 0x3f, 0xa8, 0x95, 0xbf, 0xbe,
  0x67, 0xd1, 0x28, 0xbc, 0x4f, 0xad, 0x37, 0xbd, 0x41, 0x8c, 0x24, 0xbe,
  0x9c, 0x66, 0xcc, 0x3d, 0x9c, 0xf4, 0x59, 0xbc, 0x10, 0x92, 0x86, 0xbc,
  0x90, 0x3d, 0x8f, 0x3d, 0x1c, 0x79, 0x34, 0xbe, 0x4e, 0x4a, 0x52, 0x3c,
  0xd0, 0xf6, 0xb0, 0xbe, 0x86, 0xe0, 0x5b, 0x3e, 0xfe, 0x50, 0x36, 0xbe,
  0x9b, 0x0d, 0x97, 0x3c, 0x83, 0xa9, 0xed, 0xbc, 0x6e, 0x1b, 0xd2, 0x3e,
  0xd6, 0xa3, 0x04, 0xbc, 0x7c, 0xa3, 0x25, 0xbd, 0x71, 0x0a, 0x8e, 0xbc,
  0x69, 0x73, 0xdb, 0x3c, 0x10, 0xd5, 0x25, 0xbe, 0x85, 0xa3, 0x97, 0xbd,
  0x6b, 0xe8, 0x33, 0x3d, 0xaf, 0x5b, 0xea, 0xbd, 0x16, 0x83, 0x2d, 0x3d,
  0xf6, 0x42, 0xbb, 0xbd, 0xb0, 0x10, 0x2a, 0xbd, 0xde, 0x73, 0xbd, 0x3e,
  0xa1, 0xcd, 0x27, 0xbe, 0x4c, 0x4d, 0x8e, 0xbd, 0x7f, 0x22, 0x7b, 0xbe,
  0x6b, 0xd2, 0x65, 0x3c, 0xd2, 0xa5, 0x2f, 0xbe, 0x3d, 0xe2, 0x31, 0xbe,
  0x01, 0x40, 0x13, 0xbe, 0xbb, 0x88, 0x49, 0xbb, 0xd6, 0x3e, 0xa4, 0xbe,
  0x2a, 0xb3, 0x87, 0xbe, 0x36, 0xec, 0x1e, 0x3e, 0xd5, 0x3b, 0x82, 0xbd,
  0x09, 0x57, 0xe2, 0xbd, 0xfb, 0x94, 0x29, 0xbe, 0xa1, 0xfb, 0x21, 0xbe,
  0x10, 0xd1, 0xad, 0xbd, 0xa2, 0x4b, 0x2c, 0xbe, 0x71, 0x36, 0xef, 0x3d,
  0xdc, 0xb0, 0x5b, 0x3e, 0xfc, 0x8b, 0xe1, 0x3e, 0x20, 0x69, 0x2d, 0xbd,
  0x4a, 0x3f, 0x5b, 0xbd, 0x33, 0x95, 0x94, 0xb9, 0xac, 0x37, 0x29, 0x3d,
  0x94, 0x10, 0xbe, 0xbd, 0x3b, 0x46, 0xe2, 0xbd, 0xaf, 0x85, 0x87, 0x3d,
  0xf2, 0x4e, 0x8e, 0xbe, 0x89, 0xb0, 0x44, 0xbd, 0x74, 0x57, 0xd7, 0x3d,
  0x07, 0x63, 0x48, 0xbe, 0xb6, 0x88, 0x85, 0x3e, 0xdb, 0x4b, 0x30, 0x3e,
  0xee, 0xb0, 0xf3, 0x3c, 0x61, 0x6e, 0xe3, 0xbd, 0x83, 0xe1, 0xf2, 0x3e,
  0x78, 0xb9, 0xb6, 0xbd, 0xd1, 0x0c, 0xa0, 0x3c, 0x4d, 0x59, 0x32, 0x3d,
  0xc5, 0xa9, 0xb4, 0xbc, 0x48, 0x12, 0x4f, 0x3b, 0x7c, 0xbc, 0x1c, 0xbe,
  0xd9, 0x56, 0xd2, 0x3d, 0xd1, 0x3a, 0x7b, 0xbc, 0xbb, 0x1a, 0xff, 0xbd,
  0xee, 0x8d, 0xf9, 0xbc, 0x64, 0x42, 0x84, 0xbe, 0x41, 0xd8, 0x7d, 0x3e,
  0xd5, 0xef, 0x1e, 0xbd, 0x75, 0xbd, 0xd6, 0x3d, 0x66, 0x0e, 0xce, 0xbd,
  0x19, 0x2b, 0x83, 0x3f, 0x8a, 0xcc, 0xa3, 0x3c, 0xdd, 0x84, 0x88, 0xbd,
  0x30, 0x91, 0x8c, 0x3c, 0xde, 0xcc, 0xf4, 0xbd, 0x7c, 0x50, 0x19, 0xbe,
  0xfe, 0xba, 0x0d, 0xbe, 0x0a, 0x8f, 0x35, 0x3e, 0x60, 0x5a, 0x5d, 0xbd,
  0x40, 0x78, 0x09, 0xbe, 0x58, 0x86, 0x14, 0x3e, 0x51, 0xe9, 0x93, 0xbe,
  0x50, 0x01, 0xae, 0x3e, 0x5f, 0x6a, 0x99, 0xbe, 0x06, 0x2c, 0xb6, 0x3c,
  0x7b, 0x9a, 0x18, 0xbe, 0x32, 0xcc, 0xb9, 0x3e, 0x97, 0xa0, 0x03, 0x3d,
  0x24, 0xf1, 0xef, 0xbd, 0xb1, 0xfe, 0xaa, 0xbd, 0x0b, 0xa1, 0x2a, 0xbe,
  0x8e, 0x8a, 0x08, 0xbe, 0x1e, 0x8b, 0x22, 0xbd, 0x06, 0x73, 0x3e, 0x3d,
  0xee, 0xdd, 0x65, 0xbd, 0xb1, 0x8e, 0xa5, 0x3c, 0xc7, 0x23, 0x35, 0x3e,
  0x76, 0xa5, 0xac, 0xbc, 0x97, 0x28, 0x79, 0x3e, 0x68, 0x7f, 0x03, 0xbe,
  0xbf, 0xe4, 0xce, 0x3a, 0x5d, 0x62, 0xa4, 0x3c, 0x45, 0x47, 0xfa, 0x3e,
  0xbb, 0xb7, 0x76, 0x3d, 0x2a, 0x61, 0xc4, 0x3d, 0x47, 0x6d, 0x7c, 0x3b,
  0xfa, 0xbe, 0x79, 0xbd, 0xb5, 0x1e, 0x91, 0xbe, 0xc5, 0x7e, 0xc3, 0xbc,
  0x53, 0x11, 0x9d, 0x3d, 0x25, 0x10, 0x94, 0xbd, 0xb5, 0x1f, 0xca, 0x3d,
  0xc7, 0x62, 0xb5, 0x3e, 0xb0, 0x5d, 0x54, 0xbd, 0x74, 0xec, 0xf3, 0x3d,
  0xd6, 0x6c, 0xf4, 0xbd, 0xef, 0xae, 0x78, 0x3d, 0xd9, 0x5a, 0xc2, 0x39,
  0x5a, 0xbf, 0xbd, 0x3e, 0x7f, 0xb8, 0x53, 0x3d, 0x55, 0x05, 0xac, 0x3d,
  0x1b, 0x8f, 0x70, 0x3c, 0xe6, 0xe4, 0x40, 0xbd, 0xe1, 0x7f, 0x1d, 0xbd,
  0x34, 0xf2, 0x38, 0xbe, 0xb9, 0xad, 0x95, 0x3d, 0xc6, 0x13, 0xb2, 0x3c,
  0x9e, 0xd7, 0x6a, 0xbd, 0x31, 0xe1, 0x5d, 0x3e, 0x71, 0x7d, 0x0e, 0xbe,
  0x81, 0xdf, 0x00, 0x3e, 0xed, 0x4c, 0x0a, 0x3d, 0x5f, 0xac, 0xb2, 0x3c,
  0x9e, 0x82, 0xff, 0x3d, 0x90, 0xe1, 0xd9, 0x3d, 0x70, 0xa1, 0xda, 0x3b,
  0x4b, 0xe3, 0x9e, 0xbc, 0xc0, 0xf0, 0x27, 0x3c, 0xaf, 0xc6, 0xd7, 0xbc,
  0x57, 0x0f, 0x04, 0x3d, 0x22, 0xf8, 0x00, 0xbd, 0xa3, 0xeb, 0xa2, 0x3d,
  0x20, 0x20, 0xf4, 0xbd, 0x77, 0x73, 0x1e, 0x3c, 0x47, 0x20, 0x4b, 0x3d,
  0xa3, 0xe1, 0x59, 0xbd, 0x52, 0xbc, 0x55, 0xbc, 0x4d, 0x24, 0xe0, 0x3c,
  0x46, 0xfe, 0xff, 0xff, 0x10, 0x00, 0x00, 0x00, 0x05, 0x00, 0x00, 0x00,
  0x14, 0x00, 0x00, 0x00, 0x2c, 0x00, 0x00, 0x00, 0x02, 0x00, 0x00, 0x00,
  0x10, 0x00, 0x00, 0x00, 0x70, 0x00, 0x00, 0x00, 0x17, 0x00, 0x00, 0x00,
  0x73, 0x65, 0x71, 0x75, 0x65, 0x6e, 0x74, 0x69, 0x61, 0x6c, 0x2f, 0x64,
  0x65, 0x6e, 0x73, 0x65, 0x2f, 0x4d, 0x61, 0x74, 0x4d, 0x75, 0x6c, 0x00,
  0x34, 0xfe, 0xff, 0xff, 0x2a, 0xff, 0xff, 0xff, 0x04, 0x00, 0x00, 0x00,
  0x08, 0x00, 0x00, 0x00, 0xff, 0xff, 0xff, 0xff, 0x70, 0x00, 0x00, 0x00,
  0x00, 0x00, 0x0e, 0x00, 0x18, 0x00, 0x08, 0x00, 0x07, 0x00, 0x0c, 0x00,
  0x10, 0x00, 0x14, 0x00, 0x0e, 0x00, 0x00, 0x00, 0x00, 0x00, 0x00, 0x02,
  0x10, 0x00, 0x00, 0x00, 0x04, 0x00, 0x00, 0x00, 0x10, 0x00, 0x00, 0x00,
  0x2c, 0x00, 0x00, 0x00, 0x01, 0x00, 0x00, 0x00, 0x02, 0x00, 0x00, 0x00,
  0x18, 0x00, 0x00, 0x00, 0x73, 0x65, 0x71, 0x75, 0x65, 0x6e, 0x74, 0x69,
  0x61, 0x6c, 0x2f, 0x66, 0x6c, 0x61, 0x74, 0x74, 0x65, 0x6e, 0x2f, 0x43,
  0x6f, 0x6e, 0x73, 0x74, 0x00, 0x00, 0x00, 0x00, 0x9c, 0xfe, 0xff, 0xff,
  0x92, 0xff, 0xff, 0xff, 0x04, 0x00, 0x00, 0x00, 0x10, 0x00, 0x00, 0x00,
  0xb1, 0x22, 0x87, 0xc0, 0x17, 0x21, 0xb5, 0xc0, 0x45, 0x61, 0xba, 0x3f,
  0x05, 0x53, 0x98, 0x3f, 0x0a, 0xff, 0xff, 0xff, 0x10, 0x00, 0x00, 0x00,
  0x03, 0x00, 0x00, 0x00, 0x10, 0x00, 0x00, 0x00, 0x3c, 0x00, 0x00, 0x00,
  0x01, 0x00, 0x00, 0x00, 0x04, 0x00, 0x00, 0x00, 0x29, 0x00, 0x00, 0x00,
  0x73, 0x65, 0x71, 0x75, 0x65, 0x6e, 0x74, 0x69, 0x61, 0x6c, 0x2f, 0x64,
  0x65, 0x6e, 0x73, 0x65, 0x5f, 0x31, 0x2f, 0x42, 0x69, 0x61, 0x73, 0x41,
  0x64, 0x64, 0x2f, 0x52, 0x65, 0x61, 0x64, 0x56, 0x61, 0x72, 0x69, 0x61,
  0x62, 0x6c, 0x65, 0x4f, 0x70, 0x00, 0x00, 0x00, 0x60, 0xff, 0xff, 0xff,
  0x00, 0x00, 0x06, 0x00, 0x08, 0x00, 0x04, 0x00, 0x06, 0x00, 0x00, 0x00,
  0x04, 0x00, 0x00, 0x00, 0x40, 0x00, 0x00, 0x00, 0x89, 0xd9, 0xa3, 0x3f,
  0xe5, 0x80, 0x66, 0x3e, 0x5e, 0xf1, 0x11, 0x40, 0x0d, 0xba, 0xdf, 0x3e,
  0xde, 0x6c, 0x43, 0xbe, 0x08, 0x73, 0x94, 0x3c, 0x34, 0x78, 0xa6, 0x3f,
  0x42, 0xe2, 0x13, 0xbf, 0x2f, 0x67, 0x06, 0xbf, 0x36, 0x95, 0x44, 0xbe,
  0xba, 0x67, 0x3f, 0x3f, 0x8e, 0xee, 0xf2, 0xbd, 0xd1, 0x4d, 0x56, 0xbe,
  0x69, 0x5e, 0x15, 0x3f, 0x6b, 0xad, 0x8e, 0x3e, 0x88, 0xfe, 0x44, 0x3f,
  0xae, 0xff, 0xff, 0xff, 0x10, 0x00, 0x00, 0x00, 0x02, 0x00, 0x00, 0x00,
  0x10, 0x00, 0x00, 0x00, 0x3c, 0x00, 0x00, 0x00, 0x01, 0x00, 0x00, 0x00,
  0x10, 0x00, 0x00, 0x00, 0x27, 0x00, 0x00, 0x00, 0x73, 0x65, 0x71, 0x75,
  0x65, 0x6e, 0x74, 0x69, 0x61, 0x6c, 0x2f, 0x64, 0x65, 0x6e, 0x73, 0x65,
  0x2f, 0x42, 0x69, 0x61, 0x73, 0x41, 0x64, 0x64, 0x2f, 0x52, 0x65, 0x61,
  0x64, 0x56, 0x61, 0x72, 0x69, 0x61, 0x62, 0x6c, 0x65, 0x4f, 0x70, 0x00,
  0x04, 0x00, 0x06, 0x00, 0x04, 0x00, 0x00, 0x00, 0x00, 0x00, 0x0e, 0x00,
  0x14, 0x00, 0x04, 0x00, 0x00, 0x00, 0x08, 0x00, 0x0c, 0x00, 0x10, 0x00,
  0x0e, 0x00, 0x00, 0x00, 0x10, 0x00, 0x00, 0x00, 0x01, 0x00, 0x00, 0x00,
  0x1c, 0x00, 0x00, 0x00, 0x2c, 0x00, 0x00, 0x00, 0x04, 0x00, 0x00, 0x00,
  0x01, 0x00, 0x00, 0x00, 0x40, 0x00, 0x00, 0x00, 0x03, 0x00, 0x00, 0x00,
  0x01, 0x00, 0x00, 0x00, 0x0c, 0x00, 0x00, 0x00, 0x63, 0x6f, 0x6e, 0x76,
  0x32, 0x64, 0x5f, 0x69, 0x6e, 0x70, 0x75, 0x74, 0x00, 0x00, 0x00, 0x00,
  0xfc, 0xff, 0xff, 0xff, 0x04, 0x00, 0x04, 0x00, 0x04, 0x00, 0x00, 0x00
};


unsigned int model_tflite_len = 12384;// Fill the int in `src/model.cc` here