#include "magic_wand_model_data.h"


// We need to keep the data array aligned on some architectures.

#ifdef __has_attribute

#define HAVE_ATTRIBUTE(x) __has_attribute(x)

#else

#define HAVE_ATTRIBUTE(x) 0

#endif

#if HAVE_ATTRIBUTE(aligned) || (defined(__GNUC__) && !defined(__clang__))

#define DATA_ALIGN_ATTRIBUTE __attribute__((aligned(4)))

#else

#define DATA_ALIGN_ATTRIBUTE

#endif


const unsigned char g_magic_wand_model_data[] DATA_ALIGN_ATTRIBUTE = {

  // Paste the data of the char array in `src/model.cc` here
  0x08, 0x00, 0x00, 0x00, 0x54, 0x46, 0x4c, 0x33, 0x62, 0xff, 0xff, 0xff,
  0x03, 0x00, 0x00, 0x00, 0x10, 0x00, 0x00, 0x00, 0x24, 0x00, 0x00, 0x00,
  0x78, 0x00, 0x00, 0x00, 0x24, 0x00, 0x00, 0x00, 0x05, 0x00, 0x00, 0x00,
  0x78, 0x05, 0x00, 0x00, 0xb0, 0x04, 0x00, 0x00, 0xe0, 0x02, 0x00, 0x00,
  0x60, 0x02, 0x00, 0x00, 0x54, 0x01, 0x00, 0x00, 0x01, 0x00, 0x00, 0x00,
  0x78, 0x00, 0x00, 0x00, 0x13, 0x00, 0x00, 0x00, 0x18, 0x30, 0x00, 0x00,
  0x14, 0x30, 0x00, 0x00, 0x20, 0x2f, 0x00, 0x00, 0xa8, 0x2e, 0x00, 0x00,
  0x3c, 0x2e, 0x00, 0x00, 0xec, 0x11, 0x00, 0x00, 0x98, 0x10, 0x00, 0x00,
  0xbc, 0x0e, 0x00, 0x00, 0x60, 0x06, 0x00, 0x00, 0xfc, 0x05, 0x00, 0x00,
  0x78, 0x05, 0x00, 0x00, 0xec, 0x2f, 0x00, 0x00, 0xe8, 0x2f, 0x00, 0x00,
  0xe4, 0x2f, 0x00, 0x00, 0xe0, 0x2f, 0x00, 0x00, 0xdc, 0x2f, 0x00, 0x00,
  0xd8, 0x2f, 0x00, 0x00, 0xd4, 0x2f, 0x00, 0x00, 0xd0, 0x2f, 0x00, 0x00,
  0x0f, 0x00, 0x00, 0x00, 0x4d, 0x4c, 0x49, 0x52, 0x20, 0x43, 0x6f, 0x6e,
  0x76, 0x65, 0x72, 0x74, 0x65, 0x64, 0x2e, 0x00, 0x00, 0x00, 0x0e, 0x00,
  0x18, 0x00, 0x04, 0x00, 0x08, 0x00, 0x0c, 0x00, 0x10, 0x00, 0x14, 0x00,
  0x0e, 0x00, 0x00, 0x00, 0x14, 0x00, 0x00, 0x00, 0x5c, 0x00, 0x00, 0x00,
  0x60, 0x00, 0x00, 0x00, 0x64, 0x00, 0x00, 0x00, 0x84, 0x00, 0x00, 0x00,
  0x12, 0x00, 0x00, 0x00, 0x48, 0x2f, 0x00, 0x00, 0xe4, 0x2e, 0x00, 0x00,
  0x3c, 0x2e, 0x00, 0x00, 0xd8, 0x2d, 0x00, 0x00, 0x70, 0x2d, 0x00, 0x00,
  0x1c, 0x11, 0x00, 0x00, 0xc0, 0x0f, 0x00, 0x00, 0xe4, 0x0d, 0x00, 0x00,
  0xa0, 0x05, 0x00, 0x00, 0x3c, 0x05, 0x00, 0x00, 0xb0, 0x04, 0x00, 0x00,
  0xe8, 0x03, 0x00, 0x00, 0x38, 0x03, 0x00, 0x00, 0xa4, 0x02, 0x00, 0x00,
  0x10, 0x02, 0x00, 0x00, 0x90, 0x01, 0x00, 0x00, 0xfc, 0x00, 0x00, 0x00,
  0x80, 0x00, 0x00, 0x00, 0x01, 0x00, 0x00, 0x00, 0x00, 0x00, 0x00, 0x00,
  0x01, 0x00, 0x00, 0x00, 0x11, 0x00, 0x00, 0x00, 0x08, 0x00, 0x00, 0x00,
  0x1c, 0x04, 0x00, 0x00, 0x58, 0x03, 0x00, 0x00, 0xc8, 0x02, 0x00, 0x00,
  0x24, 0x02, 0x00, 0x00, 0xac, 0x01, 0x00, 0x00, 0x10, 0x01, 0x00, 0x00,
  0x94, 0x00, 0x00, 0x00, 0x10, 0x00, 0x00, 0x00, 0x04, 0x00, 0x00, 0x00,
  0x6d, 0x61, 0x69, 0x6e, 0x00, 0x00, 0x00, 0x00, 0x8e, 0xff, 0xff, 0xff,
  0x00, 0x00, 0x00, 0x09, 0x04, 0x00, 0x00, 0x00, 0x1c, 0x00, 0x00, 0x00,
  0x10, 0x00, 0x00, 0x00, 0x04, 0x00, 0x00, 0x00, 0x0a, 0xd2, 0xff, 0xff,
  0x00, 0x00, 0x80, 0x3f, 0x01, 0x00, 0x00, 0x00, 0x11, 0x00, 0x00, 0x00,
  0x01, 0x00, 0x00, 0x00, 0x10, 0x00, 0x00, 0x00, 0xf6, 0xfb, 0xff, 0xff,
  0x00, 0x00, 0x00, 0x19, 0x01, 0x00, 0x00, 0x00, 0x8a, 0xd1, 0xff, 0xff,
  0x10, 0x00, 0x00, 0x00, 0x12, 0x00, 0x00, 0x00, 0x14, 0x00, 0x00, 0x00,
  0x20, 0x00, 0x00, 0x00, 0x02, 0x00, 0x00, 0x00, 0x01, 0x00, 0x00, 0x00,
  0x04, 0x00, 0x00, 0x00, 0x08, 0x00, 0x00, 0x00, 0x49, 0x64, 0x65, 0x6e,
  0x74, 0x69, 0x74, 0x79, 0x00, 0x00, 0x00, 0x00, 0xc4, 0xd1, 0xff, 0xff,
  0x00, 0x00, 0x0e, 0x00, 0x18, 0x00, 0x08, 0x00, 0x0c, 0x00, 0x10, 0x00,
  0x07, 0x00, 0x14, 0x00, 0x0e, 0x00, 0x00, 0x00, 0x00, 0x00, 0x00, 0x08,
  0x03, 0x00, 0x00, 0x00, 0x18, 0x00, 0x00, 0x00, 0x0c, 0x00, 0x00, 0x00,
  0x04, 0x00, 0x00, 0x00, 0x98, 0xd1, 0xff, 0xff, 0x01, 0x00, 0x00, 0x00,
  0x10, 0x00, 0x00, 0x00, 0x03, 0x00, 0x00, 0x00, 0x0f, 0x00, 0x00, 0x00,
  0x05, 0x00, 0x00, 0x00, 0x02, 0x00, 0x00, 0x00, 0x02, 0xd2, 0xff, 0xff,
  0x10, 0x00, 0x00, 0x00, 0x11, 0x00, 0x00, 0x00, 0x14, 0x00, 0x00, 0x00,
  0x30, 0x00, 0x00, 0x00, 0x02, 0x00, 0x00, 0x00, 0x01, 0x00, 0x00, 0x00,
  0x04, 0x00, 0x00, 0x00, 0x1a, 0x00, 0x00, 0x00, 0x73, 0x65, 0x71, 0x75,
  0x65, 0x6e, 0x74, 0x69, 0x61, 0x6c, 0x2f, 0x64, 0x65, 0x6e, 0x73, 0x65,
  0x5f, 0x31, 0x2f, 0x42, 0x69, 0x61, 0x73, 0x41, 0x64, 0x64, 0x00, 0x00,
  0xf4, 0xd1, 0xff, 0xff, 0xd6, 0xfd, 0xff, 0xff, 0x00, 0x00, 0x00, 0x08,
  0x03, 0x00, 0x00, 0x00, 0x24, 0x00, 0x00, 0x00, 0x18, 0x00, 0x00, 0x00,
  0x0c, 0x00, 0x00, 0x00, 0x00, 0x00, 0x06, 0x00, 0x08, 0x00, 0x07, 0x00,
  0x06, 0x00, 0x00, 0x00, 0x00, 0x00, 0x00, 0x01, 0x01, 0x00, 0x00, 0x00,
  0x0f, 0x00, 0x00, 0x00, 0x03, 0x00, 0x00, 0x00, 0x0e, 0x00, 0x00, 0x00,
  0x04, 0x00, 0x00, 0x00, 0x01, 0x00, 0x00, 0x00, 0xfe, 0xfc, 0xff, 0xff,
  0x00, 0x00, 0x00, 0x09, 0x01, 0x00, 0x00, 0x00, 0x92, 0xd2, 0xff, 0xff,
  0x10, 0x00, 0x00, 0x00, 0x10, 0x00, 0x00, 0x00, 0x14, 0x00, 0x00, 0x00,
  0x2c, 0x00, 0x00, 0x00, 0x02, 0x00, 0x00, 0x00, 0x01, 0x00, 0x00, 0x00,
  0x10, 0x00, 0x00, 0x00, 0x15, 0x00, 0x00, 0x00, 0x73, 0x65, 0x71, 0x75,
  0x65, 0x6e, 0x74, 0x69, 0x61, 0x6c, 0x2f, 0x64, 0x65, 0x6e, 0x73, 0x65,
  0x2f, 0x52, 0x65, 0x6c, 0x75, 0x00, 0x00, 0x00, 0xd8, 0xd2, 0xff, 0xff,
  0x00, 0x00, 0x0a, 0x00, 0x10, 0x00, 0x04, 0x00, 0x08, 0x00, 0x0c, 0x00,
  0x0a, 0x00, 0x00, 0x00, 0x02, 0x00, 0x00, 0x00, 0x10, 0x00, 0x00, 0x00,
  0x04, 0x00, 0x00, 0x00, 0x01, 0x00, 0x00, 0x00, 0x0e, 0x00, 0x00, 0x00,
  0x02, 0x00, 0x00, 0x00, 0x0d, 0x00, 0x00, 0x00, 0x03, 0x00, 0x00, 0x00,
  0x7a, 0xfd, 0xff, 0xff, 0x00, 0x00, 0x00, 0x16, 0x01, 0x00, 0x00, 0x00,
  0x0e, 0xd3, 0xff, 0xff, 0x10, 0x00, 0x00, 0x00, 0x0f, 0x00, 0x00, 0x00,
  0x14, 0x00, 0x00, 0x00, 0x30, 0x00, 0x00, 0x00, 0x02, 0x00, 0x00, 0x00,
  0x01, 0x00, 0x00, 0x00, 0x70, 0x00, 0x00, 0x00, 0x1a, 0x00, 0x00, 0x00,
  0x73, 0x65, 0x71, 0x75, 0x65, 0x6e, 0x74, 0x69, 0x61, 0x6c, 0x2f, 0x66,
  0x6c, 0x61, 0x74, 0x74, 0x65, 0x6e, 0x2f, 0x52, 0x65, 0x73, 0x68, 0x61,
  0x70, 0x65, 0x00, 0x00, 0x00, 0xd3, 0xff, 0xff, 0xe2, 0xfe, 0xff, 0xff,
  0x00, 0x00, 0x00, 0x05, 0x01, 0x00, 0x00, 0x00, 0x38, 0x00, 0x00, 0x00,
  0x2c, 0x00, 0x00, 0x00, 0x14, 0x00, 0x00, 0x00, 0x00, 0x00, 0x0e, 0x00,
  0x14, 0x00, 0x00, 0x00, 0x10, 0x00, 0x0c, 0x00, 0x08, 0x00, 0x04, 0x00,
  0x0e, 0x00, 0x00, 0x00, 0x03, 0x00, 0x00, 0x00, 0x01, 0x00, 0x00, 0x00,
  0x03, 0x00, 0x00, 0x00, 0x01, 0x00, 0x00, 0x00, 0x01, 0x00, 0x00, 0x00,
  0x0d, 0x00, 0x00, 0x00, 0x01, 0x00, 0x00, 0x00, 0x0c, 0x00, 0x00, 0x00,
  0x9e, 0xd3, 0xff, 0xff, 0x10, 0x00, 0x00, 0x00, 0x0e, 0x00, 0x00, 0x00,
  0x1c, 0x00, 0x00, 0x00, 0x40, 0x00, 0x00, 0x00, 0x04, 0x00, 0x00, 0x00,
  0x01, 0x00, 0x00, 0x00, 0x07, 0x00, 0x00, 0x00, 0x01, 0x00, 0x00, 0x00,
  0x10, 0x00, 0x00, 0x00, 0x22, 0x00, 0x00, 0x00, 0x73, 0x65, 0x71, 0x75,
  0x65, 0x6e, 0x74, 0x69, 0x61, 0x6c, 0x2f, 0x6d, 0x61, 0x78, 0x5f, 0x70,
  0x6f, 0x6f, 0x6c, 0x69, 0x6e, 0x67, 0x32, 0x64, 0x5f, 0x31, 0x2f, 0x4d,
  0x61, 0x78, 0x50, 0x6f, 0x6f, 0x6c, 0x00, 0x00, 0xa0, 0xd3, 0xff, 0xff,
  0xc2, 0xfe, 0xff, 0xff, 0x00, 0x00, 0x00, 0x01, 0x24, 0x00, 0x00, 0x00,
  0x18, 0x00, 0x00, 0x00, 0x04, 0x00, 0x00, 0x00, 0xb4, 0xfe, 0xff, 0xff,
  0x01, 0x00, 0x00, 0x00, 0x01, 0x00, 0x00, 0x00, 0x00, 0x00, 0x00, 0x01,
  0x01, 0x00, 0x00, 0x00, 0x0c, 0x00, 0x00, 0x00, 0x03, 0x00, 0x00, 0x00,
  0x0b, 0x00, 0x00, 0x00, 0x07, 0x00, 0x00, 0x00, 0x09, 0x00, 0x00, 0x00,
  0x2e, 0xd4, 0xff, 0xff, 0x10, 0x00, 0x00, 0x00, 0x0d, 0x00, 0x00, 0x00,
  0x1c, 0x00, 0x00, 0x00, 0x2c, 0x00, 0x00, 0x00, 0x04, 0x00, 0x00, 0x00,
  0x01, 0x00, 0x00, 0x00, 0x15, 0x00, 0x00, 0x00, 0x01, 0x00, 0x00, 0x00,
  0x10, 0x00, 0x00, 0x00, 0x0c, 0x00, 0x00, 0x00, 0x74, 0x66, 0x6c, 0x2e,
  0x63, 0x6f, 0x6e, 0x76, 0x5f, 0x32, 0x64, 0x31, 0x00, 0x00, 0x00, 0x00,
  0x74, 0xd4, 0xff, 0xff, 0x00, 0x00, 0x0e, 0x00, 0x1a, 0x00, 0x08, 0x00,
  0x0c, 0x00, 0x10, 0x00, 0x07, 0x00, 0x14, 0x00, 0x0e, 0x00, 0x00, 0x00,
  0x00, 0x00, 0x00, 0x05, 0x01, 0x00, 0x00, 0x00, 0x3c, 0x00, 0x00, 0x00,
  0x30, 0x00, 0x00, 0x00, 0x14, 0x00, 0x00, 0x00, 0x00, 0x00, 0x0e, 0x00,
  0x18, 0x00, 0x17, 0x00, 0x10, 0x00, 0x0c, 0x00, 0x08, 0x00, 0x04, 0x00,
  0x0e, 0x00, 0x00, 0x00, 0x03, 0x00, 0x00, 0x00, 0x03, 0x00, 0x00, 0x00,
  0x03, 0x00, 0x00, 0x00, 0x03, 0x00, 0x00, 0x00, 0x00, 0x00, 0x00, 0x01,
  0x01, 0x00, 0x00, 0x00, 0x0b, 0x00, 0x00, 0x00, 0x01, 0x00, 0x00, 0x00,
  0x0a, 0x00, 0x00, 0x00, 0x46, 0xff, 0xff, 0xff, 0x00, 0x00, 0x00, 0x11,
  0x01, 0x00, 0x00, 0x00, 0xda, 0xd4, 0xff, 0xff, 0x10, 0x00, 0x00, 0x00,
  0x0c, 0x00, 0x00, 0x00, 0x1c, 0x00, 0x00, 0x00, 0x40, 0x00, 0x00, 0x00,
  0x04, 0x00, 0x00, 0x00, 0x01, 0x00, 0x00, 0x00, 0x15, 0x00, 0x00, 0x00,
  0x01, 0x00, 0x00, 0x00, 0x08, 0x00, 0x00, 0x00, 0x20, 0x00, 0x00, 0x00,
  0x73, 0x65, 0x71, 0x75, 0x65, 0x6e, 0x74, 0x69, 0x61, 0x6c, 0x2f, 0x6d,
  0x61, 0x78, 0x5f, 0x70, 0x6f, 0x6f, 0x6c, 0x69, 0x6e, 0x67, 0x32, 0x64,
  0x2f, 0x4d, 0x61, 0x78, 0x50, 0x6f, 0x6f, 0x6c, 0x00, 0x00, 0x00, 0x00,
  0x34, 0xd5, 0xff, 0xff, 0x00, 0x00, 0x0e, 0x00, 0x14, 0x00, 0x00, 0x00,
  0x08, 0x00, 0x0c, 0x00, 0x07, 0x00, 0x10, 0x00, 0x0e, 0x00, 0x00, 0x00,
  0x00, 0x00, 0x00, 0x01, 0x30, 0x00, 0x00, 0x00, 0x24, 0x00, 0x00, 0x00,
  0x10, 0x00, 0x00, 0x00, 0x0c, 0x00, 0x10, 0x00, 0x00, 0x00, 0x04, 0x00,
  0x08, 0x00, 0x0f, 0x00, 0x0c, 0x00, 0x00, 0x00, 0x01, 0x00, 0x00, 0x00,
  0x01, 0x00, 0x00, 0x00, 0x00, 0x00, 0x00, 0x01, 0x01, 0x00, 0x00, 0x00,
  0x0a, 0x00, 0x00, 0x00, 0x03, 0x00, 0x00, 0x00, 0x00, 0x00, 0x00, 0x00,
  0x06, 0x00, 0x00, 0x00, 0x08, 0x00, 0x00, 0x00, 0x00, 0x00, 0x0a, 0x00,
  0x0c, 0x00, 0x07, 0x00, 0x00, 0x00, 0x08, 0x00, 0x0a, 0x00, 0x00, 0x00,
  0x00, 0x00, 0x00, 0x03, 0x01, 0x00, 0x00, 0x00, 0x9e, 0xd5, 0xff, 0xff,
  0x10, 0x00, 0x00, 0x00, 0x0b, 0x00, 0x00, 0x00, 0x1c, 0x00, 0x00, 0x00,
  0x28, 0x00, 0x00, 0x00, 0x04, 0x00, 0x00, 0x00, 0x01, 0x00, 0x00, 0x00,
  0x40, 0x00, 0x00, 0x00, 0x03, 0x00, 0x00, 0x00, 0x08, 0x00, 0x00, 0x00,
  0x0b, 0x00, 0x00, 0x00, 0x74, 0x66, 0x6c, 0x2e, 0x63, 0x6f, 0x6e, 0x76,
  0x5f, 0x32, 0x64, 0x00, 0x88, 0xd5, 0xff, 0xff, 0x7e, 0xd6, 0xff, 0xff,
  0x04, 0x00, 0x00, 0x00, 0x40, 0x00, 0x00, 0x00, 0x17, 0xda, 0x51, 0xbe,
  0x91, 0x01, 0x36, 0x3f, 0x4e, 0x44, 0x43, 0x3e, 0xc8, 0xb7, 0x39, 0xbf,
  0xa8, 0xae, 0x52, 0xbf, 0x49, 0x3d, 0x2d, 0xbf, 0x43, 0x71, 0x8f, 0x3e,
  0xdc, 0x41, 0xf0, 0xbf, 0xe1, 0xac, 0xcc, 0xbe, 0x64, 0xee, 0xcd, 0xbf,
  0xb9, 0x3a, 0xee, 0xbf, 0x2d, 0xda, 0x62, 0x40, 0x49, 0xfa, 0xc8, 0x3c,
  0x80, 0x47, 0xe2, 0xbe, 0xc1, 0xdb, 0x30, 0xbf, 0x6c, 0x6d, 0xf0, 0xbc,
  0x26, 0xd6, 0xff, 0xff, 0x10, 0x00, 0x00, 0x00, 0x0a, 0x00, 0x00, 0x00,
  0x10, 0x00, 0x00, 0x00, 0x20, 0x00, 0x00, 0x00, 0x01, 0x00, 0x00, 0x00,
  0x10, 0x00, 0x00, 0x00, 0x0d, 0x00, 0x00, 0x00, 0x73, 0x74, 0x64, 0x2e,
  0x63, 0x6f, 0x6e, 0x73, 0x74, 0x61, 0x6e, 0x74, 0x31, 0x00, 0x00, 0x00,
  0x08, 0xd6, 0xff, 0xff, 0xfe, 0xd6, 0xff, 0xff, 0x04, 0x00, 0x00, 0x00,
  0x20, 0x00, 0x00, 0x00, 0x08, 0x1c, 0xc6, 0xbf, 0xbf, 0x9b, 0x19, 0x40,
  0xef, 0xfe, 0xd0, 0xbf, 0x8d, 0x62, 0xd5, 0xbf, 0x24, 0x15, 0xae, 0x3f,
  0xd0, 0x07, 0x1c, 0xbf, 0xdf, 0x64, 0x13, 0xc0, 0xef, 0xe5, 0x07, 0xc0,
  0x86, 0xd6, 0xff, 0xff, 0x10, 0x00, 0x00, 0x00, 0x09, 0x00, 0x00, 0x00,
  0x10, 0x00, 0x00, 0x00, 0x20, 0x00, 0x00, 0x00, 0x01, 0x00, 0x00, 0x00,
  0x08, 0x00, 0x00, 0x00, 0x0c, 0x00, 0x00, 0x00, 0x73, 0x74, 0x64, 0x2e,
  0x63, 0x6f, 0x6e, 0x73, 0x74, 0x61, 0x6e, 0x74, 0x00, 0x00, 0x00, 0x00,
  0x68, 0xd6, 0xff, 0xff, 0x5e, 0xd7, 0xff, 0xff, 0x04, 0x00, 0x00, 0x00,
  0x00, 0x08, 0x00, 0x00, 0x2d, 0x97, 0xf2, 0xbe, 0x71, 0xce, 0xdf, 0xbd,
  0x94, 0xf7, 0xfb, 0xbc, 0xf8, 0x69, 0x20, 0xbf, 0xdd, 0x9b, 0x41, 0xbe,
  0xd6, 0x69, 0x1b, 0xbe, 0xea, 0x10, 0x53, 0xbe, 0x1c, 0x00, 0x06, 0xbe,
  0x8b, 0x6f, 0x60, 0x3e, 0x9f, 0x71, 0x12, 0x3e, 0x6d, 0xd9, 0xaf, 0xbb,
  0xf9, 0xde, 0x0e, 0xbe, 0xb3, 0xa6, 0x21, 0x3e, 0x83, 0xea, 0xa4, 0x3d,
  0xd4, 0xfe, 0xda, 0x3d, 0x33, 0x59, 0x09, 0x3e, 0x76, 0x2c, 0xe1, 0x3d,
  0x66, 0x84, 0x29, 0x3e, 0x3e, 0x2a, 0xbe, 0xbc, 0xa8, 0xc2, 0x22, 0x3c,
  0xe1, 0xfc, 0xe5, 0x3d, 0x86, 0xcb, 0x1e, 0xbe, 0x0c, 0xca, 0x1d, 0x3c,
  0xd8, 0x28, 0x27, 0x3e, 0xf3, 0x23, 0x59, 0x3d, 0xa4, 0xe2, 0x13, 0xbe,
  0x9c, 0x68, 0x38, 0xbd, 0xac, 0xc3, 0x03, 0xbe, 0xce, 0x26, 0xb1, 0xbd,
  0x58, 0xa6, 0xd3, 0xbd, 0x3b, 0x0d, 0x5e, 0x3c, 0x3e, 0xa1, 0xc1, 0x3d,
  0x20, 0x89, 0xb9, 0xbe, 0x25, 0x37, 0xa4, 0xbe, 0x55, 0x67, 0x94, 0x3d,
  0x83, 0x9a, 0xf3, 0xbd, 0x4b, 0x3c, 0x9b, 0xbe, 0xba, 0xd6, 0x15, 0xbe,
  0x73, 0xc1, 0x08, 0x3e, 0xe8, 0x22, 0x82, 0x3c, 0x5d, 0x89, 0x62, 0xbe,
  0x32, 0x94, 0x18, 0xbe, 0x5d, 0x6f, 0x3b, 0xbb, 0xb5, 0x7f, 0x60, 0xbe,
  0xb8, 0x87, 0x27, 0xbe, 0x4d, 0x46, 0x96, 0xbd, 0xd5, 0xb3, 0x74, 0x3e,
  0x00, 0x6c, 0xa0, 0x3e, 0x63, 0x9b, 0xd2, 0xbd, 0xe6, 0x3f, 0xd5, 0x3d,
  0xd1, 0xa6, 0x18, 0x3d, 0xd4, 0x35, 0x53, 0xbe, 0xcb, 0x0e, 0x96, 0x3d,
  0xf1, 0x9d, 0x1e, 0xbe, 0xe3, 0x9d, 0x1c, 0x3b, 0x77, 0x6e, 0x3b, 0xbc,
  0x4b, 0x60, 0xbc, 0xbd, 0xd6, 0xb8, 0xe3, 0x3e, 0x02, 0xde, 0x33, 0xbb,
  0x25, 0xec, 0x40, 0xbd, 0x30, 0xf6, 0x2c, 0x3e, 0x68, 0x5e, 0xed, 0xbd,
  0x4b, 0xa0, 0xd2, 0xbd, 0x56, 0x08, 0x7f, 0xbd, 0xa4, 0xcf, 0xa3, 0xbe,
  0xe3, 0xb7, 0x44, 0xbf, 0xf6, 0xe1, 0xcf, 0x3d, 0xb9, 0x5a, 0x35, 0xbd,
  0x6f, 0x29, 0x09, 0xbf, 0x92, 0x53, 0xc8, 0xbc, 0x72, 0x14, 0xa0, 0xbf,
  0x29, 0xb0, 0x8b, 0xbb, 0x78, 0x21, 0x5e, 0xbe, 0x3c, 0x28, 0x06, 0xc0,
  0x71, 0xaa, 0x7f, 0x3b, 0xdb, 0xcf, 0x2d, 0x3d, 0x8a, 0x52, 0xad, 0xbf,
  0x06, 0xd2, 0x0a, 0xbf, 0x36, 0x80, 0xcd, 0x3c, 0x9e, 0x17, 0x0a, 0xbf,
  0x09, 0x3c, 0x68, 0xbf, 0x4a, 0xaf, 0xd7, 0xbe, 0x59, 0x6e, 0x9a, 0x3d,
  0xb8, 0xf7, 0x1f, 0x3e, 0x47, 0x80, 0x01, 0xc0, 0xe1, 0xf5, 0x08, 0xbf,
  0x2d, 0x4b, 0xad, 0xbf, 0x59, 0xa8, 0xac, 0xbe, 0x46, 0x00, 0x1a, 0xbf,
  0xac, 0xcb, 0x83, 0xbf, 0xc4, 0xf0, 0x0e, 0x3c, 0x8b, 0xce, 0x43, 0xbe,
  0x94, 0x81, 0xe2, 0xbf, 0x0e, 0xfa, 0x97, 0xbe, 0xdb, 0x27, 0x5a, 0xbe,
  0x88, 0x92, 0x30, 0x3e, 0x89, 0x63, 0x16, 0x3f, 0x2e, 0x1a, 0xa2, 0x3b,
  0x5b, 0x15, 0x09, 0xbd, 0x67, 0x60, 0x09, 0xbd, 0xdc, 0x98, 0x07, 0x3e,
  0xee, 0x00, 0x6a, 0xbc, 0x2d, 0xed, 0xa3, 0x3e, 0x2c, 0xe5, 0xad, 0x3d,
  0xfd, 0x72, 0x40, 0x3e, 0x10, 0x7f, 0x6b, 0xbb, 0xe6, 0xd3, 0x47, 0xbd,
  0x5a, 0x1d, 0xb6, 0xbd, 0xb6, 0x45, 0x2d, 0x3d, 0xaf, 0x63, 0x41, 0xbd,
  0x94, 0x7e, 0xdd, 0x3c, 0x0e, 0xdb, 0xe4, 0x3e, 0x0d, 0xe5, 0x46, 0xbe,
  0xcb, 0xa7, 0xc7, 0xbd, 0x3f, 0x0d, 0x42, 0xbd, 0x8c, 0x35, 0x0a, 0xbe,
  0xbd, 0xff, 0x06, 0xbe, 0x42, 0x1f, 0x33, 0xbe, 0xd6, 0x6a, 0x41, 0x3e,
  0x88, 0xb7, 0x6b, 0xbc, 0xfd, 0xed, 0xfa, 0xbe, 0xdd, 0x73, 0xc2, 0xbe,
  0xcc, 0x92, 0x06, 0xbd, 0xd2, 0x69, 0x86, 0x3e, 0x04, 0x6b, 0xac, 0xbe,
  0x8c, 0x39, 0x8d, 0xbe, 0x59, 0x93, 0x72, 0xbe, 0x89, 0x78, 0xa7, 0xbe,
  0x1c, 0xd5, 0x4f, 0xbd, 0x96, 0xc2, 0xdc, 0xbe, 0x8a, 0x20, 0x63, 0x3c,
  0x02, 0x7a, 0x51, 0x3c, 0xcd, 0xe2, 0xa7, 0xbd, 0x77, 0x4f, 0x8c, 0xbe,
  0xbb, 0xbb, 0x96, 0xbe, 0xb7, 0xfa, 0xc1, 0xbe, 0xba, 0xbd, 0xc3, 0xbe,
  0x8f, 0xd7, 0x09, 0xbf, 0xa1, 0xff, 0x42, 0xbb, 0x75, 0x79, 0xe2, 0x3b,
  0x59, 0x1f, 0x22, 0xbf, 0x76, 0x9c, 0x86, 0xbe, 0x7f, 0x9d, 0x83, 0xbd,
  0xae, 0x86, 0x2f, 0xbe, 0xd6, 0xf3, 0xf9, 0x3e, 0xac, 0x6f, 0xc3, 0xbd,
  0xaf, 0x72, 0x8f, 0x3c, 0x4c, 0x28, 0x90, 0xbc, 0xaf, 0x28, 0xd1, 0xbc,
  0x87, 0xf5, 0x9b, 0x3d, 0x7b, 0x5b, 0xa1, 0x3e, 0xbc, 0xa7, 0x4c, 0x3e,
  0x65, 0xf2, 0x06, 0x3e, 0xab, 0x97, 0xc5, 0x3d, 0x90, 0x0e, 0x8c, 0xbc,
  0x2c, 0x7a, 0xf4, 0xbd, 0xdf, 0x15, 0x89, 0x3d, 0x55, 0xb0, 0xde, 0x3d,
  0x72, 0xa7, 0xfb, 0x3e, 0x80, 0x17, 0x4f, 0x3e, 0x66, 0xfd, 0x0a, 0x3f,
  0x96, 0x76, 0xc3, 0x3d, 0xcb, 0xe4, 0x2c, 0xbc, 0x88, 0xff, 0xa9, 0x3d,
  0x93, 0x30, 0x0c, 0x3f, 0x36, 0x18, 0x0f, 0x3e, 0x4a, 0xe3, 0x23, 0xbf,
  0x55, 0x79, 0xe8, 0xbe, 0x9c, 0x93, 0x2d, 0x3f, 0x5c, 0x6b, 0xc1, 0xbe,
  0xa2, 0x11, 0x09, 0xbd, 0x46, 0xd9, 0x04, 0x3d, 0x50, 0x64, 0x95, 0xbe,
  0xc3, 0x34, 0x9f, 0xbe, 0xc1, 0xa9, 0x88, 0xbe, 0x13, 0x19, 0xf6, 0xbe,
  0xc0, 0x71, 0xb0, 0x3e, 0x7e, 0xae, 0xb9, 0xbe, 0x94, 0x52, 0x7b, 0xbd,
  0x0f, 0x67, 0xb7, 0xbd, 0xbc, 0x58, 0xb0, 0xbe, 0x40, 0x38, 0xa0, 0xbd,
  0x3c, 0x3e, 0x48, 0x3e, 0xec, 0xb2, 0x84, 0x3d, 0xd1, 0xcf, 0xa5, 0xbd,
  0xe3, 0x14, 0xf9, 0x3c, 0xaa, 0x3e, 0x82, 0xbc, 0xf4, 0x26, 0xb6, 0xbd,
  0xfc, 0x13, 0x97, 0xbd, 0x01, 0x53, 0xf3, 0x3d, 0xc0, 0xf3, 0xdd, 0x3d,
  0x23, 0x54, 0x27, 0x3f, 0x67, 0x4f, 0x8d, 0xbe, 0x27, 0x02, 0x2b, 0xbe,
  0x03, 0x5f, 0x8d, 0xbe, 0x06, 0x69, 0xe2, 0xbe, 0xe4, 0xa8, 0xb2, 0xbe,
  0xef, 0x63, 0x32, 0xbe, 0x29, 0xce, 0xdd, 0xbe, 0xaf, 0xb1, 0xfe, 0xbe,
  0x60, 0x96, 0x3b, 0xbd, 0xee, 0x4c, 0x60, 0x3e, 0x4c, 0x5c, 0x1f, 0xbc,
  0xf8, 0xc5, 0xb0, 0xbd, 0xf2, 0xed, 0xbb, 0x3e, 0xb3, 0x65, 0x10, 0x3e,
  0xc7, 0x77, 0x9a, 0xbd, 0xdc, 0xbc, 0x35, 0xbd, 0x39, 0xdf, 0xd6, 0xbe,
  0x3d, 0x48, 0x2a, 0xbd, 0x1d, 0xab, 0xcc, 0xba, 0x0a, 0xfd, 0xb9, 0x3d,
  0x28, 0x4b, 0x3c, 0xbd, 0xe7, 0x13, 0x62, 0x3e, 0x1e, 0x4d, 0xfd, 0xbe,
  0xc8, 0xc0, 0xac, 0xbe, 0xc9, 0x67, 0xd7, 0xbd, 0x22, 0x3f, 0x23, 0xbe,
  0x9d, 0xd5, 0x0e, 0x3d, 0x1c, 0x61, 0x89, 0x3d, 0x19, 0x0d, 0xc1, 0xbd,
  0xf3, 0xbd, 0xe1, 0x3e, 0x76, 0x30, 0xb4, 0xbd, 0x5d, 0x6f, 0x5d, 0xbe,
  0xa2, 0x87, 0x6e, 0x3e, 0xd7, 0xd1, 0x73, 0xbe, 0x32, 0x95, 0x7d, 0xbd,
  0x49, 0xbe, 0x69, 0x3e, 0x07, 0x64, 0x42, 0xbe, 0x96, 0x58, 0x82, 0xbe,
  0x43, 0xa0, 0xd1, 0xbd, 0xe5, 0x2e, 0xa3, 0x3d, 0x3f, 0xad, 0xf7, 0x3e,
  0x09, 0xf4, 0xab, 0xbe, 0x69, 0x72, 0x99, 0xbd, 0xdf, 0xf9, 0x38, 0xbe,
  0x1e, 0x89, 0x09, 0xbe, 0xa2, 0xd5, 0x2f, 0xbe, 0x6e, 0x49, 0xa2, 0x3d,
  0x2a, 0xb0, 0x0f, 0xbe, 0x3f, 0x75, 0xc2, 0x3e, 0x98, 0xfc, 0x59, 0xbe,
  0x65, 0xbe, 0x54, 0xbd, 0xc3, 0x83, 0x78, 0xbe, 0x9b, 0x78, 0xdd, 0xbc,
  0xd7, 0x1d, 0x9d, 0x3e, 0x8c, 0xe1, 0xc6, 0x3e, 0xe8, 0xfd, 0xd9, 0x3e,
  0x83, 0x52, 0x85, 0xbe, 0x12, 0xd8, 0x83, 0xbe, 0x32, 0x0c, 0xcb, 0xbd,
  0x50, 0x1f, 0x25, 0xbe, 0xb3, 0xf5, 0x5f, 0xbe, 0xb1, 0x32, 0x05, 0xbd,
  0x16, 0x3a, 0x87, 0x3e, 0x57, 0x26, 0xf4, 0x3c, 0x02, 0x30, 0xe3, 0xbd,
  0x81, 0xc4, 0x23, 0x3f, 0x03, 0x64, 0xde, 0xbc, 0xc7, 0xf2, 0x49, 0xbe,
  0xfe, 0x99, 0xde, 0x3d, 0x33, 0x37, 0x2a, 0xbd, 0x12, 0x60, 0xd2, 0x3d,
  0x21, 0xbd, 0xc7, 0x3e, 0x05, 0xdf, 0x67, 0x3d, 0xb4, 0xa4, 0x93, 0xbd,
  0xe7, 0xd1, 0x09, 0xbd, 0x8e, 0x41, 0x15, 0xbe, 0xba, 0xda, 0xe9, 0x3d,
  0xb4, 0x63, 0x84, 0xbd, 0x51, 0x0e, 0x37, 0xbd, 0x6a, 0xb4, 0x94, 0xbd,
  0x50, 0x18, 0xfb, 0x3b, 0x4b, 0x28, 0x4e, 0xbd, 0x50, 0xf6, 0xc0, 0xbb,
  0x64, 0x1a, 0x47, 0xbd, 0xb1, 0xe5, 0x79, 0xbc, 0xdd, 0x79, 0xa6, 0xbd,
  0xe1, 0x25, 0x69, 0xbe, 0x48, 0x30, 0x12, 0xbe, 0xdd, 0x70, 0x9c, 0xbe,
  0xa6, 0x6b, 0x42, 0xbe, 0x10, 0x7c, 0x10, 0x3c, 0x28, 0x29, 0x92, 0x3e,
  0xce, 0x58, 0x25, 0xbe, 0x7c, 0x04, 0x51, 0xbe, 0x44, 0x0a, 0x9f, 0xbe,
  0x15, 0xbc, 0x81, 0xbe, 0xca, 0x1f, 0xb3, 0x3e, 0x0d, 0x91, 0xf5, 0x3c,
  0xdf, 0x38, 0xa8, 0xbe, 0x1d, 0xd8, 0x15, 0xbe, 0x55, 0x45, 0x4b, 0xbe,
  0xbf, 0xd4, 0xb5, 0x3d, 0x29, 0xa6, 0xa5, 0xbd, 0x15, 0xde, 0xf8, 0xbd,
  0x41, 0xec, 0xd6, 0x3d, 0xe4, 0x0c, 0x0f, 0x3f, 0xca, 0x9b, 0xaf, 0xbe,
  0x2f, 0x9f, 0x98, 0x3d, 0x58, 0x63, 0x2c, 0x3d, 0x78, 0xea, 0x53, 0x3e,
  0x08, 0xd3, 0x8f, 0x3d, 0x88, 0xba, 0xcc, 0xbd, 0xdc, 0xa7, 0x28, 0x3e,
  0x78, 0xaa, 0x0a, 0xbe, 0x8c, 0x88, 0x94, 0xbe, 0x38, 0xcb, 0x4a, 0x3e,
  0x8e, 0x34, 0x72, 0xbe, 0x02, 0xa3, 0x16, 0x3e, 0x58, 0xfb, 0xd1, 0x3d,
  0x56, 0x84, 0x9c, 0xbe, 0x45, 0x65, 0xe3, 0x3e, 0x56, 0x61, 0x94, 0x3e,
  0xed, 0x68, 0x62, 0xbe, 0x35, 0xdc, 0xde, 0x3d, 0xb7, 0x76, 0x38, 0xbe,
  0xd2, 0xcf, 0x93, 0xbd, 0xf2, 0xe8, 0x56, 0xbe, 0x2a, 0xd2, 0x4c, 0xbe,
  0x50, 0xba, 0xf1, 0x3e, 0xa9, 0x4f, 0xd9, 0xbd, 0x17, 0x8b, 0x4f, 0xbe,
  0xd7, 0x1c, 0x8d, 0x3e, 0x03, 0xd5, 0xad, 0xbd, 0xc0, 0x3f, 0x29, 0x3e,
  0x70, 0xd8, 0x25, 0x3f, 0xa0, 0x85, 0x08, 0x3e, 0x6b, 0x38, 0xf5, 0x3d,
  0x06, 0x90, 0x08, 0xbe, 0x1d, 0xc8, 0x6c, 0xbe, 0x22, 0x88, 0x84, 0x3e,
  0x0e, 0x0c, 0x5c, 0xbe, 0x8d, 0x30, 0x3b, 0x3d, 0x0c, 0xb5, 0x36, 0xbd,
  0x05, 0x25, 0xc8, 0x3d, 0x61, 0xeb, 0xdc, 0xbb, 0x7d, 0x88, 0x5d, 0xbe,
  0x17, 0x4f, 0x45, 0xbe, 0x66, 0x6f, 0x5e, 0x3d, 0xf7, 0x08, 0xa2, 0xbe,
  0xf1, 0xa0, 0x27, 0xbe, 0xa8, 0x86, 0xa7, 0x3c, 0xea, 0xb2, 0x1f, 0x3d,
  0x92, 0xf9, 0xd6, 0x3e, 0xfa, 0xef, 0x7f, 0xbe, 0x9d, 0x05, 0x3c, 0xbe,
  0x54, 0x6d, 0x72, 0x3e, 0x6e, 0x9d, 0x3a, 0x3e, 0x65, 0xa7, 0xb3, 0x3c,
  0xa5, 0x0e, 0x53, 0x3e, 0xad, 0x6a, 0x83, 0x3d, 0x0a, 0x1d, 0xf0, 0xbe,
  0x0c, 0xcf, 0xac, 0x3d, 0x28, 0xfb, 0x68, 0xbe, 0xdd, 0x9c, 0xc5, 0xbe,
  0x5e, 0x12, 0xec, 0x3c, 0xd9, 0xe6, 0xe7, 0xbd, 0x03, 0xac, 0x81, 0xbe,
  0x0d, 0xc3, 0xa2, 0xbe, 0x8e, 0x36, 0x06, 0xbf, 0x21, 0xf4, 0xbf, 0x3e,
  0x3b, 0x5e, 0xa9, 0xbd, 0x86, 0xed, 0xc8, 0xbe, 0x8c, 0x61, 0x49, 0xbd,
  0xbe, 0x9f, 0x93, 0xbe, 0xe7, 0x41, 0x83, 0xbe, 0x92, 0x6c, 0x0b, 0xbd,
  0x17, 0xdb, 0x20, 0xbf, 0x81, 0xd8, 0x5f, 0x3e, 0xd8, 0x33, 0xa1, 0xbe,
  0xf9, 0xea, 0xa9, 0xbe, 0xd2, 0x5d, 0xdf, 0xbb, 0xd3, 0x43, 0x2e, 0xbe,
  0xaf, 0x08, 0x3b, 0xbe, 0x51, 0x6e, 0xe3, 0xbe, 0x85, 0x31, 0x0f, 0xbf,
  0x52, 0xae, 0x22, 0x3c, 0xf4, 0xc6, 0x9c, 0xbe, 0x79, 0x3b, 0xdd, 0xbe,
  0x22, 0xc8, 0x49, 0x3d, 0xdc, 0x93, 0x3c, 0xbd, 0x09, 0xf4, 0xac, 0xbe,
  0x5e, 0x2b, 0xf2, 0xbd, 0x4d, 0x7c, 0x06, 0xbf, 0x50, 0x0e, 0x28, 0xbd,
  0x62, 0x99, 0x2e, 0xbd, 0x40, 0xea, 0x90, 0x3d, 0x5d, 0x15, 0x84, 0x3d,
  0x38, 0x9a, 0x6a, 0xbe, 0x8c, 0x03, 0x9b, 0xbf, 0x0a, 0x6a, 0x12, 0xbf,
  0x3b, 0xea, 0xcf, 0xbe, 0x53, 0x7f, 0x37, 0x3e, 0x21, 0xeb, 0x08, 0x3e,
  0xbe, 0xd9, 0xc3, 0x3c, 0x20, 0x73, 0xc9, 0x3d, 0x37, 0x29, 0xf5, 0x3c,
  0x46, 0xc8, 0x86, 0xbf, 0x88, 0xfe, 0x1c, 0xbf, 0x09, 0x13, 0x38, 0xbf,
  0x25, 0x18, 0xb3, 0x3d, 0xc9, 0x62, 0xde, 0x3c, 0x39, 0x23, 0x4b, 0xbd,
  0x5b, 0x2b, 0x4f, 0x3e, 0x42, 0xb6, 0x69, 0xbe, 0xee, 0x89, 0x6e, 0xbf,
  0x06, 0x60, 0xc4, 0xbe, 0x7a, 0xcf, 0x19, 0xbf, 0x89, 0xb7, 0x22, 0x3f,
  0xdd, 0x2b, 0x95, 0xbc, 0xac, 0x6b, 0xbd, 0xbc, 0x15, 0x95, 0x5c, 0x3e,
  0x5c, 0x10, 0x91, 0xbe, 0x0c, 0x7b, 0x83, 0xbf, 0xf0, 0xeb, 0xd9, 0xbe,
  0x9f, 0x43, 0x01, 0x3d, 0x72, 0xb7, 0xe5, 0x3d, 0xc8, 0xf2, 0xdc, 0xbe,
  0x0b, 0xf8, 0xda, 0xbd, 0xba, 0xc9, 0x40, 0x3e, 0x64, 0xe0, 0xbe, 0xbd,
  0x56, 0x27, 0x87, 0x3d, 0xa6, 0x3b, 0x03, 0xbd, 0xe6, 0x3d, 0x7b, 0x3e,
  0x14, 0xad, 0x6f, 0x3e, 0x7c, 0x92, 0xe1, 0xbe, 0xfd, 0x74, 0xc3, 0xbc,
  0x2e, 0xd8, 0x4f, 0x3e, 0xf7, 0x5d, 0x15, 0xbe, 0xf4, 0x06, 0x59, 0xbc,
  0xb9, 0x3b, 0x1c, 0xbc, 0xec, 0xe2, 0xcd, 0x3c, 0xf5, 0x73, 0xb1, 0xbe,
  0x6c, 0x97, 0x04, 0xbf, 0x9e, 0x8b, 0x8f, 0xbd, 0xad, 0xb7, 0x7c, 0x3d,
  0x7d, 0xdd, 0x67, 0xbc, 0xed, 0x08, 0xe6, 0x3d, 0x75, 0x3c, 0xa1, 0xbc,
  0xdf, 0xe7, 0xf1, 0x3e, 0xe8, 0xda, 0x9e, 0x3a, 0xc2, 0x36, 0xeb, 0xbe,
  0xe6, 0x0f, 0xd2, 0xbd, 0x2c, 0x7c, 0x78, 0x3e, 0x81, 0xa0, 0xab, 0xbd,
  0x1f, 0xe0, 0x07, 0xbb, 0x0c, 0x78, 0x9f, 0xbc, 0xab, 0x6f, 0xa2, 0x3e,
  0x05, 0x2a, 0x37, 0xbd, 0x3a, 0xb1, 0xf3, 0xbe, 0xe5, 0x07, 0x39, 0xbe,
  0x3f, 0x75, 0x78, 0x3e, 0x73, 0x79, 0x0d, 0xbe, 0x48, 0x47, 0x0d, 0x3e,
  0xd5, 0xf7, 0x3a, 0xbd, 0x6e, 0xd8, 0xef, 0xbd, 0xf9, 0x54, 0xed, 0x3d,
  0xda, 0x43, 0x07, 0xbf, 0x46, 0x3b, 0x3f, 0xbe, 0x03, 0x68, 0x9e, 0x3d,
  0x0e, 0x51, 0x3d, 0xbe, 0x3a, 0x1d, 0xd1, 0x3c, 0x8a, 0x1d, 0x65, 0xbd,
  0xd1, 0xf7, 0xec, 0x3e, 0x54, 0xf9, 0x10, 0xbd, 0x57, 0x3b, 0x04, 0xbf,
  0xee, 0xf3, 0x38, 0xbd, 0x62, 0x17, 0x38, 0xbd, 0xce, 0xd8, 0x7b, 0xbe,
  0x55, 0x5f, 0x4f, 0xbd, 0x66, 0x0a, 0x59, 0xbe, 0xf0, 0x6b, 0x3f, 0x3d,
  0xe9, 0x55, 0x22, 0x3e, 0xb1, 0x0f, 0xe7, 0xbe, 0xb0, 0xb1, 0x9b, 0xbd,
  0xf3, 0xb9, 0xb7, 0x3e, 0x9c, 0xa4, 0xcb, 0xbd, 0x8b, 0x7e, 0x33, 0x3e,
  0x71, 0xdb, 0x24, 0xbe, 0xe1, 0x73, 0x1e, 0x3e, 0xaa, 0x8b, 0xe0, 0x3e,
  0xf9, 0x5d, 0x0a, 0xbc, 0xb6, 0x75, 0x8e, 0xbb, 0xd8, 0x82, 0x0c, 0x3f,
  0x5b, 0x31, 0x31, 0xbe, 0x8d, 0x72, 0x99, 0x3d, 0x6f, 0x0b, 0x65, 0x3e,
  0x55, 0xe1, 0x06, 0xbf, 0xdc, 0x8e, 0x3d, 0xbe, 0xa6, 0x57, 0xcd, 0xbc,
  0xf4, 0xaf, 0x5e, 0xbe, 0x18, 0x0b, 0x58, 0xbe, 0x24, 0x5b, 0x93, 0xbe,
  0xe1, 0x36, 0x89, 0xbe, 0xff, 0xa8, 0xfa, 0xbd, 0xbf, 0x0f, 0xbb, 0xbe,
  0xe5, 0x99, 0x28, 0xbd, 0x5b, 0x8b, 0xdc, 0x3c, 0x27, 0x75, 0x96, 0xbd,
  0x63, 0x3f, 0x79, 0x3d, 0xaf, 0xb5, 0x92, 0xbe, 0xed, 0x5f, 0x29, 0xbe,
  0x47, 0x19, 0x0c, 0x3d, 0x91, 0xaa, 0x7a, 0xbd, 0x32, 0x03, 0x0f, 0xbe,
  0x25, 0x87, 0xb2, 0xbc, 0xc3, 0xca, 0x10, 0xbe, 0x7d, 0x12, 0xbc, 0xbd,
  0xc4, 0x44, 0x87, 0xbe, 0xcc, 0x10, 0x5b, 0xbe, 0x0c, 0x48, 0x36, 0xbe,
  0xc6, 0xde, 0xff, 0xff, 0x10, 0x00, 0x00, 0x00, 0x08, 0x00, 0x00, 0x00,
  0x1c, 0x00, 0x00, 0x00, 0x38, 0x00, 0x00, 0x00, 0x04, 0x00, 0x00, 0x00,
  0x10, 0x00, 0x00, 0x00, 0x04, 0x00, 0x00, 0x00, 0x01, 0x00, 0x00, 0x00,
  0x08, 0x00, 0x00, 0x00, 0x1a, 0x00, 0x00, 0x00, 0x73, 0x65, 0x71, 0x75,
  0x65, 0x6e, 0x74, 0x69, 0x61, 0x6c, 0x2f, 0x63, 0x6f, 0x6e, 0x76, 0x32,
  0x64, 0x5f, 0x31, 0x2f, 0x43, 0x6f, 0x6e, 0x76, 0x32, 0x44, 0x00, 0x00,
  0xc0, 0xde, 0xff, 0xff, 0xb6, 0xdf, 0xff, 0xff, 0x04, 0x00, 0x00, 0x00,
  0x80, 0x01, 0x00, 0x00, 0x3c, 0xff, 0xac, 0x3d, 0xc2, 0x7a, 0x06, 0xbe,
  0xe9, 0x9c, 0xe0, 0x3e, 0x61, 0xe0, 0x82, 0xbd, 0x9f, 0xfe, 0x84, 0xbd,
  0x23, 0x82, 0xb0, 0x3c, 0x44, 0x2c, 0xee, 0xbe, 0x7f, 0x4b, 0x4e, 0xbe,
  0xc7, 0xb3, 0xfb, 0xbe, 0x16, 0xa0, 0xe5, 0x3e, 0xda, 0xe7, 0x94, 0x3e,
  0x50, 0xe2, 0xd0, 0xbd, 0x48, 0xe4, 0x3d, 0x3e, 0x08, 0x8e, 0x41, 0xbe,
  0x4c, 0x7c, 0x96, 0xbe, 0xe0, 0xf1, 0xe4, 0x3d, 0xcd, 0xce, 0xb0, 0xbe,
  0xad, 0x91, 0x35, 0x3d, 0x60, 0xaf, 0x08, 0x3f, 0xd2, 0x89, 0xf1, 0x3d,
  0xf2, 0xb3, 0x55, 0xbe, 0x65, 0x9d, 0xfa, 0xbd, 0x95, 0x64, 0xdc, 0xbe,
  0x12, 0xb5, 0x8a, 0xbd, 0x0a, 0x00, 0x0e, 0x3c, 0x85, 0x2c, 0x5f, 0x3d,
  0xed, 0x6c, 0x85, 0x3d, 0x1c, 0xa1, 0x10, 0xbc, 0x5a, 0x3b, 0x93, 0x3d,
  0xe4, 0x5e, 0x4d, 0x3c, 0x16, 0xfe, 0xaf, 0xbc, 0xef, 0xe2, 0x8c, 0x3d,
  0x1c, 0xc7, 0x5c, 0xbc, 0x53, 0xdf, 0x89, 0xbc, 0xab, 0x8d, 0x1e, 0xbd,
  0x1f, 0x2c, 0x58, 0x3d, 0xfb, 0xa4, 0x2a, 0xbe, 0x37, 0x05, 0xdd, 0xbc,
  0x01, 0x65, 0x81, 0xbd, 0xa1, 0x5c, 0x94, 0x3e, 0x7c, 0x77, 0xa0, 0xbd,
  0x4a, 0x0e, 0xe5, 0x3d, 0x4b, 0x36, 0x22, 0x3f, 0x44, 0x83, 0x42, 0x3d,
  0x1e, 0x60, 0xfb, 0xbd, 0x76, 0x08, 0xd1, 0x3e, 0x15, 0xa5, 0xde, 0x3c,
  0x59, 0x30, 0xe1, 0xbd, 0x13, 0x4a, 0xe9, 0xbe, 0xc7, 0xaa, 0x04, 0xbf,
  0xa8, 0xb5, 0x8b, 0xbd, 0x83, 0x49, 0x71, 0xbe, 0x02, 0xd4, 0xcc, 0xbd,
  0x4d, 0x4e, 0x30, 0xbe, 0xc6, 0x72, 0xe1, 0xbd, 0xcb, 0x48, 0x49, 0xbe,
  0x6d, 0x3e, 0x10, 0xbe, 0x94, 0xc1, 0xd3, 0xbe, 0xa1, 0xdf, 0x05, 0xbd,
  0xe3, 0xaf, 0xbb, 0xbc, 0xee, 0x51, 0x59, 0x3e, 0x67, 0x3b, 0x7e, 0xbe,
  0xb7, 0x58, 0x04, 0xbe, 0x8a, 0xff, 0xc5, 0x3d, 0x29, 0x1a, 0x8a, 0xbe,
  0x94, 0xb9, 0xd2, 0x3d, 0xf4, 0x23, 0xbe, 0xbc, 0xf3, 0x77, 0x60, 0xbe,
  0x11, 0x88, 0x4a, 0x3b, 0x0f, 0xe2, 0x58, 0x3e, 0x26, 0x63, 0x92, 0xbe,
  0x58, 0x50, 0x2f, 0xbd, 0xfa, 0xcf, 0x0d, 0xbf, 0x53, 0xd6, 0x83, 0x3e,
  0x69, 0xf8, 0x5f, 0x3e, 0xab, 0xdf, 0xfa, 0xbe, 0xe0, 0x9a, 0xea, 0xbd,
  0xd2, 0xaf, 0x2a, 0xbe, 0x6e, 0xad, 0x18, 0xbd, 0x90, 0x8b, 0xa3, 0xbe,
  0xb8, 0x52, 0x1b, 0xbd, 0xe0, 0xd7, 0xb3, 0x3e, 0x60, 0xbb, 0x8e, 0x3d,
  0xc2, 0xdd, 0xfe, 0xbe, 0x5e, 0xaf, 0x3c, 0xbd, 0x2d, 0x77, 0x94, 0x3d,
  0x9d, 0x34, 0x2d, 0xbe, 0xa1, 0xff, 0xd5, 0xbb, 0x8c, 0x14, 0x1c, 0xbc,
  0x9f, 0x4c, 0x35, 0xbe, 0xf5, 0x86, 0x7d, 0xbd, 0x00, 0x18, 0xfc, 0xbd,
  0x19, 0x19, 0x6c, 0xbe, 0x34, 0xc5, 0x66, 0x3c, 0x65, 0x53, 0x14, 0xbd,
  0x27, 0xd9, 0x69, 0xbe, 0x9e, 0xe0, 0xff, 0xff, 0x10, 0x00, 0x00, 0x00,
  0x07, 0x00, 0x00, 0x00, 0x1c, 0x00, 0x00, 0x00, 0x38, 0x00, 0x00, 0x00,
  0x04, 0x00, 0x00, 0x00, 0x08, 0x00, 0x00, 0x00, 0x04, 0x00, 0x00, 0x00,
  0x03, 0x00, 0x00, 0x00, 0x01, 0x00, 0x00, 0x00, 0x18, 0x00, 0x00, 0x00,
  0x73, 0x65, 0x71, 0x75, 0x65, 0x6e, 0x74, 0x69, 0x61, 0x6c, 0x2f, 0x63,
  0x6f, 0x6e, 0x76, 0x32, 0x64, 0x2f, 0x43, 0x6f, 0x6e, 0x76, 0x32, 0x44,
  0x00, 0x00, 0x00, 0x00, 0x98, 0xe0, 0xff, 0xff, 0x8e, 0xe1, 0xff, 0xff,
  0x04, 0x00, 0x00, 0x00, 0x00, 0x01, 0x00, 0x00, 0x6a, 0xe4, 0x9d, 0xbe,
  0x19, 0x5f, 0x83, 0xbe, 0x6b, 0xd6, 0xba, 0x3e, 0x5a, 0x76, 0x22, 0x3d,
  0x8b, 0xfa, 0xbe, 0x3e, 0xc5, 0x01, 0x08, 0xbe, 0x42, 0x93, 0x38, 0xbe,
  0xaa, 0x9e, 0x9c, 0x3d, 0x02, 0x02, 0x84, 0xbe, 0x61, 0xee, 0xd4, 0xbc,
  0xad, 0x5e, 0x12, 0x3e, 0x33, 0xf8, 0x44, 0xbe, 0x39, 0xe7, 0xc8, 0x3d,
  0x0f, 0xd3, 0xa7, 0x3e, 0xa6, 0xef, 0x0c, 0xbf, 0xa0, 0x87, 0xfc, 0xbd,
  0x86, 0x6d, 0x3c, 0xbe, 0x18, 0x9f, 0x9e, 0xbd, 0x2e, 0x73, 0xa8, 0x3e,
  0x46, 0x3e, 0xb4, 0xbc, 0x3f, 0xbb, 0xe0, 0x3e, 0x33, 0x2b, 0x7c, 0xbd,
  0xa6, 0x53, 0x0f, 0xbe, 0x65, 0x36, 0x05, 0x3e, 0xa8, 0xd8, 0x1f, 0xbe,
  0xa3, 0x8c, 0xc3, 0xbb, 0xc3, 0x73, 0xf5, 0x3d, 0xfd, 0xd7, 0x5a, 0xbe,
  0xba, 0x85, 0x06, 0xbd, 0xc4, 0x54, 0x6e, 0x3e, 0xf3, 0xc0, 0xd5, 0xbe,
  0x4f, 0x7a, 0x42, 0xbd, 0xa4, 0x2a, 0x04, 0xbe, 0x37, 0xb8, 0xd7, 0xbe,
  0xbb, 0xe8, 0xd9, 0x3e, 0xa2, 0x96, 0xe5, 0xbc, 0x02, 0x7e, 0xeb, 0x3e,
  0x35, 0x07, 0x6c, 0xbe, 0xbe, 0xc5, 0x97, 0xbe, 0xf0, 0x5c, 0x1f, 0x3e,
  0xd6, 0x1a, 0x0d, 0xbf, 0x0c, 0xbc, 0xce, 0x3d, 0xa1, 0xf9, 0x21, 0x3d,
  0x0f, 0x7d, 0x30, 0xbe, 0xe9, 0xff, 0x8e, 0xbe, 0x85, 0x17, 0x6c, 0x3e,
  0x9e, 0xec, 0x0e, 0xbf, 0xb6, 0x41, 0x37, 0x3d, 0x36, 0xfc, 0xfb, 0xbd,
  0x4c, 0xb9, 0x2d, 0xbe, 0xa2, 0xf4, 0xbb, 0x3e, 0x9b, 0xa0, 0xd5, 0xbd,
  0x24, 0xdd, 0xaf, 0x3e, 0xaa, 0x5a, 0x39, 0xbe, 0x07, 0x2d, 0x7b, 0xbe,
  0x14, 0x01, 0x85, 0x3d, 0x63, 0x17, 0x32, 0xbe, 0xcb, 0x04, 0xda, 0x3d,
  0x7e, 0x4c, 0xa7, 0xbc, 0x39, 0x2a, 0x1e, 0xbe, 0x22, 0xcb, 0x48, 0x3e,
  0x14, 0xd0, 0x6f, 0x3e, 0xaa, 0x15, 0x46, 0xbe, 0x55, 0x96, 0x6c, 0xbd,
  0xf6, 0xe1, 0xff, 0xff, 0x10, 0x00, 0x00, 0x00, 0x06, 0x00, 0x00, 0x00,
  0x14, 0x00, 0x00, 0x00, 0x30, 0x00, 0x00, 0x00, 0x02, 0x00, 0x00, 0x00,
  0x04, 0x00, 0x00, 0x00, 0x10, 0x00, 0x00, 0x00, 0x19, 0x00, 0x00, 0x00,
  0x73, 0x65, 0x71, 0x75, 0x65, 0x6e, 0x74, 0x69, 0x61, 0x6c, 0x2f, 0x64,
  0x65, 0x6e, 0x73, 0x65, 0x5f, 0x31, 0x2f, 0x4d, 0x61, 0x74, 0x4d, 0x75,
  0x6c, 0x00, 0x00, 0x00, 0xe8, 0xe1, 0xff, 0xff, 0xde, 0xe2, 0xff, 0xff,
  0x04, 0x00, 0x00, 0x00, 0x00, 0x1c, 0x00, 0x00, 0x23, 0x96, 0xac, 0xba,
  0x29, 0x68, 0x97, 0xbd, 0x98, 0x5b, 0x45, 0xbe, 0x36, 0xd0, 0xa7, 0xbd,
  0x78, 0xc3, 0xef, 0xbe, 0x2a, 0x6e, 0xfd, 0xbe, 0x69, 0x3a, 0x28, 0x3d,
  0x97, 0x13, 0x67, 0xbe, 0x2a, 0xf5, 0x47, 0xbe, 0x7b, 0xb0, 0xe3, 0x3d,
  0xa8, 0xde, 0x53, 0xbc, 0xa1, 0x33, 0x2e, 0x3c, 0xab, 0xf7, 0x13, 0xbe,
  0xd4, 0x03, 0xc1, 0x3e, 0xc1, 0x18, 0x42, 0x3e, 0xd8, 0x20, 0x01, 0xbc,
  0xaa, 0x65, 0x82, 0x3c, 0xf9, 0x8a, 0x66, 0xbe, 0xc8, 0x2d, 0x87, 0xbe,
  0x56, 0x6e, 0xc7, 0xbe, 0x28, 0xa6, 0x62, 0xbd, 0xfc, 0xf8, 0x52, 0xbd,
  0xe2, 0xf7, 0x1d, 0x3d, 0x3c, 0xed, 0xae, 0xbd, 0x8d, 0x9f, 0xf9, 0xbe,
  0x28, 0x4b, 0x09, 0x3e, 0xe2, 0x2b, 0x8c, 0xbd, 0x9f, 0xbd, 0x28, 0x3c,
  0xca, 0xd0, 0x80, 0xbe, 0x1b, 0x05, 0xd8, 0x3e, 0x51, 0x59, 0x97, 0x3e,
  0xc3, 0x45, 0x14, 0x3e, 0x45, 0xe8, 0xc5, 0x3c, 0xa9, 0xb1, 0xd9, 0xbe,
  0x29, 0x51, 0x15, 0xbe, 0x7b, 0x1c, 0x2b, 0x3d, 0x5a, 0xe0, 0x57, 0xbe,
  0x9c, 0xd4, 0x93, 0xbd, 0x44, 0x81, 0x4e, 0x3e, 0x71, 0x83, 0x16, 0x3c,
  0x57, 0x61, 0x75, 0xbd, 0xc1, 0x4f, 0x58, 0x3d, 0x92, 0xc7, 0xda, 0xbc,
  0x4d, 0xdf, 0x53, 0x3d, 0x4a, 0x4c, 0x98, 0xbe, 0xcc, 0x35, 0xa3, 0x3e,
  0x0d, 0x6c, 0x86, 0x3c, 0x3d, 0xe0, 0xaf, 0x3d, 0xb9, 0x75, 0x1e, 0x3e,
  0x36, 0xf7, 0x13, 0xbd, 0xeb, 0x45, 0x03, 0xbf, 0xcf, 0x4f, 0x24, 0x3e,
  0x17, 0x98, 0xab, 0x3d, 0x9d, 0x05, 0x17, 0xbe, 0x20, 0xfe, 0x1d, 0x3e,
  0x95, 0xf2, 0xc0, 0xbc, 0x3e, 0x58, 0x46, 0xbe, 0x96, 0x95, 0xbf, 0x3d,
  0x08, 0x25, 0x5d, 0x3d, 0xbe, 0x8d, 0x10, 0xbd, 0x4e, 0xfa, 0xb4, 0xbe,
  0x5f, 0xeb, 0xf6, 0x3d, 0x9b, 0x4e, 0x22, 0x3e, 0x49, 0xa6, 0x27, 0x3b,
  0x35, 0x30, 0x20, 0xbe, 0x09, 0x45, 0x8d, 0xbd, 0x7e, 0xe4, 0xc3, 0xbd,
  0x3e, 0xc8, 0xcb, 0x3c, 0x85, 0x81, 0x54, 0xbc, 0xd1, 0x33, 0x39, 0xbd,
  0xae, 0x27, 0x09, 0x3e, 0x82, 0x18, 0xf7, 0xbb, 0x7d, 0xe6, 0xfe, 0xbd,
  0x6f, 0x9d, 0x37, 0x3c, 0x2f, 0x8e, 0xdd, 0xbd, 0x80, 0x35, 0x08, 0x3d,
  0xec, 0xea, 0xd1, 0xbe, 0xef, 0x5e, 0x07, 0x3f, 0xe2, 0x6a, 0xec, 0x3d,
  0xba, 0xf7, 0x02, 0x3d, 0x4a, 0x3c, 0x1b, 0x3c, 0x54, 0x28, 0xa4, 0xbe,
  0x8e, 0x4e, 0x94, 0xbe, 0xaa, 0x23, 0x11, 0xbe, 0x9f, 0x45, 0x7a, 0xbb,
  0x49, 0xc3, 0x87, 0xbd, 0xe2, 0xfd, 0x09, 0x3e, 0xa7, 0x67, 0x65, 0xbd,
  0x75, 0xf7, 0x6e, 0xbe, 0x7d, 0xd5, 0x86, 0x3d, 0xfa, 0xad, 0xb0, 0xbd,
  0xcf, 0xee, 0x59, 0x3d, 0x72, 0x0b, 0xef, 0x3d, 0xf0, 0x21, 0x16, 0x3e,
  0xad, 0x50, 0x87, 0x3e, 0xb9, 0xa6, 0xca, 0xbc, 0xe8, 0x74, 0x85, 0x3c,
  0x85, 0x76, 0x13, 0xbe, 0x72, 0x26, 0x1e, 0x3e, 0x2c, 0xaa, 0xe1, 0xbd,
  0x3e, 0xa1, 0xd0, 0xbd, 0x30, 0x12, 0x75, 0xbe, 0x72, 0xb8, 0x48, 0xbe,
  0x5b, 0xab, 0x79, 0xbd, 0xc7, 0xb3, 0x59, 0xbe, 0x07, 0x0a, 0xf0, 0xbd,
  0xf8, 0xdb, 0x00, 0xbc, 0xc4, 0xf5, 0x4e, 0xbb, 0x73, 0x80, 0x8b, 0xbd,
  0xda, 0xe6, 0x86, 0x3e, 0xcd, 0x46, 0x8d, 0x3e, 0x93, 0x32, 0x88, 0xbd,
  0xde, 0xf8, 0x98, 0xbd, 0x7e, 0xdc, 0x15, 0xba, 0x8c, 0xe0, 0x82, 0xbd,
  0x9c, 0xdf, 0x2c, 0x3e, 0xe6, 0xd9, 0xc1, 0xbd, 0xe6, 0x3b, 0xc0, 0xbd,
  0x65, 0xb6, 0xca, 0x3c, 0xe0, 0x9c, 0x1b, 0xbe, 0x61, 0xad, 0xe0, 0x3a,
  0x75, 0xf9, 0x3d, 0xbe, 0x64, 0x74, 0x84, 0xbe, 0xbf, 0x26, 0xa7, 0xbd,
  0xc8, 0x82, 0x9b, 0xbe, 0x10, 0xa6, 0xe9, 0xbd, 0xf3, 0x80, 0x4b, 0xbe,
  0x34, 0x36, 0x8b, 0x3e, 0xd1, 0x1d, 0xcc, 0xbd, 0x10, 0x4c, 0xd9, 0xbc,
  0xad, 0x32, 0x48, 0xbe, 0x85, 0x25, 0xdb, 0x3d, 0x01, 0xe1, 0xcb, 0xbb,
  0x86, 0xc0, 0x1a, 0x3e, 0x5d, 0x3b, 0x01, 0xbe, 0x0f, 0x59, 0x42, 0xbe,
  0xfd, 0x9e, 0xea, 0x3d, 0x21, 0xf2, 0xa5, 0x3d, 0xb4, 0x96, 0xf2, 0xbb,
  0xfe, 0x20, 0xae, 0x3d, 0x27, 0x05, 0x40, 0xbe, 0x6d, 0xb5, 0x91, 0x3d,
  0xd7, 0x71, 0x5f, 0xbd, 0x71, 0x07, 0x56, 0x3e, 0xb0, 0xc3, 0x18, 0x3e,
  0xe0, 0x8d, 0x5f, 0xbd, 0x23, 0xac, 0x30, 0xbc, 0x30, 0xb8, 0xc6, 0xbd,
  0x2b, 0xa4, 0x2b, 0xbe, 0xcd, 0xf0, 0x3f, 0xbe, 0xae, 0x7b, 0x87, 0xbd,
  0xcb, 0xb2, 0x83, 0xbe, 0xf1, 0x55, 0x4e, 0xbe, 0xc6, 0x28, 0x03, 0xbe,
  0xfb, 0x19, 0x02, 0xbe, 0x5a, 0x21, 0x2f, 0xbe, 0xad, 0x52, 0x18, 0xbe,
  0x4a, 0x78, 0x69, 0x3d, 0x98, 0x9f, 0xb6, 0x3d, 0x9d, 0x4f, 0xd8, 0x3b,
  0x20, 0x23, 0xdd, 0xbd, 0x61, 0x0e, 0x38, 0xbb, 0x23, 0x54, 0x9c, 0x3d,
  0xcf, 0x6f, 0x9d, 0xbe, 0x31, 0x25, 0x80, 0xbc, 0xe7, 0xc2, 0x45, 0xbe,
  0x7f, 0x4c, 0xd2, 0x3d, 0x17, 0x8d, 0x28, 0x3d, 0x88, 0x5d, 0x1c, 0xbe,
  0xcb, 0xa3, 0x2a, 0xbe, 0x38, 0x3b, 0x3f, 0xbe, 0xcd, 0x8f, 0xf7, 0xbd,
  0xbc, 0x65, 0x81, 0xbb, 0x3d, 0xc2, 0x17, 0x3e, 0x69, 0x25, 0x04, 0x3d,
  0x26, 0xc2, 0x14, 0xbe, 0x59, 0x9d, 0x12, 0xbd, 0x18, 0x5f, 0x0f, 0xbd,
  0x12, 0x07, 0xcd, 0x3c, 0xad, 0x28, 0x37, 0xbe, 0x03, 0x4b, 0x31, 0xbd,
  0xb6, 0x97, 0x0c, 0xbe, 0xb2, 0x86, 0x6b, 0x3d, 0x1e, 0x92, 0x29, 0xbd,
  0xb6, 0x84, 0x43, 0xbe, 0x18, 0xc7, 0xcd, 0x3c, 0xd9, 0x42, 0x49, 0xbe,
  0xc7, 0x56, 0xa1, 0x3d, 0x31, 0x9c, 0xad, 0xbc, 0x9e, 0x34, 0xd1, 0xbd,
  0x77, 0x31, 0x84, 0x3d, 0x3a, 0x1f, 0x1e, 0xbd, 0x7f, 0x66, 0x63, 0x3d,
  0xc2, 0x11, 0x64, 0xbc, 0x01, 0x25, 0xfd, 0xbd, 0xa8, 0x25, 0xcd, 0xbd,
  0xb0, 0xed, 0x2c, 0x3d, 0xdf, 0xbe, 0x43, 0xbe, 0x3c, 0x21, 0xeb, 0x3d,
  0x0b, 0xe2, 0x07, 0xbd, 0x00, 0xd7, 0x22, 0xbe, 0x1f, 0xd1, 0xbe, 0xbc,
  0xdf, 0x04, 0x21, 0xbe, 0x28, 0x6b, 0x29, 0x3d, 0x85, 0x20, 0x20, 0xbe,
  0xb2, 0x9c, 0xec, 0xbd, 0x53, 0xb9, 0xfa, 0x3c, 0x2b, 0x74, 0x1d, 0xbe,
  0xf6, 0x2f, 0x8b, 0xbd, 0xe2, 0xea, 0x9d, 0xbd, 0x92, 0x1b, 0x48, 0xbc,
  0x2b, 0x3f, 0x21, 0xbe, 0x6a, 0x58, 0x1c, 0xbe, 0x16, 0x89, 0x96, 0xbe,
  0xff, 0x29, 0xef, 0x3b, 0x9b, 0x68, 0xb9, 0xbd, 0x47, 0x1a, 0x33, 0x3b,
  0x76, 0xd4, 0xfc, 0xbd, 0x49, 0x9b, 0x66, 0xbe, 0x16, 0x51, 0xd3, 0x3d,
  0xb8, 0xfa, 0x3a, 0xbe, 0xf7, 0x14, 0xf8, 0x3c, 0xc7, 0x52, 0x92, 0x3c,
  0x90, 0x40, 0x3e, 0x3c, 0x42, 0x09, 0x7a, 0xbe, 0x87, 0x04, 0x29, 0xbf,
  0x29, 0x57, 0x0b, 0xbe, 0xe9, 0x4b, 0x3f, 0x3e, 0x08, 0xaa, 0x22, 0x3e,
  0x2d, 0xb9, 0xa1, 0x3e, 0x28, 0x51, 0x46, 0xbe, 0xdf, 0x3f, 0x2a, 0x3e,
  0x1e, 0x13, 0x43, 0x3c, 0x89, 0xd5, 0x43, 0xb9, 0x3a, 0x0e, 0xfd, 0x3c,
  0x9e, 0x78, 0x95, 0xbd, 0xae, 0x0c, 0x81, 0xbe, 0xf0, 0x29, 0x52, 0xbe,
  0xfb, 0xd2, 0x65, 0x3d, 0xc0, 0xe4, 0x5d, 0xbd, 0x03, 0xf2, 0x3e, 0xbe,
  0xc9, 0x00, 0x71, 0xbf, 0x83, 0x37, 0x85, 0x3c, 0x6b, 0x50, 0x07, 0x3e,
  0x3d, 0x11, 0xa4, 0xbd, 0x91, 0x1d, 0x05, 0xbe, 0xac, 0x8f, 0x50, 0xbe,
  0xba, 0xdc, 0x7c, 0x3d, 0xc5, 0x9d, 0xce, 0x3d, 0xf6, 0x2c, 0xfe, 0xbc,
  0x31, 0x1d, 0xd6, 0xbc, 0x4a, 0x28, 0xfa, 0xbb, 0xa1, 0xe8, 0x8f, 0xbd,
  0x6d, 0x79, 0xf2, 0xbd, 0x36, 0x11, 0xae, 0xbe, 0x12, 0x2c, 0x21, 0x3e,
  0x9c, 0x41, 0x10, 0xbe, 0xd3, 0x16, 0x15, 0xbf, 0x21, 0x02, 0xd6, 0x3d,
  0xf4, 0x19, 0x8e, 0xbd, 0xe6, 0xfa, 0x96, 0x3d, 0xbe, 0xd0, 0x28, 0x3d,
  0x89, 0xc6, 0x15, 0xbd, 0xe3, 0x58, 0x19, 0x3e, 0x9f, 0xde, 0x36, 0xbd,
  0x5e, 0xc7, 0x82, 0xbd, 0x97, 0xa8, 0x3b, 0xbd, 0xc3, 0x13, 0x1d, 0x3e,
  0xe9, 0x0d, 0x2a, 0x3c, 0x11, 0x43, 0x74, 0xbe, 0x0e, 0x92, 0x46, 0xbe,
  0xda, 0xfc, 0x1b, 0xbe, 0xcb, 0x3d, 0xa1, 0xbd, 0x5a, 0xda, 0x12, 0xbf,
  0x95, 0xc3, 0x92, 0x3d, 0x44, 0xab, 0x25, 0xbe, 0x3b, 0xd6, 0xc9, 0x3d,
  0x6d, 0xd1, 0x68, 0x3d, 0xc1, 0xb3, 0xdf, 0xbd, 0x11, 0x54, 0x19, 0x3e,
  0xde, 0x78, 0x3f, 0xbe, 0xf3, 0xbb, 0x30, 0xbd, 0xc1, 0xd9, 0x18, 0xbd,
  0x39, 0x6c, 0x54, 0xbe, 0xbe, 0x57, 0x06, 0x3e, 0xf8, 0xc8, 0x45, 0xbe,
  0x5d, 0x36, 0xf5, 0xbd, 0x35, 0xae, 0x97, 0xbe, 0x4c, 0x9c, 0xfb, 0x3c,
  0x62, 0xd9, 0x05, 0xbf, 0x77, 0x04, 0xb5, 0x3d, 0xb2, 0x47, 0x1a, 0xbd,
  0x2d, 0x0c, 0xad, 0x3d, 0x66, 0x78, 0x98, 0x3d, 0xbd, 0x1e, 0x1f, 0xbe,
  0x9e, 0xb8, 0x49, 0x3e, 0x6f, 0x56, 0xf9, 0xbc, 0xf6, 0x70, 0x80, 0xbd,
  0x97, 0xe7, 0x6a, 0xbd, 0x95, 0xc2, 0x88, 0x3d, 0x41, 0x49, 0x23, 0xbc,
  0x11, 0x75, 0xa8, 0xbe, 0x26, 0x72, 0x24, 0xbe, 0x56, 0x29, 0xc0, 0xbe,
  0xa2, 0xab, 0x81, 0xbc, 0x1c, 0x76, 0x43, 0xbf, 0x3e, 0x83, 0x35, 0x3d,
  0xc3, 0xda, 0x11, 0x3d, 0x02, 0x5a, 0xf2, 0x3d, 0xba, 0x59, 0xb9, 0x3d,
  0xc8, 0xf7, 0x5f, 0xbe, 0x56, 0xe8, 0x20, 0x3e, 0x0d, 0x10, 0x80, 0xbd,
  0x22, 0xa8, 0x61, 0x3c, 0x2c, 0xa4, 0xc4, 0xbc, 0x54, 0xf7, 0xaa, 0x3d,
  0xa3, 0x50, 0x44, 0x3d, 0xc1, 0x3b, 0x6c, 0xbe, 0xf2, 0xc5, 0x69, 0xbe,
  0x73, 0x25, 0x93, 0xbe, 0x56, 0x0b, 0xfe, 0x3b, 0x45, 0x20, 0x68, 0xbf,
  0xe6, 0x7e, 0x41, 0xbe, 0xdf, 0xcd, 0x48, 0xbd, 0xef, 0xc3, 0x09, 0x3e,
  0xe7, 0x47, 0x61, 0x3e, 0xaa, 0x18, 0xf3, 0xbc, 0x87, 0xcf, 0x10, 0x3e,
  0x59, 0xa1, 0xd3, 0xbd, 0xfd, 0x63, 0x88, 0x3d, 0xdf, 0xc5, 0xa0, 0x3b,
  0xf5, 0xd5, 0x1f, 0xbf, 0x72, 0xc6, 0xf2, 0xbe, 0x03, 0x52, 0x75, 0xbe,
  0x7f, 0x70, 0x07, 0xbe, 0xc2, 0x25, 0x23, 0x3d, 0xf7, 0x90, 0xbc, 0xbd,
  0xdf, 0xd7, 0x1f, 0xbe, 0xb3, 0xa1, 0xc4, 0x3d, 0xd6, 0x56, 0xc4, 0xbe,
  0x13, 0x38, 0xd0, 0x3d, 0x84, 0x30, 0xef, 0x3e, 0xc9, 0x2b, 0x89, 0x3d,
  0xab, 0x2f, 0xed, 0xbd, 0x5c, 0x5e, 0xc3, 0x3b, 0x7a, 0x7a, 0x05, 0xbe,
  0xb9, 0xcc, 0x3e, 0xbe, 0x1d, 0x9b, 0x04, 0x40, 0x44, 0x48, 0xa8, 0x3c,
  0x86, 0xc9, 0x61, 0x3e, 0xcb, 0x7e, 0xc5, 0x3c, 0x96, 0xbe, 0x46, 0xbe,
  0x6f, 0xa6, 0x60, 0x3d, 0x17, 0xbd, 0x03, 0x3e, 0x44, 0xdd, 0x64, 0x3b,
  0xd0, 0x79, 0xb8, 0xbe, 0xc0, 0x9c, 0x38, 0x3e, 0x8a, 0xe4, 0x2d, 0x3e,
  0xa8, 0xcf, 0x7a, 0x3c, 0x9c, 0xf6, 0x17, 0x3e, 0xf0, 0xa2, 0xb8, 0xbb,
  0x07, 0x47, 0x3d, 0xbe, 0x83, 0x2a, 0x8e, 0xbe, 0xd4, 0xde, 0xea, 0x3f,
  0x2a, 0x43, 0x59, 0xbd, 0x13, 0x62, 0x5f, 0x3e, 0x68, 0x8a, 0x32, 0xbd,
  0x58, 0x1d, 0xee, 0xbd, 0xf6, 0x3f, 0xb7, 0x3d, 0xc7, 0xbe, 0xb8, 0x3b,
  0x07, 0x2b, 0x0e, 0xbe, 0x43, 0x97, 0x56, 0xbe, 0xc5, 0x8c, 0x18, 0x3e,
  0xb1, 0x75, 0x1e, 0x3e, 0x1f, 0x14, 0xf1, 0xbb, 0x95, 0x33, 0x90, 0x3e,
  0xda, 0x98, 0x15, 0x3e, 0xd4, 0xbd, 0x51, 0xbe, 0xd5, 0x04, 0x83, 0xbe,
  0xe5, 0x0a, 0xcb, 0x3f, 0x37, 0x73, 0x47, 0xbe, 0x59, 0xd3, 0x9b, 0xbd,
  0x54, 0x1b, 0x45, 0x3e, 0x4a, 0xfa, 0x38, 0xbe, 0x6b, 0x60, 0x0c, 0xbd,
  0x15, 0x99, 0x44, 0x3d, 0x9d, 0x7e, 0x0e, 0x3d, 0x47, 0xa6, 0x15, 0xbd,
  0x91, 0xe8, 0x4d, 0x3e, 0xaa, 0xec, 0x99, 0x3e, 0x4c, 0xd8, 0xc5, 0x3c,
  0xfc, 0x43, 0x85, 0x3d, 0x9f, 0xd0, 0x3b, 0x3e, 0x20, 0x29, 0xaa, 0xbc,
  0x70, 0xc2, 0x9a, 0xbe, 0x9d, 0xec, 0x07, 0x40, 0x31, 0x2a, 0x8e, 0xbd,
  0x70, 0xe3, 0x3e, 0x3d, 0xe8, 0x19, 0x79, 0xbe, 0xbb, 0x1c, 0x40, 0xbe,
  0x95, 0xe8, 0x03, 0x3e, 0x20, 0x78, 0x75, 0x3d, 0x73, 0x8f, 0xe0, 0xb9,
  0x13, 0x33, 0xd2, 0xbd, 0x75, 0x22, 0x29, 0x3e, 0xe8, 0x4b, 0xa5, 0x3e,
  0xe3, 0xc1, 0xb9, 0xbd, 0xb5, 0x92, 0xe9, 0x3c, 0xa1, 0x0d, 0xd8, 0x3d,
  0x54, 0x31, 0xc8, 0xbd, 0x9b, 0x54, 0xa3, 0xbb, 0x4f, 0x52, 0xd7, 0x3f,
  0xc8, 0xd7, 0x2a, 0xbe, 0x4e, 0x22, 0x78, 0x3e, 0x4d, 0xf1, 0xfb, 0xbd,
  0x50, 0x7c, 0xdd, 0x3d, 0x12, 0x7a, 0x40, 0xbd, 0x83, 0x7f, 0x4f, 0x3d,
  0x98, 0xa2, 0x63, 0xbd, 0xc0, 0x39, 0x85, 0xbe, 0x85, 0x36, 0x1c, 0xbd,
  0xf5, 0xc1, 0xda, 0x3e, 0xfb, 0x4b, 0xee, 0x3d, 0xe6, 0x76, 0xff, 0x3c,
  0x2e, 0x24, 0x00, 0x3d, 0x25, 0x52, 0x82, 0xbe, 0x08, 0xd6, 0xd6, 0xbd,
  0x79, 0x0b, 0x02, 0x40, 0x27, 0xcb, 0x9a, 0xbd, 0x3e, 0xad, 0x63, 0x3e,
  0xfe, 0x13, 0x37, 0xbd, 0xfc, 0xc8, 0xdc, 0x39, 0x41, 0x8e, 0x7f, 0xbe,
  0x93, 0x2c, 0xa4, 0xbe, 0x90, 0x52, 0x32, 0x3e, 0x45, 0xf6, 0x62, 0xbe,
  0xc8, 0x28, 0x59, 0xbf, 0x04, 0x32, 0x8c, 0x3d, 0x6d, 0xd0, 0xf3, 0xbd,
  0xd5, 0xd2, 0xb5, 0xbe, 0x04, 0x54, 0x21, 0xbd, 0x2d, 0x03, 0x9a, 0xbd,
  0x24, 0x16, 0x3c, 0xbe, 0xc5, 0xc2, 0xe7, 0x3f, 0x62, 0x5a, 0xf3, 0x3d,
  0x27, 0x5c, 0x10, 0x3e, 0xa0, 0x79, 0xa7, 0xbd, 0x08, 0xa8, 0x26, 0x3d,
  0x89, 0xe7, 0x05, 0xbe, 0x3a, 0x14, 0x74, 0x3d, 0x62, 0xf7, 0x23, 0xbf,
  0x94, 0xee, 0x9c, 0x3d, 0x92, 0x66, 0xd8, 0x3d, 0xec, 0xe8, 0xed, 0x3d,
  0x28, 0x07, 0xd7, 0xbe, 0x7a, 0x97, 0x8a, 0xbb, 0x7b, 0x51, 0x9a, 0x3e,
  0x4a, 0x26, 0xe4, 0x3c, 0x29, 0x18, 0x6f, 0xba, 0x71, 0x31, 0xdf, 0x3d,
  0x11, 0x2d, 0x36, 0xbf, 0x7f, 0xd4, 0x51, 0xbe, 0x33, 0x3b, 0x0c, 0xbe,
  0xe6, 0x38, 0x8d, 0x3e, 0xb1, 0x21, 0x03, 0xbd, 0x9a, 0x23, 0xd6, 0xbb,
  0xa0, 0xc2, 0x4b, 0x3e, 0xe0, 0x3c, 0x90, 0x3e, 0x78, 0xc1, 0x1e, 0xbc,
  0xbf, 0xb9, 0x49, 0x3e, 0x63, 0x30, 0xb4, 0xbd, 0x9b, 0x1f, 0x22, 0xbe,
  0x2e, 0x04, 0x91, 0x3e, 0x4f, 0x68, 0xc8, 0x3d, 0xf7, 0xb4, 0x8c, 0x3d,
  0x9f, 0x3b, 0xfe, 0xbc, 0x24, 0xce, 0x56, 0x3e, 0x54, 0x07, 0xe1, 0xbd,
  0xb8, 0xd4, 0x88, 0xbe, 0xaa, 0x38, 0xa2, 0x3e, 0x04, 0x8f, 0x76, 0x3c,
  0x9e, 0xba, 0xa9, 0x3c, 0x1f, 0x66, 0x27, 0x3e, 0x06, 0x05, 0xc2, 0xbd,
  0xde, 0x7a, 0xbf, 0x3d, 0xf7, 0x0a, 0x0e, 0x3e, 0xa0, 0xa6, 0xec, 0x3c,
  0xb7, 0xf1, 0x25, 0x3d, 0xde, 0x0f, 0x1d, 0xbd, 0x64, 0x97, 0xf6, 0xbc,
  0x82, 0x60, 0x19, 0xbc, 0x8b, 0x52, 0x6a, 0xbd, 0xfb, 0x5c, 0x7f, 0x3d,
  0x36, 0xde, 0xad, 0xbd, 0x3f, 0x1f, 0xb2, 0x3c, 0x61, 0x11, 0x29, 0xbc,
  0xcc, 0x5c, 0x43, 0x3d, 0xbd, 0x33, 0xf6, 0x3c, 0x4d, 0xa5, 0x13, 0xbd,
  0x46, 0x78, 0x9c, 0xbe, 0xd1, 0x38, 0x2c, 0x3e, 0xdd, 0xda, 0x00, 0x3e,
  0xa1, 0x72, 0x37, 0xbd, 0x48, 0x82, 0x85, 0xbd, 0x8b, 0x4d, 0xb8, 0xbd,
  0x7c, 0x77, 0xcf, 0xbc, 0xc5, 0x15, 0x95, 0xbd, 0x7a, 0xc1, 0x32, 0xbd,
  0xc5, 0x10, 0xec, 0xbc, 0x2f, 0xbf, 0xc8, 0x3d, 0xe8, 0x56, 0x6f, 0x3c,
  0xc9, 0x1b, 0x70, 0xbe, 0x84, 0x9b, 0xea, 0x3d, 0x32, 0xf7, 0xcf, 0x3d,
  0xe0, 0x15, 0xbb, 0x3c, 0x02, 0x96, 0xd6, 0xbe, 0xcb, 0x58, 0xe1, 0x3c,
  0x22, 0x30, 0x9a, 0xbe, 0xf8, 0xd9, 0x3e, 0xbe, 0x8e, 0x08, 0x48, 0xbd,
  0xaa, 0xcf, 0x1f, 0xbf, 0x53, 0xf0, 0xd0, 0xbb, 0x50, 0x01, 0x89, 0xbd,
  0x76, 0x5a, 0x4b, 0x3d, 0x4d, 0xf2, 0x9b, 0xbb, 0x0b, 0xca, 0x05, 0x3e,
  0x2e, 0x72, 0xe4, 0x3d, 0xf6, 0x98, 0x57, 0xbe, 0x86, 0x92, 0xf2, 0x3d,
  0x5a, 0x21, 0x1d, 0xbc, 0xa5, 0x39, 0xa5, 0xbc, 0xa3, 0x7e, 0x88, 0xbe,
  0x45, 0x70, 0x93, 0xbe, 0x1a, 0x3c, 0xfb, 0xbe, 0xd2, 0xa9, 0x1a, 0xbd,
  0x1a, 0xbe, 0x1c, 0x3e, 0x60, 0x9e, 0x6e, 0xbf, 0xf4, 0xe6, 0xb2, 0x3c,
  0x79, 0xa1, 0xbb, 0xbc, 0x38, 0xff, 0x59, 0x3c, 0x35, 0xbf, 0x1c, 0xbd,
  0x68, 0xff, 0xb2, 0xbd, 0x40, 0xfd, 0xdd, 0xbc, 0x2c, 0xf2, 0x90, 0xbf,
  0xc4, 0x17, 0x26, 0x3c, 0xcb, 0x7a, 0xe0, 0xbd, 0x4f, 0xe5, 0x09, 0x3c,
  0xfc, 0x1c, 0x05, 0x3b, 0x54, 0x7c, 0x6a, 0xbe, 0x8a, 0x7b, 0xde, 0xbe,
  0x82, 0xd4, 0x1c, 0xbb, 0xf7, 0xa3, 0xaf, 0x3d, 0xde, 0xc0, 0x88, 0xbc,
  0xa8, 0xd3, 0x65, 0x3b, 0xf7, 0xc2, 0x83, 0xbd, 0x25, 0xb8, 0x92, 0x3c,
  0x25, 0x1d, 0x08, 0xbe, 0xdd, 0x16, 0x0e, 0x3d, 0xbd, 0xf3, 0x10, 0x3d,
  0x9d, 0x8e, 0x3e, 0xbf, 0x69, 0xc0, 0x51, 0xbd, 0xa7, 0x76, 0xa5, 0x3d,
  0x26, 0x6e, 0x73, 0x3e, 0xd5, 0x90, 0x49, 0xbe, 0xea, 0xb5, 0x87, 0x3d,
  0xbe, 0x4f, 0x97, 0x3c, 0xff, 0xc1, 0x73, 0xbe, 0x8a, 0x54, 0x42, 0xbc,
  0x12, 0x1e, 0x95, 0xbf, 0x51, 0x16, 0x4e, 0xbd, 0x01, 0x1d, 0xf4, 0x3d,
  0x49, 0x50, 0xab, 0xbd, 0xd2, 0x17, 0x66, 0x3d, 0xb5, 0x55, 0x88, 0xbd,
  0xb9, 0xd9, 0xa9, 0xbd, 0x4f, 0x41, 0x19, 0xbf, 0x51, 0x9f, 0x9e, 0x3e,
  0x17, 0x96, 0xa1, 0x3d, 0x53, 0x1b, 0xd0, 0x3c, 0x1f, 0x43, 0x9c, 0x3c,
  0x04, 0x04, 0x4d, 0xbe, 0x58, 0x40, 0x3f, 0xbf, 0xba, 0x16, 0xb2, 0x3c,
  0xbc, 0x39, 0x8e, 0xbe, 0x43, 0x48, 0x32, 0xbf, 0x34, 0x86, 0x25, 0x3d,
  0x02, 0x28, 0x93, 0xbe, 0xfa, 0x59, 0xd7, 0xbb, 0xe0, 0xe7, 0x4d, 0x3d,
  0x63, 0x4c, 0xe3, 0x3d, 0xe0, 0xd4, 0x87, 0x3d, 0xa9, 0x3a, 0x08, 0xbf,
  0x6d, 0xed, 0x32, 0x3c, 0x31, 0x00, 0xd4, 0xbd, 0xfb, 0xdb, 0x68, 0x3d,
  0x0d, 0x5c, 0x8b, 0x3d, 0x0f, 0x23, 0xc1, 0x3d, 0x41, 0x4f, 0x1f, 0x3d,
  0xd8, 0x70, 0x79, 0xbe, 0xbe, 0x7e, 0x49, 0xbe, 0x52, 0x92, 0x0c, 0x3e,
  0x16, 0x7d, 0xd0, 0x3d, 0x18, 0x2b, 0x8a, 0xbe, 0x97, 0x02, 0x12, 0x3e,
  0x5e, 0x5f, 0xc4, 0xbd, 0x5f, 0x71, 0x3f, 0xbd, 0xf7, 0x30, 0xa3, 0xbc,
  0x15, 0xf4, 0x20, 0xbd, 0x7a, 0x0f, 0x16, 0x3e, 0x25, 0xf0, 0xc0, 0xbc,
  0x6c, 0xf2, 0xf9, 0xbd, 0x88, 0x84, 0xeb, 0x3e, 0x49, 0x45, 0x58, 0x3d,
  0x9d, 0x24, 0xd3, 0xbc, 0xc6, 0x82, 0x9c, 0xbe, 0x7f, 0xc3, 0x03, 0xbe,
  0x02, 0xf2, 0xaa, 0x3e, 0xab, 0x08, 0xbe, 0x3d, 0x85, 0xad, 0x10, 0xbe,
  0xc9, 0x56, 0x55, 0xbd, 0x28, 0x76, 0xf3, 0xbd, 0x3c, 0x92, 0x4d, 0xbd,
  0x69, 0xa5, 0x64, 0x3d, 0x47, 0xcc, 0x91, 0x3e, 0x46, 0xdc, 0x83, 0xbe,
  0x47, 0xf0, 0xb6, 0xbe, 0x84, 0x42, 0x8b, 0x3e, 0xc0, 0x7e, 0xd8, 0x3e,
  0x3d, 0x73, 0x94, 0xbc, 0x47, 0x81, 0x0f, 0xbd, 0xbd, 0xc0, 0x81, 0xbe,
  0x83, 0x62, 0x8e, 0xbe, 0x29, 0x57, 0x8e, 0x3e, 0xd2, 0x9d, 0x2d, 0xbe,
  0xe3, 0x26, 0x16, 0xbe, 0x6c, 0xec, 0x82, 0xbd, 0x6a, 0x6f, 0x7f, 0x3c,
  0xe6, 0xbe, 0x35, 0x3d, 0x4d, 0xa7, 0x50, 0xbd, 0x56, 0x73, 0xec, 0x3e,
  0x91, 0xa2, 0xb4, 0xbe, 0x60, 0x0d, 0x39, 0x3d, 0xfb, 0x58, 0xa5, 0x3e,
  0x4a, 0x1f, 0x6a, 0xbd, 0x93, 0xbc, 0xa3, 0xbd, 0x8b, 0x24, 0x48, 0xbd,
  0x55, 0x52, 0x9e, 0xbe, 0xbf, 0x47, 0x12, 0xbe, 0x5a, 0x8b, 0xcd, 0x3c,
  0x18, 0xe3, 0x93, 0xbe, 0xb3, 0xbd, 0xa1, 0xbe, 0x41, 0x4b, 0x56, 0x3d,
  0xce, 0x66, 0x02, 0xbe, 0xb2, 0xfd, 0x91, 0xbd, 0x7f, 0x59, 0x52, 0xbe,
  0xf2, 0xf8, 0x3f, 0x3f, 0xbb, 0x0c, 0x25, 0x3e, 0xf7, 0x62, 0xa2, 0x3d,
  0xa0, 0x07, 0x9f, 0xbf, 0x9d, 0x2d, 0x52, 0xbd, 0xde, 0xf5, 0xf8, 0x3c,
  0x46, 0x28, 0x58, 0xbe, 0x5a, 0x7e, 0x90, 0x3d, 0x52, 0x71, 0xc9, 0x3d,
  0x62, 0x1e, 0x9f, 0xbc, 0xe2, 0x1f, 0x99, 0x3d, 0x6c, 0xc6, 0xf4, 0xbd,
  0xdd, 0x1b, 0x2e, 0xbe, 0x83, 0xbb, 0x97, 0xbf, 0xe9, 0x35, 0x38, 0x3e,
  0xe9, 0xca, 0x49, 0xbe, 0x4a, 0xf0, 0x8b, 0xbe, 0x32, 0x5f, 0x1b, 0x3b,
  0xf2, 0x68, 0x60, 0xbd, 0x2c, 0x5e, 0xb7, 0xbe, 0x03, 0x02, 0x01, 0xbd,
  0xfd, 0xb4, 0xb5, 0x3d, 0x8a, 0x1c, 0x76, 0xbd, 0x71, 0xb1, 0x82, 0xbe,
  0xea, 0x40, 0x52, 0xbd, 0x64, 0x34, 0x01, 0x3e, 0x40, 0xd9, 0x05, 0xbe,
  0x9b, 0x27, 0xb9, 0xbe, 0x03, 0xfe, 0x1d, 0x3f, 0xba, 0x93, 0x90, 0xbe,
  0x77, 0xa8, 0xac, 0xbc, 0x5a, 0xd6, 0x08, 0xbb, 0x3e, 0xf2, 0x9d, 0x3e,
  0x2e, 0x1e, 0xfa, 0x3c, 0xdd, 0x57, 0x88, 0x3d, 0x17, 0xda, 0x2f, 0x3e,
  0x4b, 0x4e, 0x9e, 0x3e, 0xd8, 0x07, 0xea, 0xbd, 0x79, 0x46, 0x0d, 0xbe,
  0x01, 0x77, 0x59, 0xbd, 0x24, 0x48, 0xcc, 0xbe, 0xca, 0xa4, 0x73, 0x3e,
  0x86, 0x70, 0x72, 0xbe, 0x8e, 0xfa, 0x19, 0xbe, 0x66, 0xb0, 0xff, 0x3e,
  0x1e, 0xf1, 0x00, 0xbc, 0xf7, 0x7c, 0x6e, 0xbd, 0xb5, 0x2b, 0x65, 0x3a,
  0x3a, 0xc1, 0x8e, 0x3e, 0x5f, 0xdd, 0x2b, 0xbd, 0xee, 0x42, 0x8f, 0x3d,
  0x41, 0x64, 0x66, 0x3e, 0xaf, 0xe4, 0x90, 0xbe, 0xe2, 0x8b, 0x25, 0x3e,
  0xca, 0xc6, 0xce, 0xbd, 0x4d, 0xc1, 0x0e, 0x3d, 0xdd, 0x94, 0x33, 0xbf,
  0x13, 0x9c, 0x2d, 0xbe, 0x93, 0xef, 0x4e, 0xbe, 0x60, 0x99, 0xe5, 0xbd,
  0x79, 0x55, 0xd2, 0x3e, 0xd3, 0x7d, 0xe5, 0x3d, 0x5e, 0xbd, 0x1d, 0xbe,
  0xb5, 0x2a, 0x25, 0xbd, 0x27, 0x8f, 0xca, 0xbd, 0x7c, 0x8a, 0xf2, 0x3d,
  0x61, 0x79, 0x68, 0xbc, 0x79, 0x0d, 0x2c, 0xbe, 0x03, 0xb5, 0x3d, 0x3e,
  0x65, 0xe0, 0xc8, 0xbd, 0x84, 0xbb, 0x36, 0xbe, 0xa1, 0x6d, 0xdd, 0x3d,
  0x15, 0x60, 0x9b, 0xbe, 0x74, 0x66, 0xfe, 0xbc, 0x3b, 0x58, 0x26, 0x3c,
  0xfa, 0xfb, 0xb1, 0xbe, 0x1f, 0x1a, 0x00, 0x3f, 0xec, 0x0e, 0x3c, 0xbe,
  0xfa, 0xcc, 0xcc, 0x3d, 0xaa, 0x16, 0xbc, 0x3b, 0x01, 0xfe, 0x77, 0x3e,
  0x38, 0x9f, 0x3a, 0xbd, 0x97, 0xb6, 0x1b, 0xbd, 0xff, 0xb5, 0x0d, 0x3e,
  0x94, 0xb7, 0xd3, 0x3e, 0x37, 0x87, 0x9a, 0xbc, 0x6f, 0xe4, 0x54, 0xbe,
  0xc9, 0xd9, 0x3b, 0x3d, 0xc4, 0x6e, 0x1e, 0xbf, 0x77, 0x64, 0x4c, 0x3e,
  0x1f, 0x0f, 0x2c, 0x3d, 0x6f, 0x1c, 0xb3, 0xbe, 0x7d, 0x9a, 0x1d, 0x3f,
  0x11, 0xe6, 0x89, 0xbd, 0xf9, 0xb5, 0x9e, 0xb8, 0x4c, 0x73, 0xda, 0xbd,
  0x22, 0x0f, 0xf2, 0x3e, 0x54, 0x1a, 0x33, 0x3d, 0xe0, 0x36, 0x29, 0x3e,
  0x77, 0xd6, 0xdc, 0x3d, 0xda, 0xf3, 0x7c, 0x3d, 0x5f, 0x00, 0x71, 0xbd,
  0x72, 0xb1, 0x2d, 0xbe, 0x8f, 0x98, 0x7d, 0xbd, 0x81, 0xea, 0x5e, 0xbe,
  0x8e, 0x3a, 0xb0, 0x3e, 0x65, 0x10, 0x2e, 0xbd, 0x66, 0x94, 0x44, 0xbf,
  0x1e, 0x56, 0xff, 0x3e, 0x43, 0xc2, 0x89, 0xbe, 0x1a, 0xd1, 0x1e, 0xbe,
  0x52, 0x41, 0xf7, 0xbd, 0x14, 0xb5, 0x44, 0x3e, 0x05, 0x8c, 0xce, 0x3d,
  0x29, 0x85, 0x9a, 0x3d, 0x88, 0x67, 0x56, 0xbe, 0x5f, 0x55, 0x00, 0x3d,
  0x05, 0x4d, 0xc3, 0x3d, 0xfa, 0x68, 0x0c, 0xbe, 0x14, 0xc1, 0xb3, 0x3d,
  0x55, 0x38, 0xc6, 0x3d, 0x05, 0xd4, 0xd2, 0x3c, 0x96, 0x20, 0xad, 0x3d,
  0x84, 0x35, 0x4f, 0xbe, 0xa4, 0x7d, 0x85, 0x3e, 0xa8, 0xbd, 0xaf, 0x3d,
  0x21, 0x07, 0x6c, 0x3d, 0x0c, 0xd6, 0xe2, 0xbc, 0x8f, 0x7a, 0xac, 0x3e,
  0xea, 0xa8, 0x65, 0xbe, 0xa8, 0xb2, 0x3f, 0xbe, 0x05, 0x26, 0x95, 0xbd,
  0x97, 0x0c, 0xb8, 0xbe, 0x9b, 0xd8, 0xb6, 0xbe, 0x98, 0xae, 0xdc, 0xbd,
  0xf8, 0x49, 0xcf, 0xbd, 0x98, 0x74, 0x9d, 0xbe, 0x72, 0x0b, 0xee, 0x3d,
  0x42, 0xa3, 0x0e, 0xbe, 0x57, 0x1a, 0x99, 0xbd, 0xae, 0x0e, 0x17, 0xbe,
  0xac, 0xfd, 0x78, 0xbd, 0xcf, 0x27, 0x90, 0x3d, 0x63, 0x93, 0x0b, 0xbe,
  0xc3, 0x42, 0x33, 0xbe, 0x51, 0x99, 0x54, 0xbb, 0xd0, 0x5a, 0x35, 0xbe,
  0xb8, 0x80, 0x48, 0x3e, 0x20, 0x2e, 0x3a, 0xbe, 0x3d, 0x19, 0x98, 0xbe,
  0x32, 0x36, 0x63, 0xbe, 0x11, 0xab, 0x05, 0xbe, 0x17, 0x43, 0xa0, 0xbe,
  0xaf, 0xf6, 0xbd, 0x3c, 0x21, 0xe8, 0x81, 0xbe, 0x53, 0xd5, 0x1f, 0xbd,
  0x24, 0x8e, 0x0d, 0xbe, 0x4d, 0x8a, 0x8e, 0xbd, 0xbf, 0xbb, 0x81, 0xbc,
  0xd2, 0x79, 0x83, 0x3e, 0x95, 0xe4, 0xfa, 0xbd, 0xfd, 0x5d, 0x78, 0xbe,
  0xe0, 0x53, 0x88, 0xbe, 0x1b, 0xe2, 0xad, 0x3d, 0x9d, 0x74, 0x71, 0x3c,
  0x42, 0x01, 0x3b, 0xbe, 0x5f, 0x4c, 0x86, 0xbd, 0x11, 0xcf, 0x0a, 0xbe,
  0xa0, 0xc7, 0xfc, 0xbe, 0xb8, 0x32, 0xbf, 0xbe, 0xb2, 0x71, 0x4c, 0xbe,
  0xf0, 0xf5, 0x35, 0xbd, 0x5c, 0x90, 0xb9, 0xbc, 0xfa, 0x86, 0x0a, 0x3e,
  0xf9, 0xce, 0x32, 0xbe, 0xf6, 0xc9, 0x27, 0xbd, 0xb2, 0x83, 0xa2, 0xbe,
  0x7f, 0xe5, 0x8e, 0xbe, 0xd5, 0xf9, 0xcf, 0xbd, 0x84, 0xcc, 0x20, 0xbd,
  0x56, 0xf5, 0xab, 0xbd, 0xce, 0x31, 0xa2, 0x3c, 0x1a, 0x1c, 0xb6, 0xbc,
  0x2c, 0x51, 0xee, 0xbd, 0x1f, 0x1d, 0x12, 0xbe, 0x15, 0x29, 0x8d, 0xbe,
  0x98, 0x55, 0x53, 0xbe, 0x3d, 0xc2, 0x76, 0xbc, 0xc0, 0x2f, 0x0c, 0x3e,
  0x24, 0x2b, 0x2f, 0x3d, 0xac, 0x4f, 0x33, 0xbd, 0x25, 0xe3, 0xab, 0xbe,
  0xd5, 0x14, 0xc6, 0xbe, 0x17, 0x63, 0xe2, 0x3d, 0xf1, 0xad, 0x2e, 0xbe,
  0xdb, 0x3c, 0xe0, 0x3d, 0xc8, 0xdd, 0x72, 0x3e, 0x22, 0xc3, 0x14, 0x3d,
  0xbc, 0xc0, 0x84, 0x3d, 0x66, 0xed, 0x97, 0xbe, 0x46, 0x01, 0x19, 0x3d,
  0x17, 0x46, 0xfe, 0x3c, 0xe8, 0x89, 0xb4, 0xbc, 0x47, 0x05, 0xd9, 0xbc,
  0xc4, 0x1c, 0x48, 0x3d, 0x9e, 0x43, 0xd6, 0xbd, 0x13, 0x08, 0x8c, 0xbd,
  0x95, 0xde, 0x7a, 0xbe, 0x7f, 0x81, 0x8c, 0x3d, 0x01, 0xd3, 0x0d, 0xbd,
  0x53, 0x14, 0xb1, 0xbe, 0xf3, 0xe5, 0xfe, 0x3c, 0x66, 0x26, 0x6e, 0x3e,
  0x28, 0x2f, 0x30, 0x3e, 0xc4, 0xd7, 0xbd, 0x3c, 0xfd, 0x0d, 0x53, 0xbe,
  0x42, 0xdf, 0xcf, 0x3c, 0x73, 0x7c, 0x83, 0x3e, 0xae, 0x50, 0xce, 0x3c,
  0xb3, 0x24, 0x16, 0x3c, 0x64, 0x1b, 0x05, 0x3e, 0x27, 0x92, 0xe6, 0x3c,
  0xb4, 0x7d, 0xc8, 0xbd, 0x1b, 0x95, 0x73, 0xbe, 0x5a, 0xce, 0x7a, 0x3e,
  0x39, 0xbd, 0xb3, 0xbe, 0x63, 0x3c, 0xa4, 0xbe, 0x3e, 0x1f, 0x16, 0xbe,
  0x57, 0x79, 0x8f, 0x39, 0x23, 0x5a, 0xc8, 0x3d, 0xee, 0x51, 0x34, 0x3e,
  0x14, 0xd1, 0x22, 0xbe, 0x6f, 0x7c, 0x94, 0x3d, 0x0d, 0xcf, 0x17, 0xbe,
  0x71, 0x29, 0x06, 0x3e, 0x91, 0x37, 0x23, 0x3e, 0x2c, 0x11, 0x97, 0xbd,
  0x6d, 0x3f, 0x02, 0xbf, 0xfa, 0xcd, 0x3a, 0xbe, 0xd6, 0xa3, 0x0c, 0xbd,
  0xcf, 0x8a, 0xfc, 0x3e, 0x15, 0x55, 0x17, 0x3e, 0x90, 0x1e, 0x02, 0xbc,
  0x4f, 0xc5, 0x64, 0xbe, 0x73, 0x23, 0xf1, 0x3d, 0x90, 0x8e, 0xb6, 0xbe,
  0xbf, 0xcb, 0xbc, 0xbe, 0x09, 0x29, 0x4f, 0x3d, 0x74, 0xb5, 0x9b, 0xbd,
  0x4b, 0x7d, 0xd7, 0x3d, 0x8c, 0xfd, 0x39, 0xbe, 0x8b, 0x59, 0x48, 0xbe,
  0x9f, 0x6e, 0x78, 0xbd, 0x4b, 0x60, 0x90, 0xbe, 0x88, 0x3d, 0x26, 0xbb,
  0x6d, 0x7f, 0x42, 0xbd, 0x2b, 0xb6, 0x9f, 0xbc, 0xb1, 0x89, 0x7d, 0xbe,
  0xf5, 0x8e, 0xa6, 0xbd, 0x6c, 0x46, 0x5e, 0x3e, 0x4d, 0x58, 0x6e, 0x3e,
  0x78, 0x29, 0x16, 0xbb, 0x87, 0x81, 0x82, 0xbc, 0x9f, 0xc7, 0x28, 0x3d,
  0x97, 0x0f, 0x23, 0xbd, 0x0d, 0x22, 0x76, 0x3e, 0x39, 0xb4, 0x1b, 0xbf,
  0x15, 0x69, 0x8a, 0xbe, 0x63, 0xd5, 0x4a, 0xbd, 0x05, 0x68, 0xa2, 0x3d,
  0x1d, 0x56, 0xbc, 0xbd, 0x32, 0xa9, 0x0a, 0xbf, 0x11, 0xe2, 0x0a, 0x3e,
  0x0a, 0x9a, 0xa1, 0xbd, 0x88, 0x62, 0xe2, 0x3c, 0xc5, 0x5d, 0x1f, 0x3e,
  0x67, 0x60, 0x2e, 0x3e, 0x40, 0x66, 0xcd, 0x3d, 0x4a, 0x19, 0x06, 0xbd,
  0xa6, 0x26, 0x62, 0x3d, 0xa1, 0xf6, 0x05, 0xbe, 0x4a, 0x4f, 0xae, 0xbc,
  0xb2, 0xb8, 0x31, 0xbe, 0x45, 0x78, 0x8d, 0xbd, 0xcd, 0xbb, 0x11, 0xbe,
  0xab, 0x1f, 0x01, 0x3e, 0x3b, 0x89, 0x85, 0xbe, 0x4d, 0xcd, 0x84, 0xbe,
  0x9a, 0xe1, 0x55, 0x3e, 0xfd, 0xa5, 0xca, 0xbc, 0x5a, 0x4c, 0x79, 0xbc,
  0x0f, 0x00, 0x4e, 0xbd, 0x9a, 0x12, 0x51, 0xbe, 0x2e, 0x6a, 0xb1, 0xbc,
  0x12, 0x49, 0x40, 0xbe, 0x57, 0x5f, 0x83, 0x3c, 0xf2, 0xd7, 0x61, 0x3d,
  0xce, 0x05, 0xa4, 0xbe, 0x4d, 0x51, 0x14, 0xbe, 0x83, 0x74, 0x8f, 0xbe,
  0xf6, 0x16, 0xdd, 0xbc, 0xcb, 0x9c, 0x2b, 0xbc, 0x22, 0xe8, 0x8f, 0xbd,
  0xaf, 0x90, 0xe6, 0xbc, 0xf4, 0x1e, 0x3e, 0xbd, 0x88, 0x42, 0x1e, 0xbe,
  0x8b, 0x95, 0xdd, 0x3c, 0x42, 0xd4, 0x04, 0x3d, 0xc2, 0xf8, 0xbf, 0xbe,
  0xfc, 0xa1, 0xb0, 0xbc, 0xf0, 0x63, 0xb6, 0xbe, 0x69, 0xcb, 0x0b, 0x3e,
  0x11, 0x44, 0xbb, 0xbd, 0x30, 0xc2, 0x30, 0xbf, 0x82, 0xea, 0x88, 0xbd,
  0x6f, 0x74, 0x01, 0xbf, 0xa6, 0x63, 0x2c, 0xbd, 0xf5, 0x5b, 0x8e, 0x3d,
  0x5b, 0x56, 0xdb, 0x3c, 0xa8, 0x2c, 0xfd, 0x3b, 0x87, 0x1e, 0xad, 0xbe,
  0xb1, 0x3b, 0x10, 0x3e, 0x71, 0xc2, 0x67, 0x3b, 0xc9, 0x9c, 0x1f, 0xbe,
  0xf0, 0x89, 0xe6, 0x3e, 0xb5, 0x37, 0xc1, 0xbd, 0xd1, 0xf3, 0x1b, 0xbe,
  0x1e, 0xdf, 0x18, 0xbe, 0xce, 0x45, 0xe1, 0xbd, 0xa8, 0xf2, 0x25, 0xbf,
  0xac, 0x47, 0x21, 0xbd, 0x30, 0x80, 0xe3, 0xbe, 0x4a, 0xe2, 0xff, 0x3d,
  0xe5, 0x39, 0xa9, 0xbd, 0x83, 0xef, 0x24, 0x3e, 0xf2, 0x93, 0x65, 0xbc,
  0x63, 0x5f, 0x55, 0x3d, 0xab, 0x52, 0x66, 0x3d, 0x46, 0x1a, 0x0c, 0xbe,
  0xbb, 0x73, 0xe9, 0xbd, 0x25, 0x94, 0xe0, 0x3c, 0x3a, 0x1c, 0xab, 0xbd,
  0x90, 0x8c, 0x18, 0xbe, 0xd2, 0x54, 0x7f, 0x3d, 0x00, 0x93, 0xec, 0x3c,
  0x19, 0xac, 0x1c, 0x3d, 0xa7, 0xf0, 0x31, 0xbd, 0x00, 0x4e, 0xe3, 0xbd,
  0x51, 0x33, 0x55, 0xbd, 0xb9, 0x74, 0x23, 0xbd, 0x62, 0x77, 0xcb, 0xbc,
  0x9a, 0x46, 0xfd, 0x3d, 0x02, 0x2d, 0x0f, 0x3e, 0x32, 0xfa, 0x56, 0xbd,
  0xe1, 0xd9, 0x4c, 0xbe, 0x35, 0x32, 0xca, 0x3d, 0x3c, 0xf3, 0x42, 0xbe,
  0xe9, 0x85, 0x78, 0xbe, 0x5b, 0xd0, 0x8f, 0xbe, 0x89, 0xd0, 0x03, 0x3e,
  0x22, 0xe7, 0x52, 0xbe, 0x90, 0xed, 0xf0, 0xbc, 0x77, 0x2d, 0xb3, 0x3d,
  0x2e, 0x1e, 0x77, 0x3c, 0xac, 0xd2, 0x66, 0xbe, 0xd0, 0xd9, 0xae, 0xbc,
  0x0e, 0xd2, 0xbc, 0x3e, 0x16, 0x5d, 0x1a, 0x3e, 0xdb, 0xd8, 0x79, 0x3c,
  0xf8, 0x8b, 0xac, 0xbd, 0xb2, 0x42, 0x55, 0xbe, 0xfa, 0x8d, 0x06, 0x3d,
  0x4c, 0xd6, 0x2c, 0xbe, 0x90, 0x6a, 0xa7, 0xbe, 0x8e, 0x8e, 0x1a, 0xbe,
  0xfb, 0xf3, 0x91, 0x3d, 0x0b, 0x1f, 0xb0, 0xbc, 0x58, 0x38, 0xe9, 0xbd,
  0xec, 0x09, 0x52, 0x3d, 0xcf, 0x34, 0xed, 0x3c, 0x5f, 0x72, 0xe0, 0xbd,
  0xf2, 0xe1, 0x5a, 0xbc, 0x50, 0x51, 0xcb, 0x3e, 0x0e, 0xf4, 0x8b, 0x3e,
  0x39, 0xfa, 0x4f, 0xbd, 0x59, 0x5c, 0x10, 0x3e, 0xe9, 0x96, 0x46, 0xbf,
  0x55, 0x73, 0x87, 0xbc, 0x24, 0xdd, 0x23, 0x3d, 0x92, 0x6f, 0x84, 0xbe,
  0x22, 0xe9, 0x10, 0xbe, 0xd2, 0xcf, 0xc4, 0x3d, 0xc5, 0xaa, 0xa9, 0xbd,
  0x36, 0xf3, 0xce, 0xbd, 0x15, 0xa6, 0xa7, 0x3d, 0x58, 0xa8, 0x2b, 0x3d,
  0xc9, 0xd3, 0x6f, 0xbe, 0xbc, 0x2c, 0xaa, 0xbd, 0xa7, 0x17, 0xb7, 0x3e,
  0x02, 0x97, 0x74, 0x3e, 0xac, 0x66, 0x23, 0x3d, 0x0a, 0xc2, 0x88, 0x3d,
  0xcd, 0xe8, 0x79, 0xbe, 0xbe, 0xb2, 0x9b, 0x3d, 0x21, 0xd8, 0x0a, 0x3e,
  0x37, 0xf0, 0x9b, 0x3c, 0x5b, 0x21, 0xd3, 0x3c, 0x38, 0xfb, 0x4b, 0x3e,
  0x72, 0x7b, 0xa6, 0xbd, 0xf9, 0xd5, 0x0e, 0xbe, 0xdd, 0x8b, 0xc9, 0x3d,
  0x62, 0xe2, 0x8a, 0x3d, 0x3a, 0x21, 0xed, 0xbd, 0x91, 0xda, 0x6f, 0xbd,
  0x86, 0x58, 0xf3, 0x3d, 0xbd, 0x09, 0x4a, 0x3e, 0x60, 0x4b, 0x6f, 0x3d,
  0xcf, 0x63, 0xcb, 0x3d, 0xe3, 0x9a, 0x2a, 0xbf, 0xec, 0x1e, 0x45, 0x3d,
  0xb0, 0x62, 0x09, 0xbc, 0x6c, 0x14, 0x73, 0xbe, 0x00, 0xfe, 0x75, 0x3d,
  0x79, 0xe5, 0x53, 0x3e, 0x06, 0x12, 0x18, 0xbe, 0x59, 0x30, 0x3c, 0x3d,
  0xf8, 0x8d, 0x78, 0x3d, 0x35, 0x95, 0x0e, 0xbd, 0x66, 0x4f, 0x98, 0x3d,
  0xe6, 0x6c, 0xc1, 0xbd, 0xfc, 0x93, 0x1e, 0x3e, 0xce, 0x78, 0x86, 0x3e,
  0xe2, 0x48, 0xf9, 0x3d, 0x00, 0x0e, 0x05, 0xbe, 0x83, 0xf0, 0xb3, 0xbe,
  0xee, 0x27, 0x93, 0x3d, 0xff, 0x12, 0x0b, 0xbe, 0xcb, 0xb7, 0xbf, 0xbd,
  0x53, 0x1b, 0x47, 0xbc, 0x92, 0xb4, 0x4b, 0x3e, 0x87, 0x10, 0xe6, 0xbd,
  0x9e, 0x5f, 0xd3, 0xbd, 0x70, 0xfa, 0x85, 0x3d, 0x2c, 0x9b, 0xe0, 0x3b,
  0x29, 0x48, 0x3a, 0xbe, 0x0c, 0x15, 0xd7, 0xbd, 0x72, 0x65, 0x67, 0x3e,
  0x3f, 0xd4, 0x37, 0x3e, 0x29, 0x6d, 0x1b, 0x3e, 0xf2, 0x5a, 0x7a, 0xbe,
  0xe4, 0x0f, 0xe8, 0xbd, 0x97, 0x9d, 0xd6, 0x3d, 0xe8, 0x04, 0x6d, 0xbd,
  0x4f, 0xe1, 0xb3, 0xbe, 0x45, 0xce, 0xd4, 0xbd, 0x82, 0x4f, 0x61, 0x3d,
  0xdc, 0xa4, 0x6c, 0xbe, 0xa8, 0xb4, 0x96, 0xbd, 0xf4, 0x33, 0x00, 0xbd,
  0xb1, 0x3d, 0x35, 0xbd, 0xda, 0x10, 0x4d, 0x3e, 0x86, 0x22, 0x88, 0x3d,
  0x6d, 0x7b, 0x27, 0x3e, 0xbc, 0x46, 0xa8, 0x3e, 0x15, 0x5e, 0x2f, 0x3d,
  0x2d, 0x69, 0x84, 0x3d, 0x97, 0x41, 0x5c, 0xbd, 0xee, 0xcd, 0x3a, 0xbd,
  0xef, 0x8d, 0x57, 0xbe, 0xba, 0x4d, 0x03, 0x3e, 0xc0, 0x69, 0x81, 0x3e,
  0xda, 0x87, 0x8e, 0xbd, 0x13, 0xe2, 0xf2, 0xbd, 0xbd, 0x77, 0x34, 0x3e,
  0x1a, 0xc7, 0x78, 0xbb, 0x02, 0x7b, 0xe4, 0xbe, 0x70, 0x57, 0xfe, 0x3f,
  0x7c, 0xb2, 0x8e, 0xbd, 0x0e, 0xd9, 0x0f, 0x3d, 0x16, 0xa5, 0x57, 0x3d,
  0x81, 0xe8, 0x6c, 0xbc, 0x6a, 0xee, 0xc9, 0x3b, 0xb3, 0x2d, 0x4c, 0x3d,
  0xa2, 0x4b, 0x4c, 0x3c, 0xee, 0x7c, 0x70, 0xbe, 0xa8, 0xa1, 0x66, 0x3e,
  0xf2, 0xfc, 0x92, 0x3e, 0xda, 0x3d, 0x94, 0xbd, 0xe6, 0xef, 0xb4, 0x3d,
  0xf1, 0x8a, 0xed, 0x3d, 0xac, 0x66, 0xdc, 0xbe, 0x95, 0xd8, 0x25, 0xbe,
  0x04, 0x3d, 0xf3, 0x3f, 0x73, 0x21, 0x95, 0xbb, 0xa2, 0x4a, 0xf6, 0x3d,
  0x07, 0x87, 0xdf, 0xbc, 0x27, 0x8a, 0x3f, 0x3d, 0x3b, 0x97, 0x0f, 0x3c,
  0x47, 0x43, 0xc7, 0x3c, 0x66, 0xcb, 0x01, 0xbe, 0x9d, 0xc5, 0x6a, 0xbe,
  0x6a, 0xa8, 0xb7, 0x3d, 0x40, 0x47, 0x73, 0x3e, 0xb8, 0xd8, 0x5d, 0xbd,
  0xd9, 0x1c, 0x99, 0x3d, 0x58, 0xab, 0x0a, 0x3e, 0x08, 0x8a, 0x65, 0xbe,
  0x87, 0x2b, 0x82, 0xbe, 0x15, 0x36, 0xbc, 0x3f, 0xce, 0x8b, 0x05, 0xbe,
  0x56, 0x10, 0x16, 0x3e, 0xcb, 0x95, 0x9a, 0x3e, 0x5f, 0xd8, 0xd9, 0x3d,
  0x74, 0xab, 0xab, 0xbd, 0x99, 0xc4, 0xcc, 0x3c, 0x92, 0x02, 0x77, 0xbd,
  0xa7, 0x94, 0xaa, 0xbe, 0xb8, 0xfe, 0x7e, 0x3d, 0xec, 0xbc, 0xbf, 0x3e,
  0xa2, 0x5e, 0xae, 0x3d, 0x18, 0x21, 0x16, 0x3d, 0xa6, 0x0f, 0xac, 0x3d,
  0x59, 0x05, 0xa7, 0x3d, 0x49, 0x26, 0xe5, 0xbe, 0x6c, 0x58, 0x08, 0x40,
  0xf9, 0xb8, 0x97, 0xbd, 0xda, 0xcd, 0x7e, 0x3c, 0x56, 0x50, 0x5b, 0xbd,
  0x0f, 0x7c, 0x9e, 0xbe, 0xca, 0x16, 0xb0, 0x3d, 0x0f, 0x05, 0x92, 0x3d,
  0x33, 0xaf, 0x2f, 0xbe, 0x0c, 0xd3, 0xb1, 0xbe, 0x30, 0xf2, 0xa0, 0x3d,
  0x0b, 0x3e, 0x4d, 0x3e, 0x46, 0xc4, 0xf0, 0xbc, 0x27, 0x6a, 0xb9, 0x3d,
  0xaf, 0x0d, 0xfe, 0x3b, 0x64, 0x2a, 0xa4, 0xbe, 0x5a, 0x84, 0xac, 0xbe,
  0x1a, 0x70, 0xbc, 0x3f, 0x72, 0xac, 0x6a, 0xbe, 0xf1, 0xa6, 0x6b, 0x3c,
  0xf0, 0x9b, 0x66, 0xbd, 0xd9, 0xab, 0xaf, 0xbe, 0x85, 0xae, 0x34, 0x3d,
  0x28, 0x76, 0x13, 0x3d, 0x19, 0x2c, 0x7b, 0xbd, 0x4c, 0x56, 0x67, 0xbe,
  0x0d, 0xcb, 0x9e, 0x3d, 0x96, 0x70, 0x97, 0x3e, 0x23, 0x8f, 0x8a, 0x3d,
  0x0d, 0xe2, 0x07, 0xbe, 0xca, 0x98, 0x89, 0x3d, 0x81, 0x70, 0x36, 0xbe,
  0xbd, 0xc0, 0xca, 0xbe, 0x0f, 0x61, 0xf8, 0x3f, 0x53, 0x4d, 0x16, 0xbe,
  0xf6, 0x51, 0x5b, 0xbd, 0x8a, 0x58, 0x9d, 0xbd, 0x2c, 0xa4, 0xdf, 0xbd,
  0xa4, 0x28, 0x6f, 0x3c, 0xc6, 0xe7, 0x59, 0x3d, 0x7f, 0xb3, 0x84, 0x3e,
  0x6f, 0x92, 0x61, 0x3b, 0xbc, 0x32, 0x17, 0xbc, 0x71, 0x76, 0xb1, 0x3e,
  0x33, 0x02, 0x64, 0xbd, 0xe2, 0x4f, 0xbf, 0x3c, 0x9f, 0x1f, 0x84, 0x39,
  0x40, 0x1f, 0x33, 0xbe, 0x09, 0xf6, 0x26, 0xbe, 0x00, 0x4c, 0x3d, 0x40,
  0xb7, 0x6b, 0x07, 0x3e, 0xb5, 0xeb, 0x8a, 0x3b, 0x7e, 0x37, 0x47, 0x3c,
  0x83, 0xa7, 0xef, 0x3d, 0xae, 0x53, 0xb0, 0xbc, 0xf0, 0x1a, 0x83, 0xbd,
  0x11, 0xa4, 0x0d, 0x3d, 0xe6, 0x82, 0xf9, 0xbc, 0x8e, 0x5c, 0xa7, 0xbe,
  0x3a, 0x2a, 0xb3, 0xbe, 0x68, 0xc3, 0x49, 0xbd, 0xbf, 0x39, 0x04, 0xbe,
  0x19, 0xac, 0xdc, 0xbd, 0x7e, 0xb7, 0x04, 0x3e, 0x89, 0x51, 0xe1, 0xbc,
  0x4b, 0x52, 0x92, 0xbe, 0x09, 0xbf, 0x84, 0x3e, 0x3e, 0x37, 0x7a, 0x3e,
  0xe7, 0x7a, 0x4d, 0x3e, 0x68, 0x4a, 0x69, 0xbe, 0xb7, 0x08, 0xfb, 0x3d,
  0x3e, 0xa4, 0x67, 0xbe, 0xd1, 0x96, 0x91, 0xbd, 0xc2, 0x1b, 0x43, 0xbd,
  0x29, 0xf9, 0x0d, 0xbf, 0x62, 0x74, 0xfb, 0xbd, 0x32, 0x0a, 0x45, 0x3e,
  0x62, 0x8b, 0x02, 0xbe, 0x99, 0x28, 0xb4, 0xbe, 0x69, 0x78, 0x00, 0xbd,
  0x07, 0x2b, 0x8f, 0xbd, 0x7b, 0x3e, 0x9b, 0xbe, 0x66, 0x74, 0x2e, 0x3c,
  0xb0, 0x15, 0xae, 0x3e, 0xff, 0x5d, 0xb0, 0x3e, 0x6b, 0x0c, 0x4e, 0xbe,
  0x45, 0x2c, 0x61, 0xba, 0x3c, 0xbd, 0xe6, 0xbe, 0x98, 0xcb, 0x05, 0x3d,
  0x66, 0x56, 0x51, 0x3e, 0x11, 0xde, 0x02, 0xbf, 0x34, 0x46, 0x68, 0x3c,
  0x79, 0x9c, 0x0e, 0xbd, 0x41, 0x58, 0x5a, 0xbe, 0x1f, 0x80, 0x88, 0x3c,
  0xa0, 0x8b, 0xde, 0xbc, 0x14, 0xc3, 0x21, 0xbc, 0xd2, 0xda, 0x88, 0xbe,
  0xb8, 0xfd, 0x0b, 0x3b, 0x7b, 0xef, 0x60, 0x3e, 0xe2, 0xc7, 0x38, 0x3e,
  0x95, 0xb2, 0xa6, 0xbc, 0xd5, 0xbe, 0x1f, 0x3e, 0xed, 0xd9, 0xa2, 0xbd,
  0x14, 0x40, 0xea, 0x3b, 0x29, 0xe7, 0xdd, 0xbc, 0x9a, 0x40, 0xf1, 0xbd,
  0xae, 0x9d, 0xaf, 0xbc, 0xc3, 0x11, 0x77, 0x3e, 0xab, 0xd5, 0x9a, 0xbe,
  0x58, 0x59, 0xa6, 0xbe, 0x51, 0x65, 0x58, 0x3d, 0xb5, 0xc3, 0xf9, 0xbb,
  0x96, 0x9a, 0xe0, 0xbc, 0x0e, 0xeb, 0xa7, 0x3d, 0x15, 0xf9, 0x25, 0x3e,
  0xed, 0x36, 0xed, 0x3d, 0xbe, 0x78, 0x86, 0x3e, 0xfb, 0x05, 0x9c, 0x3d,
  0x0a, 0xcd, 0x71, 0xbe, 0xf7, 0xc3, 0xd2, 0xbb, 0x06, 0xe2, 0x32, 0x3d,
  0xc7, 0x16, 0x5a, 0xbf, 0x07, 0xdf, 0x22, 0x3d, 0xed, 0xa6, 0x76, 0x3e,
  0x5b, 0xff, 0xb7, 0xbe, 0x9f, 0x13, 0xb0, 0xbe, 0xc1, 0x6e, 0x33, 0xbc,
  0xfa, 0x4f, 0x2f, 0x3d, 0xc9, 0xd7, 0xf6, 0x3c, 0x09, 0x80, 0x93, 0x3d,
  0x3e, 0xa8, 0x22, 0x3e, 0x5a, 0x73, 0x22, 0x3e, 0xb1, 0xce, 0xd2, 0xbd,
  0x46, 0x66, 0x6a, 0x3d, 0x8e, 0xca, 0x31, 0xbe, 0xe7, 0xbc, 0x88, 0x3c,
  0x4a, 0xb5, 0x06, 0xbc, 0x34, 0xe9, 0x96, 0xbe, 0x96, 0x7f, 0x44, 0xbe,
  0xf9, 0x6d, 0x5c, 0x3e, 0x34, 0xaa, 0x83, 0xbe, 0xda, 0x35, 0x5e, 0xbe,
  0xda, 0x0c, 0x9a, 0x3d, 0x7c, 0x53, 0x08, 0x3d, 0x20, 0xcb, 0x20, 0x3d,
  0xb1, 0xc3, 0xf2, 0x3d, 0xbd, 0x25, 0x7d, 0x3e, 0x56, 0x50, 0x8d, 0x3e,
  0xb8, 0x16, 0xff, 0xbc, 0x8e, 0x65, 0xa4, 0xbd, 0x01, 0x5e, 0xfc, 0x3a,
  0xc8, 0x0a, 0x7b, 0x3e, 0x0e, 0xe1, 0xb8, 0x39, 0x3d, 0x2c, 0xcf, 0xbe,
  0xa9, 0x0c, 0x42, 0xbd, 0xa9, 0xe7, 0x97, 0x3d, 0x75, 0x8c, 0x0f, 0xbe,
  0x51, 0x18, 0x31, 0x3c, 0x0f, 0x7b, 0x50, 0x3d, 0x11, 0x3d, 0xb3, 0x3c,
  0x4c, 0x7b, 0x39, 0x3e, 0x99, 0x8b, 0xf9, 0x3d, 0x85, 0xfc, 0xaa, 0x3e,
  0x59, 0x75, 0xb0, 0x3d, 0xe3, 0x9a, 0x40, 0xbe, 0x4b, 0x45, 0x2c, 0xbe,
  0x21, 0xa5, 0x5c, 0xbd, 0xb1, 0x61, 0xaa, 0xbc, 0x24, 0xad, 0xc0, 0xbd,
  0xa3, 0x81, 0xba, 0xbe, 0xf1, 0x10, 0x5c, 0xbe, 0x72, 0x7e, 0x21, 0x3d,
  0x8a, 0x31, 0xa9, 0xbd, 0x14, 0x32, 0x45, 0xbf, 0x6d, 0x9c, 0x94, 0x3e,
  0x24, 0x75, 0x6b, 0xbe, 0xca, 0x4d, 0xb5, 0x3e, 0xf0, 0x97, 0x1f, 0x3e,
  0xf4, 0x67, 0x29, 0x3e, 0xc6, 0x92, 0xab, 0x3a, 0x62, 0x99, 0x80, 0xbe,
  0xcd, 0x7d, 0x63, 0x3c, 0xe0, 0xb9, 0x5b, 0x3e, 0xae, 0x7d, 0xfd, 0xbd,
  0xee, 0x3b, 0x79, 0xbc, 0xf9, 0x79, 0x3c, 0xbd, 0x57, 0xf2, 0xfd, 0xbd,
  0x6f, 0xd1, 0x1e, 0x3d, 0xb8, 0xa2, 0xa9, 0xbe, 0xc2, 0xda, 0x1a, 0xbe,
  0x8f, 0x10, 0x90, 0x3c, 0xee, 0xf4, 0x5b, 0xbe, 0xf1, 0x36, 0x58, 0xbd,
  0x90, 0x0e, 0x02, 0x3d, 0x9b, 0x3c, 0x78, 0x3d, 0xbd, 0x71, 0xf6, 0x3d,
  0x71, 0xc8, 0xdb, 0x3d, 0x6a, 0x22, 0x85, 0xbe, 0x13, 0x06, 0x03, 0x3e,
  0x61, 0x3c, 0xb4, 0xbe, 0xb3, 0xbb, 0x88, 0xbc, 0x6b, 0xb2, 0xed, 0xbb,
  0x50, 0x14, 0x97, 0xbd, 0xd6, 0x06, 0x5c, 0xbc, 0x7f, 0x90, 0x62, 0xbe,
  0x36, 0x6d, 0xff, 0x3d, 0x02, 0x19, 0x3f, 0x3e, 0xdd, 0x5b, 0xe1, 0xbc,
  0x7c, 0x8d, 0xcb, 0x3e, 0x37, 0x26, 0x8e, 0x3d, 0xaa, 0x5a, 0x3d, 0x3e,
  0x58, 0x0e, 0x8b, 0xbd, 0xdc, 0xc1, 0xad, 0x3e, 0xd3, 0xac, 0x96, 0xbe,
  0xee, 0xe7, 0x69, 0x3d, 0x5a, 0xa0, 0x20, 0xbe, 0x80, 0xb0, 0xf1, 0xbd,
  0x1b, 0x61, 0x25, 0xbe, 0x4a, 0x5d, 0x89, 0xbe, 0x44, 0x94, 0xea, 0x3d,
  0x9f, 0x5d, 0x12, 0xbe, 0x03, 0x95, 0x11, 0x3e, 0x71, 0x85, 0x55, 0x3e,
  0x2f, 0x67, 0xb6, 0x3b, 0xe4, 0xc2, 0xb9, 0x3d, 0x64, 0x67, 0xac, 0xbc,
  0xc1, 0x4b, 0xff, 0x3d, 0x87, 0xa6, 0x1f, 0x3e, 0xb1, 0x50, 0xef, 0x3c,
  0xf4, 0x2a, 0x89, 0xbe, 0x47, 0xe8, 0x23, 0x3e, 0xd8, 0xc7, 0x8c, 0xbe,
  0xd2, 0xf3, 0xaf, 0xbe, 0x46, 0xa3, 0xb2, 0xbc, 0x33, 0x54, 0xfb, 0xbd,
  0x91, 0x2b, 0xea, 0xbd, 0x9b, 0xf4, 0x81, 0xbe, 0x97, 0xf2, 0x0a, 0xbd,
  0x21, 0xe1, 0x50, 0xba, 0x7d, 0x16, 0x3b, 0xbd, 0x4b, 0x93, 0x1f, 0x3e,
  0x6e, 0x66, 0x34, 0x3e, 0x2a, 0x2f, 0x85, 0x3e, 0xa4, 0x4b, 0x3a, 0x3e,
  0xa5, 0x84, 0x93, 0x3e, 0x5a, 0x48, 0x85, 0xbe, 0x4f, 0xc1, 0x91, 0x3d,
  0xad, 0x09, 0x7c, 0xbe, 0x9c, 0x5f, 0x1e, 0xbf, 0x6e, 0x89, 0xd5, 0xbd,
  0x55, 0x37, 0x43, 0xbe, 0xeb, 0x17, 0xc3, 0xbd, 0xaf, 0xff, 0x3c, 0xbe,
  0xe7, 0x43, 0xa8, 0xbd, 0xd0, 0xa5, 0x61, 0x3e, 0xca, 0x3d, 0x29, 0xbe,
  0xac, 0x49, 0x88, 0x3e, 0xa1, 0x55, 0x54, 0x3d, 0xc5, 0x86, 0x2e, 0x3e,
  0xc2, 0x9e, 0xec, 0xba, 0x44, 0x87, 0xf8, 0x3d, 0xf4, 0x27, 0x80, 0xbe,
  0xfa, 0x82, 0x0c, 0xbc, 0xf2, 0xa4, 0x8b, 0xbd, 0xa9, 0xa8, 0xa6, 0xbe,
  0x22, 0x15, 0x07, 0xbd, 0xb2, 0xbd, 0x8b, 0x3d, 0x8d, 0xc4, 0x45, 0xbd,
  0xf3, 0xeb, 0x99, 0xbe, 0x7c, 0xc0, 0x3a, 0xbe, 0x83, 0x8c, 0x13, 0xbd,
  0x35, 0x54, 0x23, 0xbe, 0xe0, 0x45, 0x1b, 0x3f, 0x28, 0xc8, 0x41, 0x3e,
  0x45, 0xc1, 0x9c, 0x3e, 0x32, 0xc3, 0xe2, 0x3d, 0x91, 0xb6, 0x0b, 0xbe,
  0xcf, 0x7d, 0xff, 0xbd, 0x62, 0x76, 0x3c, 0xbd, 0x74, 0xde, 0x5c, 0x3e,
  0x40, 0x87, 0x26, 0xbe, 0x6a, 0x0a, 0x86, 0xbd, 0xf6, 0x75, 0x76, 0x3e,
  0x22, 0x69, 0xae, 0x3d, 0x77, 0x0d, 0x97, 0xbd, 0x0c, 0x8b, 0xbd, 0x3b,
  0x07, 0x40, 0x4b, 0xbe, 0x9c, 0xbc, 0x1b, 0xbe, 0x81, 0xca, 0x35, 0x3f,
  0x5c, 0xa7, 0x88, 0xb9, 0x25, 0x45, 0x2c, 0x3e, 0x29, 0x06, 0x38, 0x3e,
  0x6b, 0xd1, 0x2c, 0x3e, 0xbe, 0x1c, 0x28, 0xbe, 0xa1, 0xff, 0xe3, 0x3d,
  0x8f, 0xbb, 0x5a, 0xbd, 0x51, 0x59, 0x97, 0xbe, 0x23, 0x5f, 0x16, 0x3d,
  0xf0, 0x18, 0x06, 0x3e, 0xf7, 0x8b, 0xc3, 0xbd, 0x0b, 0x34, 0x2a, 0x3e,
  0xb1, 0xb0, 0xb0, 0x3d, 0x79, 0xd3, 0x1c, 0x3c, 0x64, 0xa1, 0x77, 0xbe,
  0x63, 0xe9, 0x33, 0x3f, 0xdb, 0xf8, 0x76, 0x3d, 0xda, 0xdb, 0x49, 0xbe,
  0x42, 0xc2, 0x23, 0xbd, 0x0b, 0x77, 0x1f, 0xbd, 0x36, 0xa2, 0x21, 0x3e,
  0x6e, 0xfb, 0xa2, 0x3c, 0x10, 0x31, 0x0b, 0xbc, 0xae, 0xc5, 0x42, 0xbd,
  0x3c, 0x42, 0xfe, 0x3a, 0x1d, 0x49, 0x4f, 0x3e, 0x1a, 0x1b, 0xf9, 0xbd,
  0xf9, 0x7d, 0xae, 0x3d, 0xd8, 0x86, 0xbc, 0x3d, 0x7a, 0xc2, 0x2c, 0xbe,
  0x6a, 0xd6, 0x7a, 0xbe, 0x82, 0x91, 0xe7, 0x3e, 0x1e, 0xc5, 0x83, 0xbd,
  0x0d, 0x9b, 0x57, 0xbd, 0x3b, 0x9a, 0x5d, 0x3e, 0xa2, 0x8c, 0x17, 0x3e,
  0x7c, 0x99, 0xc2, 0xbd, 0xa2, 0xc3, 0x2f, 0xbe, 0x9d, 0x9c, 0xc5, 0x3b,
  0x38, 0x41, 0x5a, 0xbc, 0xcc, 0x4f, 0x92, 0xbd, 0xae, 0x10, 0x1d, 0x3e,
  0xc9, 0x4a, 0xe5, 0x3c, 0x1f, 0x64, 0x6a, 0x3e, 0xeb, 0x04, 0xc2, 0x3e,
  0x50, 0xb1, 0xac, 0x3d, 0xc7, 0x32, 0x39, 0xbd, 0xbf, 0x93, 0xcb, 0x3e,
  0xbb, 0xb2, 0xfe, 0xbd, 0x41, 0xf5, 0x52, 0x3c, 0xfd, 0xf9, 0x2e, 0x3e,
  0x4d, 0x60, 0x15, 0x3e, 0xdb, 0xcc, 0xa3, 0x3d, 0x74, 0xc2, 0x65, 0x3e,
  0x99, 0xdc, 0x54, 0xbd, 0x9a, 0x42, 0x85, 0xbb, 0x3b, 0xc9, 0xa9, 0x3c,
  0x6f, 0xbb, 0x03, 0x3d, 0x48, 0x10, 0x16, 0xbe, 0xe4, 0xd0, 0x30, 0x3e,
  0x38, 0x20, 0x8c, 0x3e, 0xbe, 0xed, 0x03, 0xbd, 0xbc, 0x47, 0x2f, 0x3d,
  0xff, 0xbb, 0x22, 0x3f, 0xb9, 0x6e, 0x92, 0xbd, 0x40, 0x45, 0x54, 0x3e,
  0x63, 0x33, 0x41, 0x3e, 0x01, 0x17, 0x2e, 0x3e, 0xe8, 0x46, 0x37, 0xbd,
  0x4e, 0x89, 0x66, 0x3d, 0xed, 0x07, 0x74, 0xbc, 0xec, 0x2d, 0x02, 0xbe,
  0x6f, 0x6d, 0xec, 0xbe, 0x1e, 0x7b, 0xbe, 0xbd, 0x32, 0x6d, 0xcc, 0x3d,
  0x29, 0xd7, 0x80, 0xbc, 0x9b, 0x50, 0xb4, 0xbd, 0x9e, 0x61, 0x85, 0xbe,
  0x98, 0x9d, 0xc0, 0xbc, 0x1c, 0x71, 0x0c, 0x3f, 0xb9, 0x37, 0xa1, 0xbc,
  0xe6, 0xd6, 0x93, 0x3d, 0x38, 0xad, 0xd9, 0x3d, 0xca, 0x6f, 0x57, 0x3e,
  0xc4, 0xde, 0xb4, 0xbe, 0x25, 0xc9, 0xcf, 0xbe, 0x68, 0x62, 0x9b, 0x3d,
  0xa3, 0xca, 0x0a, 0xbe, 0x5e, 0x34, 0xc3, 0xbe, 0x6e, 0x76, 0x75, 0x3d,
  0xe8, 0xc7, 0xa3, 0x3d, 0xb7, 0x4f, 0x4a, 0xbe, 0x09, 0xb8, 0x29, 0xbd,
  0xfc, 0xc9, 0x43, 0xbe, 0xed, 0xad, 0x28, 0xbe, 0x0d, 0xdb, 0xdc, 0x3e,
  0xdc, 0x09, 0x5c, 0x3e, 0xae, 0x59, 0xf7, 0x3d, 0x7d, 0x3f, 0x40, 0xbc,
  0xa5, 0xe5, 0x37, 0x3e, 0x30, 0x95, 0x10, 0xbe, 0xe2, 0x35, 0x3f, 0xbd,
  0x68, 0xc3, 0xac, 0xbe, 0xd3, 0xc6, 0xb5, 0xbe, 0x84, 0xf3, 0x72, 0xbe,
  0xb9, 0x52, 0x27, 0xbe, 0x82, 0xe4, 0x8a, 0x3c, 0x04, 0xe4, 0x9b, 0xbd,
  0x84, 0x5f, 0xc1, 0xbd, 0xb0, 0x75, 0x4c, 0x3a, 0xfa, 0xd8, 0xd6, 0xbd,
  0x28, 0x91, 0x3d, 0xbe, 0x14, 0xfe, 0x17, 0x3e, 0x6b, 0x0c, 0x71, 0x3e,
  0x55, 0x1c, 0xeb, 0x3d, 0x79, 0x41, 0xcb, 0xbe, 0x03, 0x0a, 0x8c, 0xbc,
  0x34, 0xb4, 0x25, 0x3d, 0xc5, 0x5e, 0xd4, 0xbe, 0x2b, 0x9f, 0x4d, 0xbe,
  0x65, 0x1f, 0x34, 0xbd, 0xa2, 0x91, 0x85, 0xbe, 0xd0, 0xe0, 0xbf, 0x3b,
  0xe1, 0x29, 0x2e, 0x3c, 0xd5, 0xde, 0xc2, 0x3b, 0xf1, 0x11, 0x9e, 0x3d,
  0x88, 0x11, 0x05, 0xbe, 0xfd, 0x9e, 0x92, 0xbe, 0xa6, 0x9c, 0x0a, 0x3d,
  0x0c, 0x09, 0x68, 0x3e, 0x56, 0xd6, 0x82, 0x3d, 0xe2, 0x6b, 0x21, 0xbe,
  0xda, 0xea, 0xc4, 0xbe, 0x37, 0x1a, 0x13, 0x3d, 0x69, 0x9a, 0x29, 0xbf,
  0x06, 0x65, 0x09, 0x3c, 0xd5, 0xd0, 0xee, 0xbd, 0xe9, 0x57, 0x5f, 0xbe,
  0xe5, 0x81, 0x44, 0x3d, 0x1b, 0x41, 0xf2, 0x3c, 0xf4, 0xf7, 0x26, 0xbd,
  0x29, 0x05, 0x0b, 0x3e, 0xdc, 0xc2, 0xeb, 0xbd, 0xfc, 0x40, 0x2d, 0xbe,
  0xb8, 0xed, 0x1d, 0x3c, 0xa2, 0xa2, 0x78, 0x3e, 0xdd, 0xf0, 0x14, 0x3e,
  0xeb, 0xa9, 0xd4, 0x3d, 0x64, 0x40, 0x0a, 0xbe, 0x0b, 0xf9, 0xb3, 0x3d,
  0x72, 0xe1, 0xd4, 0xbe, 0x30, 0xe4, 0x67, 0x3d, 0xb8, 0x1f, 0x5c, 0xbd,
  0x85, 0xe8, 0xcc, 0xbc, 0x1e, 0x20, 0x81, 0x3c, 0xad, 0xd9, 0x0d, 0xbb,
  0xf9, 0x30, 0x89, 0x3d, 0x29, 0x04, 0xd5, 0x3d, 0x93, 0x2f, 0xc7, 0xbd,
  0xeb, 0xcd, 0x43, 0xbe, 0xe7, 0x58, 0x10, 0x3e, 0x04, 0xe1, 0x72, 0x3e,
  0x4f, 0x33, 0x7a, 0x3e, 0x7a, 0x7a, 0x19, 0x3d, 0xe3, 0xc5, 0x6e, 0xbd,
  0xd1, 0x07, 0x54, 0x3d, 0x76, 0x16, 0x02, 0xbf, 0xd9, 0x75, 0x57, 0xbe,
  0xd6, 0x35, 0xc2, 0xbd, 0xf9, 0xb7, 0x78, 0xbe, 0x39, 0xc4, 0xe6, 0x3c,
  0x59, 0x05, 0x15, 0xbd, 0x08, 0x62, 0x41, 0xbc, 0x30, 0x73, 0x47, 0x3e,
  0x59, 0xcf, 0x0a, 0x3c, 0x4f, 0xfc, 0x21, 0xbe, 0x25, 0x93, 0x77, 0xbc,
  0x3e, 0x87, 0x99, 0x3e, 0xb5, 0xe2, 0x45, 0x3e, 0x00, 0xd4, 0x89, 0xbc,
  0xe1, 0x51, 0x51, 0x3d, 0xd3, 0xae, 0x59, 0x3d, 0x78, 0x68, 0x0b, 0xbe,
  0xdd, 0x1d, 0xcc, 0xbe, 0x0b, 0x6d, 0x21, 0xbe, 0x12, 0xa5, 0x91, 0xbd,
  0x28, 0xe5, 0x01, 0xbd, 0x1b, 0xb4, 0x8d, 0xbd, 0x25, 0x58, 0x24, 0xbc,
  0xc7, 0xdb, 0x84, 0xbc, 0x7f, 0x19, 0x00, 0xbe, 0x91, 0x8f, 0xb1, 0xbd,
  0x21, 0x04, 0xf2, 0x3d, 0xf5, 0x42, 0x7c, 0x3e, 0x5a, 0xe9, 0xd9, 0x3d,
  0x05, 0x0a, 0x88, 0x3d, 0x69, 0x77, 0x83, 0x3c, 0x97, 0x88, 0x47, 0xbd,
  0x08, 0x96, 0xc0, 0xbe, 0xf3, 0x69, 0x7e, 0xbe, 0x4b, 0xa8, 0x44, 0x3d,
  0x35, 0xd1, 0x82, 0x3c, 0x30, 0x37, 0x15, 0xbe, 0x0e, 0xf5, 0x7e, 0xbd,
  0x01, 0xd0, 0xc7, 0xbd, 0x6b, 0xf1, 0x45, 0xbc, 0xaf, 0x4a, 0xb6, 0xbd,
  0xdb, 0x0e, 0x52, 0xbe, 0x95, 0x9c, 0x88, 0x3d, 0x7b, 0xb4, 0x6b, 0x3e,
  0xa2, 0x40, 0x26, 0x3e, 0xc6, 0xcf, 0x54, 0xbd, 0xe8, 0xbc, 0x22, 0xbf,
  0x9e, 0x11, 0xd6, 0xbe, 0xa9, 0x28, 0x6c, 0xbe, 0x61, 0xf0, 0x89, 0x3e,
  0x83, 0xcd, 0x49, 0x3e, 0x5f, 0x21, 0x88, 0x3e, 0xab, 0x41, 0x67, 0xbf,
  0xc4, 0xc2, 0x10, 0x3e, 0xdd, 0x53, 0x0d, 0xbe, 0x28, 0x95, 0x3d, 0xbd,
  0x4f, 0x5c, 0x26, 0xbd, 0x8b, 0xff, 0x2d, 0xbe, 0x2e, 0xc7, 0xa1, 0xbe,
  0x34, 0xc6, 0x37, 0xbf, 0x0e, 0xc5, 0x88, 0xbe, 0x21, 0xb4, 0xcb, 0x3d,
  0x8a, 0xe3, 0xb6, 0xbd, 0x40, 0xd0, 0x08, 0xbf, 0x48, 0x7c, 0x1c, 0xbe,
  0xdb, 0xdd, 0x8b, 0x3e, 0x9c, 0x94, 0x77, 0x3d, 0x22, 0x92, 0xca, 0x3d,
  0xdc, 0xc9, 0x6c, 0xbe, 0x7c, 0x44, 0xb5, 0x3d, 0x14, 0x8e, 0x0f, 0x3e,
  0x66, 0x87, 0x03, 0x3e, 0x43, 0x3a, 0x93, 0x3d, 0xe5, 0x9b, 0x2a, 0x3e,
  0x03, 0xdb, 0xc4, 0xbd, 0x19, 0x32, 0x7c, 0xbe, 0x03, 0x2d, 0xa3, 0xbe,
  0xff, 0x11, 0xe5, 0x3d, 0x79, 0x4b, 0x59, 0xbd, 0x43, 0x34, 0xa4, 0xbe,
  0x20, 0xa8, 0x11, 0x3d, 0x14, 0x25, 0xec, 0x3d, 0x6d, 0x3f, 0xd0, 0x3d,
  0x7d, 0xde, 0x4a, 0x3e, 0xc2, 0x1b, 0x06, 0x3e, 0x08, 0xd1, 0x0b, 0x3e,
  0x96, 0x88, 0x54, 0x3e, 0x88, 0x8e, 0x2c, 0xbe, 0x95, 0x99, 0xe4, 0x3d,
  0x43, 0xc8, 0xce, 0xbd, 0xe5, 0x18, 0xf0, 0x3c, 0x92, 0x76, 0xa3, 0xbe,
  0xe3, 0x36, 0xb2, 0xbd, 0x65, 0x11, 0x33, 0xbe, 0xc1, 0x45, 0x31, 0xbe,
  0x7b, 0xae, 0x3a, 0xbf, 0xf3, 0x7b, 0xcb, 0x3d, 0x4f, 0xa6, 0xb0, 0xbe,
  0x8a, 0x49, 0xac, 0xbd, 0xde, 0x2c, 0x3f, 0x3e, 0x48, 0xe6, 0x13, 0x3d,
  0x3b, 0x99, 0x61, 0x3d, 0x67, 0x69, 0x02, 0xbf, 0x55, 0x59, 0x79, 0xbd,
  0xe1, 0xf7, 0xd6, 0xbc, 0x26, 0x87, 0x47, 0xbd, 0xc3, 0x5a, 0xd7, 0xbd,
  0xeb, 0x50, 0x68, 0x3d, 0xf0, 0x30, 0x45, 0xbd, 0x12, 0x9c, 0x6d, 0xbe,
  0x3b, 0xaf, 0x26, 0x3e, 0x50, 0x37, 0x97, 0xbe, 0x31, 0xcf, 0x13, 0x3c,
  0x5b, 0x27, 0x1e, 0xbe, 0x15, 0x58, 0xc4, 0xbe, 0x41, 0xdc, 0x09, 0xbd,
  0x87, 0x97, 0x1a, 0xbe, 0xb9, 0x90, 0x41, 0xbd, 0x48, 0x9c, 0xee, 0xbd,
  0xea, 0x77, 0x0d, 0x3d, 0xb9, 0xa5, 0xbd, 0xbd, 0xc2, 0xd0, 0x84, 0x3d,
  0x6b, 0x73, 0x08, 0xbe, 0x88, 0xf2, 0xac, 0x3b, 0x1a, 0xfa, 0x94, 0xbb,
  0xdf, 0x74, 0x7c, 0x3c, 0xa5, 0x40, 0xe7, 0x3d, 0xcb, 0x9e, 0xb4, 0xbe,
  0x52, 0x34, 0xa4, 0xbd, 0x1e, 0x2f, 0x93, 0xbd, 0xda, 0xe5, 0xf1, 0xbe,
  0x02, 0xa0, 0xc0, 0xbd, 0x0a, 0xe0, 0x8d, 0x3e, 0xbe, 0x82, 0xfb, 0xbd,
  0x6f, 0x93, 0x20, 0xbe, 0x57, 0x2c, 0xb1, 0xbd, 0xa7, 0x1a, 0x13, 0xbe,
  0xae, 0xbe, 0x08, 0xbe, 0x80, 0x02, 0x8b, 0x3d, 0xb4, 0xd9, 0xc2, 0x3d,
  0x19, 0x08, 0xbd, 0xbd, 0xe8, 0xe3, 0xf7, 0xbb, 0x30, 0xaf, 0x6b, 0xbd,
  0xec, 0x12, 0xfa, 0xbe, 0xa1, 0x1b, 0x1b, 0xbd, 0x4a, 0x03, 0x12, 0xbe,
  0x01, 0x55, 0x7d, 0x3d, 0xd9, 0xd1, 0x80, 0xbe, 0xde, 0xe8, 0x1b, 0x3e,
  0xf6, 0x06, 0x54, 0xbe, 0x7a, 0x85, 0x98, 0xbd, 0x01, 0x69, 0x1f, 0x3d,
  0xee, 0x61, 0xa3, 0xbd, 0x81, 0xb6, 0x35, 0xbc, 0x97, 0x08, 0x56, 0xbc,
  0xf0, 0x63, 0x81, 0x3d, 0xde, 0x0a, 0x16, 0xbc, 0xd3, 0x7b, 0x95, 0xbe,
  0x46, 0xfe, 0xff, 0xff, 0x10, 0x00, 0x00, 0x00, 0x05, 0x00, 0x00, 0x00,
  0x14, 0x00, 0x00, 0x00, 0x2c, 0x00, 0x00, 0x00, 0x02, 0x00, 0x00, 0x00,
  0x10, 0x00, 0x00, 0x00, 0x70, 0x00, 0x00, 0x00, 0x17, 0x00, 0x00, 0x00,
  0x73, 0x65, 0x71, 0x75, 0x65, 0x6e, 0x74, 0x69, 0x61, 0x6c, 0x2f, 0x64,
  0x65, 0x6e, 0x73, 0x65, 0x2f, 0x4d, 0x61, 0x74, 0x4d, 0x75, 0x6c, 0x00,
  0x34, 0xfe, 0xff, 0xff, 0x2a, 0xff, 0xff, 0xff, 0x04, 0x00, 0x00, 0x00,
  0x08, 0x00, 0x00, 0x00, 0xff, 0xff, 0xff, 0xff, 0x70, 0x00, 0x00, 0x00,
  0x00, 0x00, 0x0e, 0x00, 0x18, 0x00, 0x08, 0x00, 0x07, 0x00, 0x0c, 0x00,
  0x10, 0x00, 0x14, 0x00, 0x0e, 0x00, 0x00, 0x00, 0x00, 0x00, 0x00, 0x02,
  0x10, 0x00, 0x00, 0x00, 0x04, 0x00, 0x00, 0x00, 0x10, 0x00, 0x00, 0x00,
  0x2c, 0x00, 0x00, 0x00, 0x01, 0x00, 0x00, 0x00, 0x02, 0x00, 0x00, 0x00,
  0x18, 0x00, 0x00, 0x00, 0x73, 0x65, 0x71, 0x75, 0x65, 0x6e, 0x74, 0x69,
  0x61, 0x6c, 0x2f, 0x66, 0x6c, 0x61, 0x74, 0x74, 0x65, 0x6e, 0x2f, 0x43,
  0x6f, 0x6e, 0x73, 0x74, 0x00, 0x00, 0x00, 0x00, 0x9c, 0xfe, 0xff, 0xff,
  0x92, 0xff, 0xff, 0xff, 0x04, 0x00, 0x00, 0x00, 0x10, 0x00, 0x00, 0x00,
  0x69, 0x11, 0x69, 0xbe, 0xec, 0xd3, 0xef, 0xbe, 0x0b, 0x20, 0xd3, 0xbf,
  0x31, 0x42, 0x89, 0x3f, 0x0a, 0xff, 0xff, 0xff, 0x10, 0x00, 0x00, 0x00,
  0x03, 0x00, 0x00, 0x00, 0x10, 0x00, 0x00, 0x00, 0x3c, 0x00, 0x00, 0x00,
  0x01, 0x00, 0x00, 0x00, 0x04, 0x00, 0x00, 0x00, 0x29, 0x00, 0x00, 0x00,
  0x73, 0x65, 0x71, 0x75, 0x65, 0x6e, 0x74, 0x69, 0x61, 0x6c, 0x2f, 0x64,
  0x65, 0x6e, 0x73, 0x65, 0x5f, 0x31, 0x2f, 0x42, 0x69, 0x61, 0x73, 0x41,
  0x64, 0x64, 0x2f, 0x52, 0x65, 0x61, 0x64, 0x56, 0x61, 0x72, 0x69, 0x61,
  0x62, 0x6c, 0x65, 0x4f, 0x70, 0x00, 0x00, 0x00, 0x60, 0xff, 0xff, 0xff,
  0x00, 0x00, 0x06, 0x00, 0x08, 0x00, 0x04, 0x00, 0x06, 0x00, 0x00, 0x00,
  0x04, 0x00, 0x00, 0x00, 0x40, 0x00, 0x00, 0x00, 0x2c, 0x6a, 0x52, 0xbf,
  0xe8, 0xe3, 0x66, 0xbe, 0x23, 0xaf, 0x11, 0xc0, 0x82, 0x1f, 0x65, 0xbe,
  0xdb, 0x85, 0x03, 0xbf, 0xbe, 0x02, 0x0f, 0xbf, 0x5a, 0x14, 0x0d, 0x3f,
  0xa6, 0x14, 0xb0, 0xbf, 0x88, 0x02, 0xe7, 0x3e, 0x25, 0x80, 0x49, 0x3f,
  0x58, 0x78, 0x96, 0x3d, 0xc6, 0x08, 0xb4, 0x3d, 0x53, 0xc3, 0x6c, 0x3f,
  0xa9, 0x75, 0x86, 0xbe, 0xfc, 0xc2, 0xca, 0x3e, 0x96, 0xe6, 0x0f, 0xc0,
  0xae, 0xff, 0xff, 0xff, 0x10, 0x00, 0x00, 0x00, 0x02, 0x00, 0x00, 0x00,
  0x10, 0x00, 0x00, 0x00, 0x3c, 0x00, 0x00, 0x00, 0x01, 0x00, 0x00, 0x00,
  0x10, 0x00, 0x00, 0x00, 0x27, 0x00, 0x00, 0x00, 0x73, 0x65, 0x71, 0x75,
  0x65, 0x6e, 0x74, 0x69, 0x61, 0x6c, 0x2f, 0x64, 0x65, 0x6e, 0x73, 0x65,
  0x2f, 0x42, 0x69, 0x61, 0x73, 0x41, 0x64, 0x64, 0x2f, 0x52, 0x65, 0x61,
  0x64, 0x56, 0x61, 0x72, 0x69, 0x61, 0x62, 0x6c, 0x65, 0x4f, 0x70, 0x00,
  0x04, 0x00, 0x06, 0x00, 0x04, 0x00, 0x00, 0x00, 0x00, 0x00, 0x0e, 0x00,
  0x14, 0x00, 0x04, 0x00, 0x00, 0x00, 0x08, 0x00, 0x0c, 0x00, 0x10, 0x00,
  0x0e, 0x00, 0x00, 0x00, 0x10, 0x00, 0x00, 0x00, 0x01, 0x00, 0x00, 0x00,
  0x1c, 0x00, 0x00, 0x00, 0x2c, 0x00, 0x00, 0x00, 0x04, 0x00, 0x00, 0x00,
  0x01, 0x00, 0x00, 0x00, 0x40, 0x00, 0x00, 0x00, 0x03, 0x00, 0x00, 0x00,
  0x01, 0x00, 0x00, 0x00, 0x0c, 0x00, 0x00, 0x00, 0x63, 0x6f, 0x6e, 0x76,
  0x32, 0x64, 0x5f, 0x69, 0x6e, 0x70, 0x75, 0x74, 0x00, 0x00, 0x00, 0x00,
  0xfc, 0xff, 0xff, 0xff, 0x04, 0x00, 0x04, 0x00, 0x04, 0x00, 0x00, 0x00
};


unsigned int model_tflite_len = 12384;// Fill the int in `src/model.cc` here